{
  "version": "1.0",
  "truncation": null,
  "padding": null,
  "added_tokens": [
    {
      "id": 0,
      "content": "<UNK>",
      "single_word": false,
      "lstrip": false,
      "rstrip": false,
      "normalized": false,
      "special": true
    }
  ],
  "normalizer": {
    "type": "Sequence",
    "normalizers": [
      {
        "type": "NFKC"
      },
      {
        "type": "Lowercase"
      }
    ]
  },
  "pre_tokenizer": {
    "type": "Sequence",
    "pretokenizers": [
      {
        "type": "WhitespaceSplit"
      },
      {
        "type": "Punctuation",
        "behavior": "Isolated"
      },
      {
        "type": "Digits",
        "individual_digits": true
      }
    ]
  },
  "post_processor": null,
  "decoder": null,
  "model": {
    "type": "BPE",
    "dropout": null,
    "unk_token": "<UNK>",
    "continuing_subword_prefix": null,
    "end_of_word_suffix": null,
    "fuse_unk": false,
    "byte_fallback": false,
    "ignore_merges": false,
    "vocab": {
      "<UNK>": 0,
      "!": 1,
      "\"": 2,
      "#": 3,
      "$": 4,
      "%": 5,
      "&": 6,
      "'": 7,
      "(": 8,
      ")": 9,
      "*": 10,
      "+": 11,
      ",": 12,
      "-": 13,
      ".": 14,
      "/": 15,
      "0": 16,
      "1": 17,
      "2": 18,
      "3": 19,
      "4": 20,
      "5": 21,
      "6": 22,
      "7": 23,
      "8": 24,
      "9": 25,
      ":": 26,
      ";": 27,
      "=": 28,
      "?": 29,
      "@": 30,
      "[": 31,
      "]": 32,
      "a": 33,
      "b": 34,
      "c": 35,
      "d": 36,
      "e": 37,
      "f": 38,
      "g": 39,
      "h": 40,
      "i": 41,
      "j": 42,
      "k": 43,
      "l": 44,
      "m": 45,
      "n": 46,
      "o": 47,
      "p": 48,
      "q": 49,
      "r": 50,
      "s": 51,
      "t": 52,
      "u": 53,
      "v": 54,
      "w": 55,
      "x": 56,
      "y": 57,
      "z": 58,
      "th": 59,
      "in": 60,
      "an": 61,
      "the": 62,
      "er": 63,
      "on": 64,
      "is": 65,
      "or": 66,
      "ed": 67,
      "ar": 68,
      "at": 69,
      "al": 70,
      "en": 71,
      "es": 72,
      "as": 73,
      "of": 74,
      "and": 75,
      "it": 76,
      "ic": 77,
      "re": 78,
      "ro": 79,
      "st": 80,
      "ion": 81,
      "ing": 82,
      "le": 83,
      "to": 84,
      "ch": 85,
      "am": 86,
      "il": 87,
      "un": 88,
      "co": 89,
      "ent": 90,
      "for": 91,
      "el": 92,
      "ur": 93,
      "ad": 94,
      "us": 95,
      "ac": 96,
      "was": 97,
      "ol": 98,
      "de": 99,
      "ation": 100,
      "se": 101,
      "iv": 102,
      "ter": 103,
      "ir": 104,
      "by": 105,
      "ly": 106,
      "be": 107,
      "he": 108,
      "ig": 109,
      "ut": 110,
      "ho": 111,
      "lo": 112,
      "tr": 113,
      "em": 114,
      "ay": 115,
      "so": 116,
      "com": 117,
      "id": 118,
      "ct": 119,
      "pr": 120,
      "ag": 121,
      "ul": 122,
      "con": 123,
      "pe": 124,
      "im": 125,
      "um": 126,
      "ers": 127,
      "no": 128,
      "wi": 129,
      "pl": 130,
      "ce": 131,
      "pro": 132,
      "ne": 133,
      "ab": 134,
      "est": 135,
      "with": 136,
      "ist": 137,
      "ber": 138,
      "te": 139,
      "ies": 140,
      "rom": 141,
      "art": 142,
      "wh": 143,
      "all": 144,
      "mo": 145,
      "ap": 146,
      "ia": 147,
      "ver": 148,
      "are": 149,
      "ian": 150,
      "op": 151,
      "from": 152,
      "su": 153,
      "et": 154,
      "ish": 155,
      "cl": 156,
      "und": 157,
      "bo": 158,
      "ip": 159,
      "av": 160,
      "ity": 161,
      "ain": 162,
      "br": 163,
      "wn": 164,
      "ated": 165,
      "ess": 166,
      "ate": 167,
      "fo": 168,
      "man": 169,
      "sh": 170,
      "po": 171,
      "ill": 172,
      "ther": 173,
      "ug": 174,
      "qu": 175,
      "that": 176,
      "ich": 177,
      "io": 178,
      "ant": 179,
      "ud": 180,
      "ser": 181,
      "ge": 182,
      "ard": 183,
      "ary": 184,
      "af": 185,
      "igh": 186,
      "gr": 187,
      "if": 188,
      "ust": 189,
      "ind": 190,
      "ive": 191,
      "ine": 192,
      "tw": 193,
      "ast": 194,
      "form": 195,
      "me": 196,
      "ak": 197,
      "up": 198,
      "act": 199,
      "ci": 200,
      "por": 201,
      "his": 202,
      "ub": 203,
      "one": 204,
      "cor": 205,
      "bor": 206,
      "ment": 207,
      "ex": 208,
      "ear": 209,
      "cr": 210,
      "has": 211,
      "part": 212,
      "wor": 213,
      "ere": 214,
      "end": 215,
      "per": 216,
      "play": 217,
      "land": 218,
      "ong": 219,
      "ember": 220,
      "ame": 221,
      "ot": 222,
      "do": 223,
      "ire": 224,
      "which": 225,
      "comm": 226,
      "ical": 227,
      "ph": 228,
      "fil": 229,
      "ased": 230,
      "its": 231,
      "ie": 232,
      "dis": 233,
      "eric": 234,
      "mar": 235,
      "ass": 236,
      "spe": 237,
      "fir": 238,
      "ell": 239,
      "but": 240,
      "aw": 241,
      "ach": 242,
      "nation": 243,
      "ily": 244,
      "iz": 245,
      "who": 246,
      "unt": 247,
      "born": 248,
      "du": 249,
      "ited": 250,
      "comp": 251,
      "col": 252,
      "new": 253,
      "americ": 254,
      "ck": 255,
      "age": 256,
      "port": 257,
      "film": 258,
      "also": 259,
      "first": 260,
      "fe": 261,
      "min": 262,
      "fr": 263,
      "ates": 264,
      "national": 265,
      "ight": 266,
      "ang": 267,
      "ack": 268,
      "gen": 269,
      "sp": 270,
      "ict": 271,
      "can": 272,
      "go": 273,
      "this": 274,
      "eng": 275,
      "jo": 276,
      "sch": 277,
      "dr": 278,
      "fam": 279,
      "res": 280,
      "uth": 281,
      "alb": 282,
      "ction": 283,
      "inter": 284,
      "cent": 285,
      "serv": 286,
      "american": 287,
      "ial": 288,
      "out": 289,
      "nor": 290,
      "ball": 291,
      "par": 292,
      "album": 293,
      "we": 294,
      "amp": 295,
      "ugh": 296,
      "family": 297,
      "lish": 298,
      "ice": 299,
      "ace": 300,
      "ma": 301,
      "ore": 302,
      "rele": 303,
      "ide": 304,
      "ater": 305,
      "pres": 306,
      "spec": 307,
      "od": 308,
      "united": 309,
      "ave": 310,
      "om": 311,
      "vel": 312,
      "ree": 313,
      "ra": 314,
      "loc": 315,
      "low": 316,
      "ok": 317,
      "sy": 318,
      "incl": 319,
      "kno": 320,
      "use": 321,
      "gro": 322,
      "li": 323,
      "ition": 324,
      "ustr": 325,
      "ally": 326,
      "ae": 327,
      "cur": 328,
      "oc": 329,
      "other": 330,
      "were": 331,
      "ens": 332,
      "ele": 333,
      "air": 334,
      "ue": 335,
      "ans": 336,
      "eld": 337,
      "ign": 338,
      "pub": 339,
      "cont": 340,
      "her": 341,
      "year": 342,
      "reg": 343,
      "old": 344,
      "been": 345,
      "ult": 346,
      "known": 347,
      "car": 348,
      "ke": 349,
      "cord": 350,
      "pre": 351,
      "ure": 352,
      "off": 353,
      "ents": 354,
      "states": 355,
      "ship": 356,
      "two": 357,
      "ev": 358,
      "pt": 359,
      "cre": 360,
      "not": 361,
      "produ": 362,
      "pol": 363,
      "species": 364,
      "ool": 365,
      "rit": 366,
      "ations": 367,
      "les": 368,
      "og": 369,
      "she": 370,
      "ivers": 371,
      "released": 372,
      "bro": 373,
      "tim": 374,
      "any": 375,
      "their": 376,
      "ory": 377,
      "school": 378,
      "bu": 379,
      "ld": 380,
      "sing": 381,
      "ten": 382,
      "ade": 383,
      "found": 384,
      "foot": 385,
      "des": 386,
      "ile": 387,
      "mus": 388,
      "ton": 389,
      "ision": 390,
      "ance": 391,
      "ca": 392,
      "ced": 393,
      "fer": 394,
      "soci": 395,
      "med": 396,
      "ence": 397,
      "ics": 398,
      "ite": 399,
      "have": 400,
      "state": 401,
      "world": 402,
      "ann": 403,
      "str": 404,
      "football": 405,
      "used": 406,
      "work": 407,
      "record": 408,
      "univers": 409,
      "count": 410,
      "ib": 411,
      "mon": 412,
      "ve": 413,
      "dire": 414,
      "south": 415,
      "cted": 416,
      "after": 417,
      "had": 418,
      "includ": 419,
      "uring": 420,
      "austr": 421,
      "cer": 422,
      "int": 423,
      "stud": 424,
      "able": 425,
      "team": 426,
      "ep": 427,
      "fl": 428,
      "sho": 429,
      "wo": 430,
      "distr": 431,
      "writ": 432,
      "under": 433,
      "der": 434,
      "att": 435,
      "urn": 436,
      "gan": 437,
      "idae": 438,
      "ince": 439,
      "ional": 440,
      "series": 441,
      "curr": 442,
      "az": 443,
      "list": 444,
      "num": 445,
      "ative": 446,
      "main": 447,
      "over": 448,
      "most": 449,
      "ger": 450,
      "ix": 451,
      "ied": 452,
      "lar": 453,
      "ick": 454,
      "dec": 455,
      "university": 456,
      "coun": 457,
      "prov": 458,
      "buil": 459,
      "bl": 460,
      "may": 461,
      "son": 462,
      "uary": 463,
      "ces": 464,
      "more": 465,
      "colle": 466,
      "bar": 467,
      "fin": 468,
      "lic": 469,
      "thro": 470,
      "town": 471,
      "ently": 472,
      "ely": 473,
      "ase": 474,
      "sub": 475,
      "iss": 476,
      "char": 477,
      "county": 478,
      "ail": 479,
      "tern": 480,
      "cons": 481,
      "based": 482,
      "een": 483,
      "way": 484,
      "ions": 485,
      "austral": 486,
      "king": 487,
      "orig": 488,
      "pos": 489,
      "former": 490,
      "band": 491,
      "cy": 492,
      "ts": 493,
      "war": 494,
      "ious": 495,
      "during": 496,
      "hist": 497,
      "ty": 498,
      "als": 499,
      "located": 500,
      "origin": 501,
      "ters": 502,
      "music": 503,
      "cess": 504,
      "je": 505,
      "prof": 506,
      "name": 507,
      "they": 508,
      "champ": 509,
      "brit": 510,
      "ath": 511,
      "fi": 512,
      "three": 513,
      "olog": 514,
      "time": 515,
      "city": 516,
      "don": 517,
      "gu": 518,
      "nam": 519,
      "rel": 520,
      "commun": 521,
      "lished": 522,
      "only": 523,
      "ason": 524,
      "ague": 525,
      "ular": 526,
      "present": 527,
      "mer": 528,
      "ry": 529,
      "song": 530,
      "try": 531,
      "company": 532,
      "group": 533,
      "high": 534,
      "pop": 535,
      "ctor": 536,
      "trans": 537,
      "ific": 538,
      "district": 539,
      "tt": 540,
      "ual": 541,
      "ake": 542,
      "played": 543,
      "public": 544,
      "div": 545,
      "red": 546,
      "league": 547,
      "gener": 548,
      "day": 549,
      "har": 550,
      "made": 551,
      "tho": 552,
      "champion": 553,
      "gre": 554,
      "member": 555,
      "ork": 556,
      "ital": 557,
      "ros": 558,
      "oper": 559,
      "betw": 560,
      "uld": 561,
      "cond": 562,
      "progr": 563,
      "both": 564,
      "number": 565,
      "between": 566,
      "os": 567,
      "there": 568,
      "ric": 569,
      "star": 570,
      "tele": 571,
      "british": 572,
      "cal": 573,
      "hn": 574,
      "la": 575,
      "line": 576,
      "ning": 577,
      "well": 578,
      "profess": 579,
      "ted": 580,
      "won": 581,
      "ors": 582,
      "class": 583,
      "mi": 584,
      "award": 585,
      "will": 586,
      "into": 587,
      "ley": 588,
      "where": 589,
      "jun": 590,
      "since": 591,
      "station": 592,
      "such": 593,
      "polit": 594,
      "aug": 595,
      "held": 596,
      "jan": 597,
      "led": 598,
      "uc": 599,
      "vers": 600,
      "ys": 601,
      "ins": 602,
      "devel": 603,
      "appe": 604,
      "north": 605,
      "yo": 606,
      "associ": 607,
      "four": 608,
      "many": 609,
      "cast": 610,
      "rad": 611,
      "ws": 612,
      "west": 613,
      "ident": 614,
      "when": 615,
      "ful": 616,
      "lab": 617,
      "arm": 618,
      "ret": 619,
      "fore": 620,
      "ury": 621,
      "season": 622,
      "canad": 623,
      "john": 624,
      "through": 625,
      "fol": 626,
      "uk": 627,
      "atur": 628,
      "ches": 629,
      "thern": 630,
      "december": 631,
      "field": 632,
      "program": 633,
      "develop": 634,
      "later": 635,
      "sim": 636,
      "ities": 637,
      "rock": 638,
      "head": 639,
      "international": 640,
      "championship": 641,
      "best": 642,
      "own": 643,
      "second": 644,
      "book": 645,
      "ding": 646,
      "ik": 647,
      "ju": 648,
      "ons": 649,
      "dep": 650,
      "iver": 651,
      "some": 652,
      "sup": 653,
      "mark": 654,
      "currently": 655,
      "appear": 656,
      "del": 657,
      "rol": 658,
      "ung": 659,
      "ird": 660,
      "compe": 661,
      "histor": 662,
      "ah": 663,
      "ank": 664,
      "stit": 665,
      "stem": 666,
      "nov": 667,
      "about": 668,
      "area": 669,
      "mat": 670,
      "met": 671,
      "side": 672,
      "urch": 673,
      "while": 674,
      "india": 675,
      "years": 676,
      "august": 677,
      "law": 678,
      "vol": 679,
      "ating": 680,
      "ale": 681,
      "road": 682,
      "cts": 683,
      "including": 684,
      "college": 685,
      "ii": 686,
      "ister": 687,
      "sept": 688,
      "ized": 689,
      "ner": 690,
      "sur": 691,
      "tit": 692,
      "vill": 693,
      "ina": 694,
      "leg": 695,
      "ames": 696,
      "being": 697,
      "house": 698,
      "bel": 699,
      "call": 700,
      "var": 701,
      "organ": 702,
      "tober": 703,
      "chr": 704,
      "design": 705,
      "cap": 706,
      "ham": 707,
      "sco": 708,
      "ven": 709,
      "vie": 710,
      "ement": 711,
      "october": 712,
      "division": 713,
      "september": 714,
      "sk": 715,
      "tain": 716,
      "ste": 717,
      "ists": 718,
      "east": 719,
      "ior": 720,
      "men": 721,
      "ort": 722,
      "stre": 723,
      "ired": 724,
      "club": 725,
      "phil": 726,
      "gover": 727,
      "building": 728,
      "telev": 729,
      "professional": 730,
      "january": 731,
      "back": 732,
      "clo": 733,
      "run": 734,
      "sw": 735,
      "ta": 736,
      "open": 737,
      "formed": 738,
      "english": 739,
      "system": 740,
      "broad": 741,
      "hy": 742,
      "mem": 743,
      "ous": 744,
      "sm": 745,
      "ived": 746,
      "cial": 747,
      "tal": 748,
      "vi": 749,
      "wes": 750,
      "then": 751,
      "prev": 752,
      "july": 753,
      "ha": 754,
      "iam": 755,
      "jor": 756,
      "than": 757,
      "ines": 758,
      "arch": 759,
      "until": 760,
      "produced": 761,
      "single": 762,
      "november": 763,
      "bas": 764,
      "came": 765,
      "sci": 766,
      "peop": 767,
      "directed": 768,
      "australian": 769,
      "follow": 770,
      "people": 771,
      "apr": 772,
      "bre": 773,
      "cas": 774,
      "sen": 775,
      "sign": 776,
      "ane": 777,
      "ered": 778,
      "represent": 779,
      "church": 780,
      "cour": 781,
      "board": 782,
      "park": 783,
      "show": 784,
      "ology": 785,
      "bus": 786,
      "ibut": 787,
      "lon": 788,
      "long": 789,
      "mas": 790,
      "na": 791,
      "wal": 792,
      "ices": 793,
      "requ": 794,
      "ament": 795,
      "sever": 796,
      "ives": 797,
      "again": 798,
      "plac": 799,
      "estab": 800,
      "indian": 801,
      "genus": 802,
      "service": 803,
      "rail": 804,
      "country": 805,
      "television": 806,
      "ef": 807,
      "ling": 808,
      "mb": 809,
      "sol": 810,
      "ude": 811,
      "ama": 812,
      "ulation": 813,
      "party": 814,
      "major": 815,
      "published": 816,
      "april": 817,
      "mp": 818,
      "mil": 819,
      "roy": 820,
      "election": 821,
      "june": 822,
      "val": 823,
      "ward": 824,
      "ings": 825,
      "near": 826,
      "tech": 827,
      "que": 828,
      "early": 829,
      "hal": 830,
      "pers": 831,
      "york": 832,
      "ality": 833,
      "top": 834,
      "debut": 835,
      "before": 836,
      "place": 837,
      "very": 838,
      "afric": 839,
      "march": 840,
      "england": 841,
      "named": 842,
      "community": 843,
      "village": 844,
      "au": 845,
      "cup": 846,
      "game": 847,
      "ier": 848,
      "ms": 849,
      "mal": 850,
      "miss": 851,
      "ran": 852,
      "rece": 853,
      "pris": 854,
      "plant": 855,
      "founded": 856,
      "studio": 857,
      "william": 858,
      "stitut": 859,
      "called": 860,
      "western": 861,
      "bers": 862,
      "da": 863,
      "ium": 864,
      "lang": 865,
      "my": 866,
      "mid": 867,
      "ob": 868,
      "rest": 869,
      "vis": 870,
      "vir": 871,
      "wer": 872,
      "union": 873,
      "depart": 874,
      "emp": 875,
      "sou": 876,
      "ides": 877,
      "partic": 878,
      "down": 879,
      "center": 880,
      "century": 881,
      "served": 882,
      "omen": 883,
      "would": 884,
      "written": 885,
      "though": 886,
      "several": 887,
      "techn": 888,
      "bill": 889,
      "dy": 890,
      "pat": 891,
      "stand": 892,
      "lead": 893,
      "ford": 894,
      "elf": 895,
      "uss": 896,
      "track": 897,
      "now": 898,
      "bruary": 899,
      "grap": 900,
      "dom": 901,
      "february": 902,
      "wood": 903,
      "general": 904,
      "depend": 905,
      "govern": 906,
      "eu": 907,
      "mor": 908,
      "mill": 909,
      "ually": 910,
      "ved": 911,
      "win": 912,
      "women": 913,
      "ont": 914,
      "island": 915,
      "along": 916,
      "mot": 917,
      "player": 918,
      "offic": 919,
      "records": 920,
      "director": 921,
      "radio": 922,
      "small": 923,
      "london": 924,
      "dif": 925,
      "gin": 926,
      "same": 927,
      "third": 928,
      "let": 929,
      "see": 930,
      "prim": 931,
      "novel": 932,
      "ety": 933,
      "manag": 934,
      "plays": 935,
      "event": 936,
      "previous": 937,
      "last": 938,
      "water": 939,
      "alth": 940,
      "cover": 941,
      "suc": 942,
      "crit": 943,
      "epis": 944,
      "built": 945,
      "australia": 946,
      "bal": 947,
      "ben": 948,
      "den": 949,
      "each": 950,
      "hol": 951,
      "lin": 952,
      "mich": 953,
      "pur": 954,
      "sc": 955,
      "aro": 956,
      "tour": 957,
      "add": 958,
      "became": 959,
      "ization": 960,
      "president": 961,
      "ross": 962,
      "broadcast": 963,
      "auth": 964,
      "bur": 965,
      "nia": 966,
      "ri": 967,
      "these": 968,
      "ise": 969,
      "educ": 970,
      "prote": 971,
      "within": 972,
      "aff": 973,
      "northern": 974,
      "include": 975,
      "cali": 976,
      "support": 977,
      "government": 978,
      "cil": 979,
      "hum": 980,
      "night": 981,
      "pen": 982,
      "sa": 983,
      "sn": 984,
      "san": 985,
      "vent": 986,
      "ze": 987,
      "issu": 988,
      "start": 989,
      "ington": 990,
      "chart": 991,
      "fornia": 992,
      "ural": 993,
      "using": 994,
      "bert": 995,
      "moth": 996,
      "super": 997,
      "grad": 998,
      "aking": 999,
      "original": 1000,
      "compet": 1001,
      "established": 1002,
      "california": 1003,
      "ba": 1004,
      "cut": 1005,
      "lim": 1006,
      "nes": 1007,
      "pal": 1008,
      "ral": 1009,
      "van": 1010,
      "ering": 1011,
      "ats": 1012,
      "rope": 1013,
      "industr": 1014,
      "ext": 1015,
      "common": 1016,
      "stru": 1017,
      "writer": 1018,
      "population": 1019,
      "association": 1020,
      "langu": 1021,
      "ey": 1022,
      "hand": 1023,
      "hip": 1024,
      "non": 1025,
      "right": 1026,
      "inc": 1027,
      "isl": 1028,
      "ician": 1029,
      "round": 1030,
      "def": 1031,
      "howe": 1032,
      "actor": 1033,
      "corpor": 1034,
      "canadian": 1035,
      "title": 1036,
      "street": 1037,
      "however": 1038,
      "cult": 1039,
      "gy": 1040,
      "gar": 1041,
      "gest": 1042,
      "hold": 1043,
      "ks": 1044,
      "mic": 1045,
      "ped": 1046,
      "sil": 1047,
      "sport": 1048,
      "site": 1049,
      "vo": 1050,
      "xt": 1051,
      "independ": 1052,
      "esh": 1053,
      "ster": 1054,
      "point": 1055,
      "ief": 1056,
      "black": 1057,
      "ject": 1058,
      "members": 1059,
      "department": 1060,
      "author": 1061,
      "ban": 1062,
      "cu": 1063,
      "ctr": 1064,
      "care": 1065,
      "dav": 1066,
      "fest": 1067,
      "han": 1068,
      "hel": 1069,
      "ler": 1070,
      "lit": 1071,
      "race": 1072,
      "river": 1073,
      "six": 1074,
      "test": 1075,
      "vict": 1076,
      "yle": 1077,
      "ymp": 1078,
      "ature": 1079,
      "ures": 1080,
      "los": 1081,
      "press": 1082,
      "contr": 1083,
      "action": 1084,
      "featur": 1085,
      "footballer": 1086,
      "large": 1087,
      "charac": 1088,
      "europe": 1089,
      "around": 1090,
      "cle": 1091,
      "lif": 1092,
      "mag": 1093,
      "iness": 1094,
      "anch": 1095,
      "ism": 1096,
      "asse": 1097,
      "began": 1098,
      "conne": 1099,
      "plic": 1100,
      "shire": 1101,
      "short": 1102,
      "ended": 1103,
      "films": 1104,
      "resear": 1105,
      "local": 1106,
      "events": 1107,
      "historic": 1108,
      "against": 1109,
      "cir": 1110,
      "live": 1111,
      "pa": 1112,
      "rac": 1113,
      "ino": 1114,
      "ata": 1115,
      "ator": 1116,
      "ref": 1117,
      "chil": 1118,
      "sea": 1119,
      "cept": 1120,
      "post": 1121,
      "quar": 1122,
      "ically": 1123,
      "engine": 1124,
      "listed": 1125,
      "originally": 1126,
      "great": 1127,
      "business": 1128,
      "education": 1129,
      "research": 1130,
      "ble": 1131,
      "camp": 1132,
      "ga": 1133,
      "hor": 1134,
      "hill": 1135,
      "ris": 1136,
      "voc": 1137,
      "institut": 1138,
      "them": 1139,
      "ony": 1140,
      "ene": 1141,
      "ash": 1142,
      "chan": 1143,
      "oll": 1144,
      "set": 1145,
      "ival": 1146,
      "home": 1147,
      "formation": 1148,
      "playing": 1149,
      "iction": 1150,
      "central": 1151,
      "libr": 1152,
      "contin": 1153,
      "contain": 1154,
      "cause": 1155,
      "works": 1156,
      "ible": 1157,
      "development": 1158,
      "success": 1159,
      "blo": 1160,
      "him": 1161,
      "ker": 1162,
      "sit": 1163,
      "vide": 1164,
      "ency": 1165,
      "often": 1166,
      "uses": 1167,
      "sequ": 1168,
      "import": 1169,
      "web": 1170,
      "electr": 1171,
      "students": 1172,
      "german": 1173,
      "canada": 1174,
      "various": 1175,
      "received": 1176,
      "dan": 1177,
      "ken": 1178,
      "ket": 1179,
      "light": 1180,
      "ple": 1181,
      "ring": 1182,
      "sum": 1183,
      "uf": 1184,
      "uch": 1185,
      "vil": 1186,
      "eder": 1187,
      "ese": 1188,
      "stor": 1189,
      "level": 1190,
      "adem": 1191,
      "olymp": 1192,
      "hot": 1193,
      "process": 1194,
      "netw": 1195,
      "teen": 1196,
      "aft": 1197,
      "due": 1198,
      "journ": 1199,
      "like": 1200,
      "control": 1201,
      "created": 1202,
      "version": 1203,
      "christ": 1204,
      "following": 1205,
      "railway": 1206,
      "network": 1207,
      "aim": 1208,
      "bi": 1209,
      "dar": 1210,
      "games": 1211,
      "jer": 1212,
      "just": 1213,
      "less": 1214,
      "mc": 1215,
      "mis": 1216,
      "tor": 1217,
      "tre": 1218,
      "read": 1219,
      "role": 1220,
      "ilar": 1221,
      "iving": 1222,
      "idge": 1223,
      "ants": 1224,
      "marine": 1225,
      "comple": 1226,
      "america": 1227,
      "release": 1228,
      "distribut": 1229,
      "council": 1230,
      "young": 1231,
      "similar": 1232,
      "legisl": 1233,
      "graph": 1234,
      "competition": 1235,
      "journal": 1236,
      "cens": 1237,
      "eas": 1238,
      "fa": 1239,
      "fac": 1240,
      "gl": 1241,
      "ith": 1242,
      "james": 1243,
      "ming": 1244,
      "mix": 1245,
      "pass": 1246,
      "rich": 1247,
      "tv": 1248,
      "tro": 1249,
      "ting": 1250,
      "ves": 1251,
      "atic": 1252,
      "although": 1253,
      "itary": 1254,
      "refer": 1255,
      "remain": 1256,
      "iven": 1257,
      "come": 1258,
      "ime": 1259,
      "artist": 1260,
      "model": 1261,
      "akes": 1262,
      "minis": 1263,
      "resp": 1264,
      "syn": 1265,
      "social": 1266,
      "annual": 1267,
      "kingdom": 1268,
      "popular": 1269,
      "label": 1270,
      "royal": 1271,
      "southern": 1272,
      "differ": 1273,
      "previously": 1274,
      "assemb": 1275,
      "cro": 1276,
      "cum": 1277,
      "feder": 1278,
      "ges": 1279,
      "gold": 1280,
      "mit": 1281,
      "mass": 1282,
      "make": 1283,
      "ps": 1284,
      "pan": 1285,
      "spr": 1286,
      "inv": 1287,
      "ones": 1288,
      "ench": 1289,
      "reach": 1290,
      "cho": 1291,
      "academ": 1292,
      "demo": 1293,
      "wide": 1294,
      "ipp": 1295,
      "avy": 1296,
      "ified": 1297,
      "wee": 1298,
      "ground": 1299,
      "region": 1300,
      "premi": 1301,
      "included": 1302,
      "current": 1303,
      "songs": 1304,
      "politician": 1305,
      "labor": 1306,
      "science": 1307,
      "person": 1308,
      "language": 1309,
      "assembly": 1310,
      "fif": 1311,
      "five": 1312,
      "ka": 1313,
      "ode": 1314,
      "self": 1315,
      "era": 1316,
      "coach": 1317,
      "ute": 1318,
      "sound": 1319,
      "ided": 1320,
      "ctive": 1321,
      "apan": 1322,
      "power": 1323,
      "geor": 1324,
      "activ": 1325,
      "commer": 1326,
      "minister": 1327,
      "lower": 1328,
      "largest": 1329,
      "history": 1330,
      "scott": 1331,
      "court": 1332,
      "gradu": 1333,
      "library": 1334,
      "continu": 1335,
      "video": 1336,
      "glo": 1337,
      "hon": 1338,
      "japan": 1339,
      "rug": 1340,
      "sal": 1341,
      "tur": 1342,
      "wil": 1343,
      "wind": 1344,
      "ined": 1345,
      "edit": 1346,
      "took": 1347,
      "chief": 1348,
      "ility": 1349,
      "ential": 1350,
      "term": 1351,
      "beet": 1352,
      "health": 1353,
      "loy": 1354,
      "pract": 1355,
      "ago": 1356,
      "ages": 1357,
      "ney": 1358,
      "grand": 1359,
      "ments": 1360,
      "exper": 1361,
      "ize": 1362,
      "french": 1363,
      "result": 1364,
      "parli": 1365,
      "albums": 1366,
      "media": 1367,
      "recorded": 1368,
      "includes": 1369,
      "final": 1370,
      "political": 1371,
      "market": 1372,
      "designed": 1373,
      "africa": 1374,
      "census": 1375,
      "parliament": 1376,
      "di": 1377,
      "fre": 1378,
      "fun": 1379,
      "get": 1380,
      "jack": 1381,
      "late": 1382,
      "lake": 1383,
      "mun": 1384,
      "mult": 1385,
      "ny": 1386,
      "ned": 1387,
      "ren": 1388,
      "rul": 1389,
      "sed": 1390,
      "sof": 1391,
      "order": 1392,
      "ately": 1393,
      "robert": 1394,
      "stat": 1395,
      "chang": 1396,
      "coast": 1397,
      "fort": 1398,
      "acy": 1399,
      "wash": 1400,
      "hop": 1401,
      "tra": 1402,
      "istan": 1403,
      "white": 1404,
      "special": 1405,
      "color": 1406,
      "angel": 1407,
      "drama": 1408,
      "key": 1409,
      "icket": 1410,
      "position": 1411,
      "organization": 1412,
      "basket": 1413,
      "military": 1414,
      "official": 1415,
      "snail": 1416,
      "important": 1417,
      "basketball": 1418,
      "cam": 1419,
      "dut": 1420,
      "eth": 1421,
      "equ": 1422,
      "free": 1423,
      "lu": 1424,
      "lat": 1425,
      "mur": 1426,
      "mater": 1427,
      "pap": 1428,
      "va": 1429,
      "init": 1430,
      "anc": 1431,
      "ond": 1432,
      "aland": 1433,
      "ica": 1434,
      "style": 1435,
      "cher": 1436,
      "across": 1437,
      "lou": 1438,
      "priv": 1439,
      "berg": 1440,
      "mov": 1441,
      "applic": 1442,
      "space": 1443,
      "even": 1444,
      "township": 1445,
      "posed": 1446,
      "laun": 1447,
      "awards": 1448,
      "owned": 1449,
      "technology": 1450,
      "sports": 1451,
      "character": 1452,
      "summer": 1453,
      "ville": 1454,
      "washington": 1455,
      "bc": 1456,
      "bay": 1457,
      "bell": 1458,
      "base": 1459,
      "cell": 1460,
      "dam": 1461,
      "dig": 1462,
      "face": 1463,
      "gree": 1464,
      "ja": 1465,
      "mel": 1466,
      "put": 1467,
      "uter": 1468,
      "wing": 1469,
      "invol": 1470,
      "ord": 1471,
      "ences": 1472,
      "report": 1473,
      "igan": 1474,
      "host": 1475,
      "moder": 1476,
      "ards": 1477,
      "ota": 1478,
      "commiss": 1479,
      "france": 1480,
      "ctions": 1481,
      "times": 1482,
      "medal": 1483,
      "green": 1484,
      "stars": 1485,
      "full": 1486,
      "return": 1487,
      "championships": 1488,
      "zealand": 1489,
      "industry": 1490,
      "independent": 1491,
      "rugby": 1492,
      "aur": 1493,
      "bank": 1494,
      "civ": 1495,
      "dist": 1496,
      "fish": 1497,
      "gir": 1498,
      "given": 1499,
      "hen": 1500,
      "mac": 1501,
      "natur": 1502,
      "ome": 1503,
      "pho": 1504,
      "ram": 1505,
      "russ": 1506,
      "sat": 1507,
      "squ": 1508,
      "tle": 1509,
      "wa": 1510,
      "ense": 1511,
      "stage": 1512,
      "story": 1513,
      "lee": 1514,
      "china": 1515,
      "enter": 1516,
      "dev": 1517,
      "seven": 1518,
      "ivid": 1519,
      "ively": 1520,
      "because": 1521,
      "lot": 1522,
      "trad": 1523,
      "comed": 1524,
      "net": 1525,
      "body": 1526,
      "individ": 1527,
      "astro": 1528,
      "ireland": 1529,
      "phys": 1530,
      "services": 1531,
      "register": 1532,
      "singles": 1533,
      "month": 1534,
      "operated": 1535,
      "mith": 1536,
      "associated": 1537,
      "fourth": 1538,
      "army": 1539,
      "retired": 1540,
      "developed": 1541,
      "places": 1542,
      "virgin": 1543,
      "addition": 1544,
      "david": 1545,
      "life": 1546,
      "ollus": 1547,
      "beetle": 1548,
      "launch": 1549,
      "commission": 1550,
      "bass": 1551,
      "cit": 1552,
      "fiction": 1553,
      "ns": 1554,
      "native": 1555,
      "ping": 1556,
      "rap": 1557,
      "sl": 1558,
      "ss": 1559,
      "tar": 1560,
      "anim": 1561,
      "erous": 1562,
      "recent": 1563,
      "rog": 1564,
      "chem": 1565,
      "could": 1566,
      "sex": 1567,
      "sey": 1568,
      "separ": 1569,
      "pod": 1570,
      "anta": 1571,
      "commit": 1572,
      "colum": 1573,
      "elected": 1574,
      "descr": 1575,
      "teams": 1576,
      "related": 1577,
      "starring": 1578,
      "view": 1579,
      "effe": 1580,
      "prison": 1581,
      "particular": 1582,
      "episode": 1583,
      "festival": 1584,
      "victor": 1585,
      "democr": 1586,
      "material": 1587,
      "ael": 1588,
      "bed": 1589,
      "cand": 1590,
      "every": 1591,
      "ff": 1592,
      "ft": 1593,
      "hab": 1594,
      "hall": 1595,
      "hind": 1596,
      "mollus": 1597,
      "ply": 1598,
      "sam": 1599,
      "sold": 1600,
      "whe": 1601,
      "ana": 1602,
      "anth": 1603,
      "anno": 1604,
      "edition": 1605,
      "ara": 1606,
      "republic": 1607,
      "sto": 1608,
      "lear": 1609,
      "total": 1610,
      "forman": 1611,
      "acqu": 1612,
      "accord": 1613,
      "bet": 1614,
      "sour": 1615,
      "next": 1616,
      "tex": 1617,
      "mount": 1618,
      "box": 1619,
      "exp": 1620,
      "cricket": 1621,
      "performan": 1622,
      "good": 1623,
      "ample": 1624,
      "aired": 1625,
      "society": 1626,
      "province": 1627,
      "those": 1628,
      "scot": 1629,
      "opened": 1630,
      "placed": 1631,
      "valley": 1632,
      "african": 1633,
      "particip": 1634,
      "burg": 1635,
      "features": 1636,
      "different": 1637,
      "dutch": 1638,
      "natural": 1639,
      "aut": 1640,
      "bin": 1641,
      "bat": 1642,
      "cat": 1643,
      "ds": 1644,
      "died": 1645,
      "fly": 1646,
      "fund": 1647,
      "gastro": 1648,
      "hit": 1649,
      "ko": 1650,
      "lan": 1651,
      "lad": 1652,
      "mad": 1653,
      "mir": 1654,
      "mart": 1655,
      "making": 1656,
      "py": 1657,
      "psy": 1658,
      "ron": 1659,
      "scre": 1660,
      "went": 1661,
      "infl": 1662,
      "incorpor": 1663,
      "information": 1664,
      "theater": 1665,
      "edited": 1666,
      "ari": 1667,
      "allow": 1668,
      "ener": 1669,
      "icle": 1670,
      "toge": 1671,
      "force": 1672,
      "ado": 1673,
      "ola": 1674,
      "sele": 1675,
      "hout": 1676,
      "conserv": 1677,
      "project": 1678,
      "sure": 1679,
      "tware": 1680,
      "computer": 1681,
      "dren": 1682,
      "ught": 1683,
      "publish": 1684,
      "office": 1685,
      "azz": 1686,
      "charles": 1687,
      "consid": 1688,
      "ification": 1689,
      "italian": 1690,
      "metal": 1691,
      "signific": 1692,
      "wales": 1693,
      "million": 1694,
      "children": 1695,
      "contains": 1696,
      "modern": 1697,
      "civil": 1698,
      "together": 1699,
      "bir": 1700,
      "bul": 1701,
      "cing": 1702,
      "flo": 1703,
      "fem": 1704,
      "gn": 1705,
      "ged": 1706,
      "ru": 1707,
      "spo": 1708,
      "scor": 1709,
      "scr": 1710,
      "via": 1711,
      "wis": 1712,
      "wid": 1713,
      "xic": 1714,
      "ya": 1715,
      "thor": 1716,
      "onto": 1717,
      "ario": 1718,
      "itar": 1719,
      "death": 1720,
      "hock": 1721,
      "train": 1722,
      "ays": 1723,
      "ida": 1724,
      "constru": 1725,
      "proper": 1726,
      "ians": 1727,
      "claim": 1728,
      "iple": 1729,
      "bridge": 1730,
      "foc": 1731,
      "ughout": 1732,
      "iod": 1733,
      "antic": 1734,
      "meth": 1735,
      "cru": 1736,
      "performed": 1737,
      "command": 1738,
      "front": 1739,
      "franc": 1740,
      "ength": 1741,
      "liber": 1742,
      "production": 1743,
      "musical": 1744,
      "cert": 1745,
      "numerous": 1746,
      "finish": 1747,
      "throughout": 1748,
      "days": 1749,
      "appeared": 1750,
      "metro": 1751,
      "half": 1752,
      "michigan": 1753,
      "michael": 1754,
      "invest": 1755,
      "week": 1756,
      "commercial": 1757,
      "software": 1758,
      "private": 1759,
      "girl": 1760,
      "describ": 1761,
      "scotland": 1762,
      "gastropod": 1763,
      "hockey": 1764,
      "francis": 1765,
      "ax": 1766,
      "bs": 1767,
      "batt": 1768,
      "bird": 1769,
      "cab": 1770,
      "data": 1771,
      "find": 1772,
      "fire": 1773,
      "hi": 1774,
      "hav": 1775,
      "jazz": 1776,
      "kill": 1777,
      "nine": 1778,
      "pain": 1779,
      "sis": 1780,
      "sun": 1781,
      "sell": 1782,
      "smith": 1783,
      "another": 1784,
      "ared": 1785,
      "arily": 1786,
      "atl": 1787,
      "asia": 1788,
      "ston": 1789,
      "adel": 1790,
      "tries": 1791,
      "compo": 1792,
      "cture": 1793,
      "pri": 1794,
      "aged": 1795,
      "plain": 1796,
      "without": 1797,
      "roman": 1798,
      "what": 1799,
      "ava": 1800,
      "branch": 1801,
      "format": 1802,
      "example": 1803,
      "craft": 1804,
      "ending": 1805,
      "lands": 1806,
      "speed": 1807,
      "achus": 1808,
      "compil": 1809,
      "gene": 1810,
      "joined": 1811,
      "serving": 1812,
      "products": 1813,
      "annel": 1814,
      "flor": 1815,
      "mainly": 1816,
      "consist": 1817,
      "typ": 1818,
      "communic": 1819,
      "stream": 1820,
      "scient": 1821,
      "represented": 1822,
      "management": 1823,
      "human": 1824,
      "started": 1825,
      "career": 1826,
      "paul": 1827,
      "change": 1828,
      "successful": 1829,
      "reached": 1830,
      "scottish": 1831,
      "candid": 1832,
      "screen": 1833,
      "method": 1834,
      "bit": 1835,
      "ded": 1836,
      "ei": 1837,
      "econ": 1838,
      "far": 1839,
      "fall": 1840,
      "gon": 1841,
      "ners": 1842,
      "pun": 1843,
      "sus": 1844,
      "sid": 1845,
      "sab": 1846,
      "tam": 1847,
      "uck": 1848,
      "inte": 1849,
      "ances": 1850,
      "ored": 1851,
      "ald": 1852,
      "rew": 1853,
      "stad": 1854,
      "che": 1855,
      "chair": 1856,
      "cogn": 1857,
      "els": 1858,
      "usually": 1859,
      "sett": 1860,
      "ution": 1861,
      "ctic": 1862,
      "print": 1863,
      "ula": 1864,
      "constit": 1865,
      "peter": 1866,
      "nomin": 1867,
      "plat": 1868,
      "areas": 1869,
      "etts": 1870,
      "manuf": 1871,
      "gress": 1872,
      "forms": 1873,
      "exist": 1874,
      "parts": 1875,
      "fri": 1876,
      "fred": 1877,
      "regular": 1878,
      "cret": 1879,
      "schools": 1880,
      "mont": 1881,
      "maintain": 1882,
      "germany": 1883,
      "countries": 1884,
      "provide": 1885,
      "guitar": 1886,
      "generally": 1887,
      "italy": 1888,
      "historical": 1889,
      "views": 1890,
      "philipp": 1891,
      "senior": 1892,
      "employ": 1893,
      "billboard": 1894,
      "critics": 1895,
      "silver": 1896,
      "little": 1897,
      "quarter": 1898,
      "massachus": 1899,
      "spring": 1900,
      "graduate": 1901,
      "comedy": 1902,
      "virginia": 1903,
      "according": 1904,
      "texas": 1905,
      "significant": 1906,
      "econom": 1907,
      "constitu": 1908,
      "manufact": 1909,
      "massachusetts": 1910,
      "big": 1911,
      "bia": 1912,
      "cin": 1913,
      "cul": 1914,
      "dle": 1915,
      "flow": 1916,
      "mary": 1917,
      "ni": 1918,
      "ow": 1919,
      "our": 1920,
      "ray": 1921,
      "rid": 1922,
      "rang": 1923,
      "tel": 1924,
      "turn": 1925,
      "xim": 1926,
      "thol": 1927,
      "icip": 1928,
      "tourn": 1929,
      "chi": 1930,
      "channel": 1931,
      "among": 1932,
      "unced": 1933,
      "ellow": 1934,
      "urban": 1935,
      "access": 1936,
      "termin": 1937,
      "pred": 1938,
      "wife": 1939,
      "plann": 1940,
      "ably": 1941,
      "tee": 1942,
      "mob": 1943,
      "movie": 1944,
      "appro": 1945,
      "bow": 1946,
      "ateg": 1947,
      "pose": 1948,
      "cry": 1949,
      "ends": 1950,
      "ender": 1951,
      "phy": 1952,
      "phone": 1953,
      "assist": 1954,
      "interest": 1955,
      "weight": 1956,
      "airs": 1957,
      "contem": 1958,
      "regional": 1959,
      "brown": 1960,
      "singer": 1961,
      "ceram": 1962,
      "poss": 1963,
      "type": 1964,
      "ological": 1965,
      "operation": 1966,
      "books": 1967,
      "competed": 1968,
      "matches": 1969,
      "vari": 1970,
      "buildings": 1971,
      "archite": 1972,
      "mission": 1973,
      "covered": 1974,
      "magaz": 1975,
      "refers": 1976,
      "institute": 1977,
      "olympics": 1978,
      "legislative": 1979,
      "respons": 1980,
      "academy": 1981,
      "fifth": 1982,
      "municip": 1983,
      "digital": 1984,
      "launched": 1985,
      "citiz": 1986,
      "separate": 1987,
      "committee": 1988,
      "performance": 1989,
      "incorporated": 1990,
      "energy": 1991,
      "considered": 1992,
      "aud": 1993,
      "bon": 1994,
      "bol": 1995,
      "bio": 1996,
      "dun": 1997,
      "did": 1998,
      "eight": 1999,
      "ecut": 2000,
      "gun": 2001,
      "gent": 2002,
      "gain": 2003,
      "hib": 2004,
      "ius": 2005,
      "kil": 2006,
      "much": 2007,
      "pin": 2008,
      "pak": 2009,
      "rick": 2010,
      "sar": 2011,
      "vin": 2012,
      "inf": 2013,
      "inst": 2014,
      "ani": 2015,
      "ison": 2016,
      "atives": 2017,
      "ases": 2018,
      "row": 2019,
      "still": 2020,
      "left": 2021,
      "amin": 2022,
      "unit": 2023,
      "cop": 2024,
      "colo": 2025,
      "forest": 2026,
      "ush": 2027,
      "accept": 2028,
      "seat": 2029,
      "section": 2030,
      "become": 2031,
      "lost": 2032,
      "load": 2033,
      "prior": 2034,
      "agon": 2035,
      "congress": 2036,
      "plan": 2037,
      "proble": 2038,
      "need": 2039,
      "mother": 2040,
      "ipt": 2041,
      "avail": 2042,
      "pot": 2043,
      "cially": 2044,
      "execut": 2045,
      "period": 2046,
      "players": 2047,
      "door": 2048,
      "doub": 2049,
      "commonly": 2050,
      "ella": 2051,
      "whose": 2052,
      "minor": 2053,
      "resid": 2054,
      "outside": 2055,
      "syl": 2056,
      "producer": 2057,
      "police": 2058,
      "brother": 2059,
      "working": 2060,
      "jects": 2061,
      "youth": 2062,
      "chester": 2063,
      "programs": 2064,
      "chris": 2065,
      "master": 2066,
      "middle": 2067,
      "southe": 2068,
      "tracks": 2069,
      "primarily": 2070,
      "engineering": 2071,
      "distribution": 2072,
      "eastern": 2073,
      "premier": 2074,
      "george": 2075,
      "editor": 2076,
      "multiple": 2077,
      "angeles": 2078,
      "louis": 2079,
      "months": 2080,
      "mollusk": 2081,
      "announced": 2082,
      "influ": 2083,
      "described": 2084,
      "stadium": 2085,
      "available": 2086,
      "card": 2087,
      "dro": 2088,
      "dio": 2089,
      "ffer": 2090,
      "farm": 2091,
      "frequ": 2092,
      "gal": 2093,
      "hu": 2094,
      "haw": 2095,
      "jud": 2096,
      "kar": 2097,
      "kent": 2098,
      "living": 2099,
      "ness": 2100,
      "oh": 2101,
      "pit": 2102,
      "rain": 2103,
      "sor": 2104,
      "tic": 2105,
      "tem": 2106,
      "take": 2107,
      "ua": 2108,
      "ying": 2109,
      "anal": 2110,
      "onet": 2111,
      "aries": 2112,
      "ators": 2113,
      "altern": 2114,
      "itive": 2115,
      "recogn": 2116,
      "roles": 2117,
      "rovers": 2118,
      "stan": 2119,
      "code": 2120,
      "forward": 2121,
      "adminis": 2122,
      "defe": 2123,
      "how": 2124,
      "hood": 2125,
      "compris": 2126,
      "peak": 2127,
      "teach": 2128,
      "text": 2129,
      "rome": 2130,
      "arts": 2131,
      "boat": 2132,
      "fox": 2133,
      "anti": 2134,
      "mexic": 2135,
      "compan": 2136,
      "collabor": 2137,
      "news": 2138,
      "cks": 2139,
      "feature": 2140,
      "wealth": 2141,
      "cathol": 2142,
      "certain": 2143,
      "writing": 2144,
      "blue": 2145,
      "subsequ": 2146,
      "ailed": 2147,
      "relig": 2148,
      "redu": 2149,
      "folk": 2150,
      "programming": 2151,
      "closed": 2152,
      "running": 2153,
      "viol": 2154,
      "solo": 2155,
      "queens": 2156,
      "studios": 2157,
      "daily": 2158,
      "restaur": 2159,
      "standard": 2160,
      "ontario": 2161,
      "islands": 2162,
      "purpose": 2163,
      "broadcasting": 2164,
      "protein": 2165,
      "said": 2166,
      "cultural": 2167,
      "contribut": 2168,
      "featured": 2169,
      "circu": 2170,
      "racing": 2171,
      "stories": 2172,
      "father": 2173,
      "mixed": 2174,
      "richard": 2175,
      "rules": 2176,
      "initial": 2177,
      "returned": 2178,
      "tradition": 2179,
      "integr": 2180,
      "constituency": 2181,
      "magazine": 2182,
      "pakistan": 2183,
      "aer": 2184,
      "aver": 2185,
      "aign": 2186,
      "cd": 2187,
      "cidae": 2188,
      "case": 2189,
      "cities": 2190,
      "ee": 2191,
      "fle": 2192,
      "gian": 2193,
      "greg": 2194,
      "hur": 2195,
      "kel": 2196,
      "kind": 2197,
      "lor": 2198,
      "lay": 2199,
      "lives": 2200,
      "length": 2201,
      "muse": 2202,
      "nis": 2203,
      "navy": 2204,
      "ows": 2205,
      "pil": 2206,
      "ror": 2207,
      "scal": 2208,
      "santa": 2209,
      "tas": 2210,
      "uel": 2211,
      "wy": 2212,
      "wall": 2213,
      "thur": 2214,
      "ona": 2215,
      "attr": 2216,
      "ali": 2217,
      "alex": 2218,
      "enz": 2219,
      "ende": 2220,
      "staff": 2221,
      "entire": 2222,
      "seen": 2223,
      "seats": 2224,
      "secret": 2225,
      "ires": 2226,
      "begin": 2227,
      "houses": 2228,
      "tric": 2229,
      "tress": 2230,
      "eme": 2231,
      "empt": 2232,
      "ids": 2233,
      "ument": 2234,
      "ples": 2235,
      "neigh": 2236,
      "ets": 2237,
      "avel": 2238,
      "braz": 2239,
      "qual": 2240,
      "meter": 2241,
      "aker": 2242,
      "active": 2243,
      "earli": 2244,
      "docum": 2245,
      "fili": 2246,
      "minnes": 2247,
      "spital": 2248,
      "god": 2249,
      "serves": 2250,
      "specific": 2251,
      "brook": 2252,
      "ference": 2253,
      "mostly": 2254,
      "consists": 2255,
      "kings": 2256,
      "transport": 2257,
      "professor": 2258,
      "appearance": 2259,
      "surv": 2260,
      "runs": 2261,
      "systems": 2262,
      "auto": 2263,
      "primary": 2264,
      "vania": 2265,
      "rights": 2266,
      "contract": 2267,
      "christian": 2268,
      "global": 2269,
      "experi": 2270,
      "function": 2271,
      "involved": 2272,
      "democratic": 2273,
      "acquired": 2274,
      "construction": 2275,
      "florida": 2276,
      "scientific": 2277,
      "nominated": 2278,
      "administr": 2279,
      "endemic": 2280,
      "minnesota": 2281,
      "cel": 2282,
      "ccer": 2283,
      "categ": 2284,
      "dest": 2285,
      "die": 2286,
      "gia": 2287,
      "got": 2288,
      "hard": 2289,
      "hits": 2290,
      "ient": 2291,
      "ique": 2292,
      "ked": 2293,
      "kim": 2294,
      "lived": 2295,
      "mand": 2296,
      "nal": 2297,
      "nuc": 2298,
      "oso": 2299,
      "pay": 2300,
      "sund": 2301,
      "ues": 2302,
      "online": 2303,
      "ised": 2304,
      "ars": 2305,
      "enced": 2306,
      "asy": 2307,
      "astr": 2308,
      "real": 2309,
      "revol": 2310,
      "today": 2311,
      "chic": 2312,
      "chap": 2313,
      "cost": 2314,
      "forces": 2315,
      "ada": 2316,
      "ades": 2317,
      "advent": 2318,
      "territ": 2319,
      "beat": 2320,
      "becom": 2321,
      "beach": 2322,
      "heavy": 2323,
      "tri": 2324,
      "ements": 2325,
      "soccer": 2326,
      "pet": 2327,
      "iment": 2328,
      "ability": 2329,
      "estic": 2330,
      "boy": 2331,
      "aves": 2332,
      "ugu": 2333,
      "queen": 2334,
      "affili": 2335,
      "grass": 2336,
      "twent": 2337,
      "upon": 2338,
      "actions": 2339,
      "porary": 2340,
      "border": 2341,
      "achie": 2342,
      "newsp": 2343,
      "jose": 2344,
      "drum": 2345,
      "parish": 2346,
      "raj": 2347,
      "location": 2348,
      "others": 2349,
      "elector": 2350,
      "aircraft": 2351,
      "contest": 2352,
      "keep": 2353,
      "ships": 2354,
      "direct": 2355,
      "intro": 2356,
      "study": 2357,
      "shows": 2358,
      "woman": 2359,
      "athlet": 2360,
      "higher": 2361,
      "operations": 2362,
      "chron": 2363,
      "stead": 2364,
      "viet": 2365,
      "breed": 2366,
      "cases": 2367,
      "signed": 2368,
      "miles": 2369,
      "plants": 2370,
      "standing": 2371,
      "issues": 2372,
      "corporation": 2373,
      "culture": 2374,
      "pointed": 2375,
      "connectic": 2376,
      "block": 2377,
      "situ": 2378,
      "website": 2379,
      "electric": 2380,
      "jersey": 2381,
      "windows": 2382,
      "paper": 2383,
      "movement": 2384,
      "baseball": 2385,
      "reported": 2386,
      "photo": 2387,
      "individual": 2388,
      "chemical": 2389,
      "stock": 2390,
      "mountain": 2391,
      "francisco": 2392,
      "municipality": 2393,
      "sylvania": 2394,
      "circuit": 2395,
      "museum": 2396,
      "neighbor": 2397,
      "administrative": 2398,
      "newspap": 2399,
      "connecticut": 2400,
      "bh": 2401,
      "bang": 2402,
      "bury": 2403,
      "cree": 2404,
      "dish": 2405,
      "dub": 2406,
      "fm": 2407,
      "fight": 2408,
      "gi": 2409,
      "ji": 2410,
      "jr": 2411,
      "kin": 2412,
      "kal": 2413,
      "lie": 2414,
      "lines": 2415,
      "mr": 2416,
      "mam": 2417,
      "map": 2418,
      "must": 2419,
      "mach": 2420,
      "nd": 2421,
      "nan": 2422,
      "nic": 2423,
      "nsylvania": 2424,
      "ox": 2425,
      "oce": 2426,
      "ough": 2427,
      "pi": 2428,
      "pac": 2429,
      "rup": 2430,
      "sir": 2431,
      "taking": 2432,
      "takes": 2433,
      "wan": 2434,
      "wat": 2435,
      "wart": 2436,
      "winter": 2437,
      "thom": 2438,
      "inal": 2439,
      "inct": 2440,
      "incre": 2441,
      "instr": 2442,
      "theory": 2443,
      "once": 2444,
      "atory": 2445,
      "envir": 2446,
      "itz": 2447,
      "icated": 2448,
      "reviews": 2449,
      "stal": 2450,
      "stop": 2451,
      "ione": 2452,
      "unincorporated": 2453,
      "entr": 2454,
      "tery": 2455,
      "bycidae": 2456,
      "housing": 2457,
      "lock": 2458,
      "trin": 2459,
      "ems": 2460,
      "composed": 2461,
      "prix": 2462,
      "conference": 2463,
      "ceed": 2464,
      "cele": 2465,
      "promo": 2466,
      "abo": 2467,
      "artists": 2468,
      "iance": 2469,
      "food": 2470,
      "grant": 2471,
      "meas": 2472,
      "means": 2473,
      "upper": 2474,
      "acting": 2475,
      "oney": 2476,
      "earned": 2477,
      "parties": 2478,
      "domin": 2479,
      "phal": 2480,
      "izes": 2481,
      "span": 2482,
      "reser": 2483,
      "odes": 2484,
      "occas": 2485,
      "ensive": 2486,
      "regard": 2487,
      "carol": 2488,
      "cape": 2489,
      "provides": 2490,
      "collection": 2491,
      "telephone": 2492,
      "titles": 2493,
      "arche": 2494,
      "break": 2495,
      "establish": 2496,
      "elections": 2497,
      "range": 2498,
      "visit": 2499,
      "leaders": 2500,
      "motor": 2501,
      "officer": 2502,
      "manager": 2503,
      "pennsylvania": 2504,
      "issue": 2505,
      "issued": 2506,
      "defense": 2507,
      "holds": 2508,
      "help": 2509,
      "liter": 2510,
      "european": 2511,
      "child": 2512,
      "electron": 2513,
      "christmas": 2514,
      "completed": 2515,
      "graphic": 2516,
      "federal": 2517,
      "federation": 2518,
      "honor": 2519,
      "changes": 2520,
      "henry": 2521,
      "russian": 2522,
      "squad": 2523,
      "recently": 2524,
      "habit": 2525,
      "burgh": 2526,
      "girls": 2527,
      "having": 2528,
      "either": 2529,
      "sabha": 2530,
      "platform": 2531,
      "manufactur": 2532,
      "tournament": 2533,
      "contemporary": 2534,
      "cerambycidae": 2535,
      "variety": 2536,
      "responsible": 2537,
      "executive": 2538,
      "double": 2539,
      "ohio": 2540,
      "companies": 2541,
      "catholic": 2542,
      "secretary": 2543,
      "beginning": 2544,
      "document": 2545,
      "introdu": 2546,
      "environ": 2547,
      "ai": 2548,
      "aqu": 2549,
      "cust": 2550,
      "dal": 2551,
      "dale": 2552,
      "ever": 2553,
      "fur": 2554,
      "gg": 2555,
      "gard": 2556,
      "gical": 2557,
      "hat": 2558,
      "jes": 2559,
      "jay": 2560,
      "kh": 2561,
      "ki": 2562,
      "kir": 2563,
      "knight": 2564,
      "mu": 2565,
      "mine": 2566,
      "nar": 2567,
      "oil": 2568,
      "pione": 2569,
      "rics": 2570,
      "ses": 2571,
      "sain": 2572,
      "sph": 2573,
      "sens": 2574,
      "tun": 2575,
      "zz": 2576,
      "thing": 2577,
      "ining": 2578,
      "inary": 2579,
      "inae": 2580,
      "anne": 2581,
      "ery": 2582,
      "orches": 2583,
      "edge": 2584,
      "argent": 2585,
      "atively": 2586,
      "espe": 2587,
      "oft": 2588,
      "itation": 2589,
      "remo": 2590,
      "stone": 2591,
      "stations": 2592,
      "leave": 2593,
      "amo": 2594,
      "ila": 2595,
      "coal": 2596,
      "ention": 2597,
      "entry": 2598,
      "usa": 2599,
      "actress": 2600,
      "defin": 2601,
      "degree": 2602,
      "ivals": 2603,
      "irish": 2604,
      "bec": 2605,
      "hospital": 2606,
      "iding": 2607,
      "ull": 2608,
      "conf": 2609,
      "pect": 2610,
      "imes": 2611,
      "imate": 2612,
      "imple": 2613,
      "never": 2614,
      "nether": 2615,
      "whit": 2616,
      "apt": 2617,
      "appointed": 2618,
      "oph": 2619,
      "suffer": 2620,
      "boys": 2621,
      "boston": 2622,
      "brand": 2623,
      "ots": 2624,
      "discovered": 2625,
      "izations": 2626,
      "few": 2627,
      "spir": 2628,
      "aceae": 2629,
      "presents": 2630,
      "occup": 2631,
      "carr": 2632,
      "cars": 2633,
      "offers": 2634,
      "notable": 2635,
      "product": 2636,
      "worked": 2637,
      "austria": 2638,
      "should": 2639,
      "attack": 2640,
      "overall": 2641,
      "baronet": 2642,
      "subfamily": 2643,
      "charge": 2644,
      "consin": 2645,
      "ways": 2646,
      "formerly": 2647,
      "guest": 2648,
      "transl": 2649,
      "progress": 2650,
      "versions": 2651,
      "seasons": 2652,
      "fields": 2653,
      "appearances": 2654,
      "philip": 2655,
      "philoso": 2656,
      "basis": 2657,
      "railroad": 2658,
      "domestic": 2659,
      "winning": 2660,
      "diff": 2661,
      "limited": 2662,
      "businessman": 2663,
      "campaign": 2664,
      "vocals": 2665,
      "himself": 2666,
      "dark": 2667,
      "treat": 2668,
      "georgia": 2669,
      "japanese": 2670,
      "practice": 2671,
      "equip": 2672,
      "columbia": 2673,
      "victorian": 2674,
      "better": 2675,
      "female": 2676,
      "wisconsin": 2677,
      "widely": 2678,
      "property": 2679,
      "killed": 2680,
      "atlantic": 2681,
      "composer": 2682,
      "tamil": 2683,
      "planning": 2684,
      "southeast": 2685,
      "dioces": 2686,
      "peaked": 2687,
      "subsequently": 2688,
      "queensland": 2689,
      "brazil": 2690,
      "newspaper": 2691,
      "creek": 2692,
      "ocean": 2693,
      "celebr": 2694,
      "environment": 2695,
      "custom": 2696,
      "especially": 2697,
      "netherlands": 2698,
      "bad": 2699,
      "bac": 2700,
      "bab": 2701,
      "burn": 2702,
      "dor": 2703,
      "dip": 2704,
      "dance": 2705,
      "fast": 2706,
      "file": 2707,
      "factor": 2708,
      "flower": 2709,
      "gs": 2710,
      "ging": 2711,
      "hamp": 2712,
      "ients": 2713,
      "jur": 2714,
      "jab": 2715,
      "kr": 2716,
      "ky": 2717,
      "ml": 2718,
      "mig": 2719,
      "mph": 2720,
      "nas": 2721,
      "nel": 2722,
      "nut": 2723,
      "nfl": 2724,
      "ose": 2725,
      "pel": 2726,
      "pul": 2727,
      "pian": 2728,
      "purch": 2729,
      "rig": 2730,
      "rio": 2731,
      "sent": 2732,
      "sav": 2733,
      "saf": 2734,
      "ti": 2735,
      "thre": 2736,
      "thir": 2737,
      "instead": 2738,
      "onia": 2739,
      "ark": 2740,
      "arthur": 2741,
      "ati": 2742,
      "ala": 2743,
      "ena": 2744,
      "enco": 2745,
      "asian": 2746,
      "anda": 2747,
      "rob": 2748,
      "rose": 2749,
      "sty": 2750,
      "stra": 2751,
      "lete": 2752,
      "too": 2753,
      "cham": 2754,
      "chines": 2755,
      "units": 2756,
      "copal": 2757,
      "ura": 2758,
      "urt": 2759,
      "adop": 2760,
      "adesh": 2761,
      "olar": 2762,
      "deal": 2763,
      "decl": 2764,
      "secur": 2765,
      "ira": 2766,
      "iron": 2767,
      "lyrics": 2768,
      "beth": 2769,
      "uty": 2770,
      "love": 2771,
      "true": 2772,
      "comics": 2773,
      "idad": 2774,
      "princ": 2775,
      "pradesh": 2776,
      "concer": 2777,
      "plied": 2778,
      "mod": 2779,
      "vert": 2780,
      "bound": 2781,
      "manchester": 2782,
      "shi": 2783,
      "share": 2784,
      "poor": 2785,
      "quality": 2786,
      "anton": 2787,
      "forming": 2788,
      "acts": 2789,
      "expl": 2790,
      "crim": 2791,
      "credited": 2792,
      "itself": 2793,
      "nations": 2794,
      "iza": 2795,
      "coll": 2796,
      "portion": 2797,
      "spons": 2798,
      "sched": 2799,
      "drug": 2800,
      "driver": 2801,
      "paral": 2802,
      "oregon": 2803,
      "preser": 2804,
      "itions": 2805,
      "airport": 2806,
      "carto": 2807,
      "singh": 2808,
      "tennes": 2809,
      "anna": 2810,
      "recording": 2811,
      "student": 2812,
      "flight": 2813,
      "britain": 2814,
      "commune": 2815,
      "transfer": 2816,
      "districts": 2817,
      "classical": 2818,
      "awarded": 2819,
      "politan": 2820,
      "deputy": 2821,
      "appears": 2822,
      "roll": 2823,
      "iii": 2824,
      "surface": 2825,
      "legal": 2826,
      "capital": 2827,
      "captain": 2828,
      "sky": 2829,
      "steel": 2830,
      "swed": 2831,
      "followed": 2832,
      "senate": 2833,
      "nearby": 2834,
      "download": 2835,
      "novels": 2836,
      "episodes": 2837,
      "episcopal": 2838,
      "affairs": 2839,
      "supported": 2840,
      "languages": 2841,
      "voice": 2842,
      "festivals": 2843,
      "characters": 2844,
      "hills": 2845,
      "olympic": 2846,
      "justice": 2847,
      "referred": 2848,
      "remains": 2849,
      "remained": 2850,
      "ministry": 2851,
      "personal": 2852,
      "wild": 2853,
      "jackson": 2854,
      "officially": 2855,
      "snails": 2856,
      "application": 2857,
      "applications": 2858,
      "effects": 2859,
      "particularly": 2860,
      "martin": 2861,
      "conservation": 2862,
      "cabin": 2863,
      "compilation": 2864,
      "communication": 2865,
      "ximately": 2866,
      "mobile": 2867,
      "approximately": 2868,
      "architect": 2869,
      "citizens": 2870,
      "gained": 2871,
      "install": 2872,
      "problems": 2873,
      "mexico": 2874,
      "religious": 2875,
      "earlier": 2876,
      "chicago": 2877,
      "territory": 2878,
      "twenty": 2879,
      "joseph": 2880,
      "pacific": 2881,
      "rupt": 2882,
      "thomas": 2883,
      "trinidad": 2884,
      "carolina": 2885,
      "orchestra": 2886,
      "implement": 2887,
      "treatment": 2888,
      "chinese": 2889,
      "tennessee": 2890,
      "bis": 2891,
      "beng": 2892,
      "cad": 2893,
      "cular": 2894,
      "dre": 2895,
      "dick": 2896,
      "fine": 2897,
      "fact": 2898,
      "frog": 2899,
      "failed": 2900,
      "gor": 2901,
      "gul": 2902,
      "ghan": 2903,
      "hong": 2904,
      "iro": 2905,
      "iation": 2906,
      "iary": 2907,
      "jon": 2908,
      "jones": 2909,
      "ll": 2910,
      "las": 2911,
      "lig": 2912,
      "lord": 2913,
      "mm": 2914,
      "mol": 2915,
      "male": 2916,
      "money": 2917,
      "ov": 2918,
      "pu": 2919,
      "pas": 2920,
      "past": 2921,
      "pie": 2922,
      "pict": 2923,
      "pite": 2924,
      "path": 2925,
      "ras": 2926,
      "sle": 2927,
      "sel": 2928,
      "slo": 2929,
      "spl": 2930,
      "size": 2931,
      "uit": 2932,
      "uals": 2933,
      "wro": 2934,
      "ware": 2935,
      "wrest": 2936,
      "thy": 2937,
      "ange": 2938,
      "anthro": 2939,
      "onom": 2940,
      "orial": 2941,
      "eds": 2942,
      "atr": 2943,
      "atus": 2944,
      "alam": 2945,
      "ander": 2946,
      "rep": 2947,
      "reason": 2948,
      "reality": 2949,
      "remix": 2950,
      "replaced": 2951,
      "recru": 2952,
      "room": 2953,
      "least": 2954,
      "tom": 2955,
      "chip": 2956,
      "chain": 2957,
      "ami": 2958,
      "amate": 2959,
      "cot": 2960,
      "adult": 2961,
      "user": 2962,
      "users": 2963,
      "account": 2964,
      "ational": 2965,
      "beaut": 2966,
      "heart": 2967,
      "iger": 2968,
      "utes": 2969,
      "trade": 2970,
      "travel": 2971,
      "soon": 2972,
      "comic": 2973,
      "prince": 2974,
      "agen": 2975,
      "const": 2976,
      "condu": 2977,
      "constitut": 2978,
      "convent": 2979,
      "concept": 2980,
      "erson": 2981,
      "promot": 2982,
      "projects": 2983,
      "bern": 2984,
      "article": 2985,
      "verse": 2986,
      "bot": 2987,
      "bour": 2988,
      "ipal": 2989,
      "brid": 2990,
      "shore": 2991,
      "pool": 2992,
      "gram": 2993,
      "iff": 2994,
      "indu": 2995,
      "mean": 2996,
      "aka": 2997,
      "exact": 2998,
      "express": 2999,
      "crime": 3000,
      "irement": 3001,
      "phia": 3002,
      "firm": 3003,
      "awar": 3004,
      "away": 3005,
      "izing": 3006,
      "frank": 3007,
      "spain": 3008,
      "spread": 3009,
      "draft": 3010,
      "internet": 3011,
      "norway": 3012,
      "max": 3013,
      "rael": 3014,
      "occur": 3015,
      "ensis": 3016,
      "igned": 3017,
      "herit": 3018,
      "create": 3019,
      "ogy": 3020,
      "bros": 3021,
      "founder": 3022,
      "foundation": 3023,
      "despite": 3024,
      "worldwide": 3025,
      "veh": 3026,
      "proved": 3027,
      "provided": 3028,
      "mayor": 3029,
      "licens": 3030,
      "consum": 3031,
      "positive": 3032,
      "names": 3033,
      "groups": 3034,
      "rosoft": 3035,
      "foreign": 3036,
      "owner": 3037,
      "supply": 3038,
      "volum": 3039,
      "belong": 3040,
      "belie": 3041,
      "organized": 3042,
      "designated": 3043,
      "philadel": 3044,
      "governor": 3045,
      "tax": 3046,
      "talk": 3047,
      "signal": 3048,
      "representing": 3049,
      "yorkshire": 3050,
      "williams": 3051,
      "midfield": 3052,
      "empire": 3053,
      "standards": 3054,
      "critic": 3055,
      "added": 3056,
      "charts": 3057,
      "industrial": 3058,
      "extended": 3059,
      "extinct": 3060,
      "microsoft": 3061,
      "vote": 3062,
      "horse": 3063,
      "vocal": 3064,
      "missour": 3065,
      "toronto": 3066,
      "complex": 3067,
      "complete": 3068,
      "trop": 3069,
      "academic": 3070,
      "activity": 3071,
      "activities": 3072,
      "continued": 3073,
      "continues": 3074,
      "freed": 3075,
      "latin": 3076,
      "moving": 3077,
      "russia": 3078,
      "square": 3079,
      "entertain": 3080,
      "victoria": 3081,
      "expand": 3082,
      "psych": 3083,
      "focus": 3084,
      "liberal": 3085,
      "finished": 3086,
      "metropolitan": 3087,
      "investig": 3088,
      "candidates": 3089,
      "punjab": 3090,
      "chairman": 3091,
      "friend": 3092,
      "philippines": 3093,
      "cinem": 3094,
      "restaurant": 3095,
      "traditional": 3096,
      "revolution": 3097,
      "becoming": 3098,
      "electoral": 3099,
      "spanish": 3100,
      "saint": 3101,
      "diplo": 3102,
      "migr": 3103,
      "philadelphia": 3104,
      "missouri": 3105,
      "aco": 3106,
      "bil": 3107,
      "bud": 3108,
      "bbc": 3109,
      "cav": 3110,
      "cub": 3111,
      "cable": 3112,
      "cros": 3113,
      "cross": 3114,
      "din": 3115,
      "dul": 3116,
      "dates": 3117,
      "dney": 3118,
      "fc": 3119,
      "fant": 3120,
      "fellow": 3121,
      "gas": 3122,
      "gol": 3123,
      "hap": 3124,
      "hung": 3125,
      "iast": 3126,
      "kong": 3127,
      "kore": 3128,
      "mes": 3129,
      "mile": 3130,
      "nish": 3131,
      "nick": 3132,
      "nature": 3133,
      "pse": 3134,
      "pter": 3135,
      "pier": 3136,
      "rub": 3137,
      "sin": 3138,
      "tu": 3139,
      "ties": 3140,
      "tall": 3141,
      "tell": 3142,
      "tree": 3143,
      "ux": 3144,
      "ving": 3145,
      "vary": 3146,
      "vot": 3147,
      "wit": 3148,
      "wol": 3149,
      "wise": 3150,
      "xx": 3151,
      "yellow": 3152,
      "zone": 3153,
      "ini": 3154,
      "ano": 3155,
      "anci": 3156,
      "antry": 3157,
      "ern": 3158,
      "ero": 3159,
      "isa": 3160,
      "israel": 3161,
      "ores": 3162,
      "aring": 3163,
      "armed": 3164,
      "enna": 3165,
      "astern": 3166,
      "itis": 3167,
      "icles": 3168,
      "route": 3169,
      "store": 3170,
      "step": 3171,
      "ionally": 3172,
      "ingu": 3173,
      "leon": 3174,
      "lect": 3175,
      "tool": 3176,
      "tower": 3177,
      "ili": 3178,
      "uni": 3179,
      "unger": 3180,
      "cole": 3181,
      "urb": 3182,
      "adu": 3183,
      "advis": 3184,
      "advan": 3185,
      "advoc": 3186,
      "acc": 3187,
      "dete": 3188,
      "lyn": 3189,
      "height": 3190,
      "hour": 3191,
      "traff": 3192,
      "eman": 3193,
      "ayed": 3194,
      "soul": 3195,
      "somet": 3196,
      "compl": 3197,
      "idence": 3198,
      "confl": 3199,
      "concert": 3200,
      "ump": 3201,
      "prob": 3202,
      "promin": 3203,
      "promis": 3204,
      "propri": 3205,
      "neu": 3206,
      "aband": 3207,
      "allen": 3208,
      "apol": 3209,
      "iana": 3210,
      "suit": 3211,
      "ette": 3212,
      "ips": 3213,
      "bron": 3214,
      "bris": 3215,
      "bring": 3216,
      "shel": 3217,
      "illa": 3218,
      "illustr": 3219,
      "illino": 3220,
      "iowa": 3221,
      "geo": 3222,
      "affe": 3223,
      "ighter": 3224,
      "grade": 3225,
      "ifying": 3226,
      "meet": 3227,
      "mechan": 3228,
      "aken": 3229,
      "acted": 3230,
      "core": 3231,
      "partners": 3232,
      "percent": 3233,
      "doctor": 3234,
      "pher": 3235,
      "phen": 3236,
      "dise": 3237,
      "ellite": 3238,
      "butter": 3239,
      "feat": 3240,
      "feet": 3241,
      "frag": 3242,
      "fresh": 3243,
      "enger": 3244,
      "joe": 3245,
      "dry": 3246,
      "dress": 3247,
      "resident": 3248,
      "resour": 3249,
      "norwe": 3250,
      "symph": 3251,
      "grow": 3252,
      "growing": 3253,
      "lik": 3254,
      "occurr": 3255,
      "elect": 3256,
      "ansas": 3257,
      "controvers": 3258,
      "keith": 3259,
      "polic": 3260,
      "brought": 3261,
      "deser": 3262,
      "tony": 3263,
      "mond": 3264,
      "vey": 3265,
      "shop": 3266,
      "attend": 3267,
      "attach": 3268,
      "attempt": 3269,
      "provin": 3270,
      "provision": 3271,
      "colleges": 3272,
      "issipp": 3273,
      "charity": 3274,
      "consult": 3275,
      "wars": 3276,
      "originated": 3277,
      "athlete": 3278,
      "donald": 3279,
      "presented": 3280,
      "songwriter": 3281,
      "divided": 3282,
      "harv": 3283,
      "starred": 3284,
      "nings": 3285,
      "junior": 3286,
      "politics": 3287,
      "arms": 3288,
      "retirement": 3289,
      "johnson": 3290,
      "simon": 3291,
      "heads": 3292,
      "secondary": 3293,
      "compete": 3294,
      "organizations": 3295,
      "venue": 3296,
      "tai": 3297,
      "prevent": 3298,
      "course": 3299,
      "walk": 3300,
      "request": 3301,
      "require": 3302,
      "required": 3303,
      "mississipp": 3304,
      "leading": 3305,
      "graphy": 3306,
      "morning": 3307,
      "morris": 3308,
      "prime": 3309,
      "eventually": 3310,
      "critical": 3311,
      "protection": 3312,
      "humans": 3313,
      "sax": 3314,
      "moths": 3315,
      "commonwealth": 3316,
      "defender": 3317,
      "authority": 3318,
      "connected": 3319,
      "quarters": 3320,
      "sites": 3321,
      "danish": 3322,
      "hotel": 3323,
      "distributed": 3324,
      "facult": 3325,
      "artistic": 3326,
      "synthe": 3327,
      "crown": 3328,
      "weeks": 3329,
      "premiered": 3330,
      "sales": 3331,
      "practices": 3332,
      "status": 3333,
      "initi": 3334,
      "ometers": 3335,
      "satellite": 3336,
      "device": 3337,
      "physical": 3338,
      "target": 3339,
      "hindi": 3340,
      "learning": 3341,
      "selected": 3342,
      "publishing": 3343,
      "script": 3344,
      "claimed": 3345,
      "battle": 3346,
      "selling": 3347,
      "consisting": 3348,
      "typically": 3349,
      "candidate": 3350,
      "dedicated": 3351,
      "ucky": 3352,
      "economic": 3353,
      "telugu": 3354,
      "crystal": 3355,
      "assistant": 3356,
      "kilometers": 3357,
      "colomb": 3358,
      "potential": 3359,
      "kentucky": 3360,
      "alternative": 3361,
      "integrated": 3362,
      "kelly": 3363,
      "scale": 3364,
      "category": 3365,
      "destroy": 3366,
      "nuclear": 3367,
      "instrument": 3368,
      "leadership": 3369,
      "introduced": 3370,
      "further": 3371,
      "pioneer": 3372,
      "amount": 3373,
      "diocese": 3374,
      "principal": 3375,
      "cabinet": 3376,
      "dream": 3377,
      "wrote": 3378,
      "recruited": 3379,
      "amateur": 3380,
      "heritage": 3381,
      "midfielder": 3382,
      "freedom": 3383,
      "entertainment": 3384,
      "fantasy": 3385,
      "sometimes": 3386,
      "prominent": 3387,
      "illinois": 3388,
      "ather": 3389,
      "bann": 3390,
      "cies": 3391,
      "dies": 3392,
      "dak": 3393,
      "done": 3394,
      "ec": 3395,
      "ez": 3396,
      "eag": 3397,
      "fal": 3398,
      "fing": 3399,
      "fill": 3400,
      "fict": 3401,
      "fair": 3402,
      "gil": 3403,
      "hl": 3404,
      "hin": 3405,
      "hart": 3406,
      "iidae": 3407,
      "jul": 3408,
      "java": 3409,
      "kot": 3410,
      "kann": 3411,
      "mut": 3412,
      "mess": 3413,
      "mind": 3414,
      "oo": 3415,
      "oak": 3416,
      "pent": 3417,
      "pir": 3418,
      "page": 3419,
      "rd": 3420,
      "rural": 3421,
      "si": 3422,
      "sac": 3423,
      "smo": 3424,
      "sie": 3425,
      "slow": 3426,
      "satur": 3427,
      "sister": 3428,
      "sri": 3429,
      "tin": 3430,
      "ule": 3431,
      "vd": 3432,
      "vas": 3433,
      "wel": 3434,
      "yn": 3435,
      "yer": 3436,
      "yards": 3437,
      "zam": 3438,
      "thus": 3439,
      "insp": 3440,
      "ares": 3441,
      "aria": 3442,
      "ariz": 3443,
      "atter": 3444,
      "alab": 3445,
      "almost": 3446,
      "always": 3447,
      "encour": 3448,
      "andrew": 3449,
      "iter": 3450,
      "itch": 3451,
      "icult": 3452,
      "robin": 3453,
      "touring": 3454,
      "amb": 3455,
      "amed": 3456,
      "ilities": 3457,
      "cous": 3458,
      "forced": 3459,
      "eland": 3460,
      "eliza": 3461,
      "uru": 3462,
      "adv": 3463,
      "adam": 3464,
      "acid": 3465,
      "deep": 3466,
      "sector": 3467,
      "semi": 3468,
      "iran": 3469,
      "hem": 3470,
      "heav": 3471,
      "trust": 3472,
      "trib": 3473,
      "trail": 3474,
      "sole": 3475,
      "iday": 3476,
      "cting": 3477,
      "prin": 3478,
      "agre": 3479,
      "agent": 3480,
      "conqu": 3481,
      "pects": 3482,
      "umb": 3483,
      "nett": 3484,
      "nepal": 3485,
      "istic": 3486,
      "moved": 3487,
      "applied": 3488,
      "ished": 3489,
      "cles": 3490,
      "clust": 3491,
      "unds": 3492,
      "brig": 3493,
      "posure": 3494,
      "geome": 3495,
      "uston": 3496,
      "corps": 3497,
      "borough": 3498,
      "excell": 3499,
      "exposure": 3500,
      "word": 3501,
      "enders": 3502,
      "domain": 3503,
      "erick": 3504,
      "compared": 3505,
      "cold": 3506,
      "newly": 3507,
      "minute": 3508,
      "genes": 3509,
      "spent": 3510,
      "joint": 3511,
      "outstanding": 3512,
      "northe": 3513,
      "rather": 3514,
      "locality": 3515,
      "know": 3516,
      "elev": 3517,
      "regul": 3518,
      "regions": 3519,
      "regiment": 3520,
      "oldest": 3521,
      "ption": 3522,
      "creating": 3523,
      "noted": 3524,
      "producing": 3525,
      "medical": 3526,
      "stri": 3527,
      "universities": 3528,
      "veget": 3529,
      "direction": 3530,
      "intended": 3531,
      "studies": 3532,
      "attended": 3533,
      "larger": 3534,
      "decade": 3535,
      "decided": 3536,
      "barbar": 3537,
      "subject": 3538,
      "consol": 3539,
      "cycl": 3540,
      "cycle": 3541,
      "warner": 3542,
      "jean": 3543,
      "jeff": 3544,
      "relation": 3545,
      "communities": 3546,
      "popul": 3547,
      "transit": 3548,
      "generation": 3549,
      "opera": 3550,
      "laid": 3551,
      "classic": 3552,
      "associate": 3553,
      "castle": 3554,
      "simply": 3555,
      "headquarters": 3556,
      "marked": 3557,
      "match": 3558,
      "laws": 3559,
      "surround": 3560,
      "belg": 3561,
      "organic": 3562,
      "skill": 3563,
      "stein": 3564,
      "steam": 3565,
      "clubs": 3566,
      "close": 3567,
      "hydro": 3568,
      "hai": 3569,
      "representative": 3570,
      "representatives": 3571,
      "longest": 3572,
      "daugh": 3573,
      "observ": 3574,
      "visual": 3575,
      "downs": 3576,
      "technolog": 3577,
      "dynam": 3578,
      "pattern": 3579,
      "leader": 3580,
      "succeed": 3581,
      "benef": 3582,
      "competing": 3583,
      "palace": 3584,
      "holding": 3585,
      "points": 3586,
      "clear": 3587,
      "educational": 3588,
      "electrical": 3589,
      "teenth": 3590,
      "jerry": 3591,
      "facility": 3592,
      "reference": 3593,
      "imeters": 3594,
      "synd": 3595,
      "golden": 3596,
      "results": 3597,
      "resulting": 3598,
      "parliamentary": 3599,
      "changed": 3600,
      "greek": 3601,
      "ordinary": 3602,
      "individuals": 3603,
      "rapid": 3604,
      "animal": 3605,
      "effect": 3606,
      "source": 3607,
      "ladesh": 3608,
      "conservative": 3609,
      "types": 3610,
      "communications": 3611,
      "regularly": 3612,
      "maintained": 3613,
      "guitarist": 3614,
      "employment": 3615,
      "infantry": 3616,
      "accepted": 3617,
      "average": 3618,
      "pilot": 3619,
      "enzy": 3620,
      "experience": 3621,
      "affiliated": 3622,
      "achiev": 3623,
      "situated": 3624,
      "neighborhood": 3625,
      "bangladesh": 3626,
      "equipment": 3627,
      "threat": 3628,
      "encoded": 3629,
      "security": 3630,
      "bengal": 3631,
      "gulf": 3632,
      "sleep": 3633,
      "wrestling": 3634,
      "anthropol": 3635,
      "ancient": 3636,
      "conflict": 3637,
      "propriet": 3638,
      "disease": 3639,
      "featuring": 3640,
      "norwegian": 3641,
      "symphony": 3642,
      "faculty": 3643,
      "fictional": 3644,
      "arizona": 3645,
      "elizabeth": 3646,
      "aus": 3647,
      "aide": 3648,
      "bond": 3649,
      "cs": 3650,
      "cus": 3651,
      "ceme": 3652,
      "date": 3653,
      "dys": 3654,
      "ek": 3655,
      "eigh": 3656,
      "fig": 3657,
      "fut": 3658,
      "fav": 3659,
      "fame": 3660,
      "fighter": 3661,
      "gers": 3662,
      "gab": 3663,
      "gang": 3664,
      "gely": 3665,
      "hra": 3666,
      "iop": 3667,
      "jen": 3668,
      "jam": 3669,
      "jim": 3670,
      "jason": 3671,
      "jamin": 3672,
      "kath": 3673,
      "kins": 3674,
      "khan": 3675,
      "kansas": 3676,
      "lies": 3677,
      "lane": 3678,
      "mn": 3679,
      "mud": 3680,
      "nie": 3681,
      "nca": 3682,
      "naz": 3683,
      "nik": 3684,
      "ost": 3685,
      "oid": 3686,
      "omin": 3687,
      "pm": 3688,
      "pic": 3689,
      "pus": 3690,
      "pack": 3691,
      "pick": 3692,
      "rand": 3693,
      "ria": 3694,
      "rare": 3695,
      "rate": 3696,
      "raf": 3697,
      "rank": 3698,
      "ridge": 3699,
      "sv": 3700,
      "sand": 3701,
      "sag": 3702,
      "sang": 3703,
      "scar": 3704,
      "sik": 3705,
      "td": 3706,
      "tay": 3707,
      "tip": 3708,
      "tight": 3709,
      "table": 3710,
      "taken": 3711,
      "uan": 3712,
      "vic": 3713,
      "wd": 3714,
      "wides": 3715,
      "xi": 3716,
      "thr": 3717,
      "thal": 3718,
      "inaug": 3719,
      "instru": 3720,
      "income": 3721,
      "innings": 3722,
      "erland": 3723,
      "ono": 3724,
      "oned": 3725,
      "arab": 3726,
      "atp": 3727,
      "alan": 3728,
      "enix": 3729,
      "aster": 3730,
      "andre": 3731,
      "ita": 3732,
      "items": 3733,
      "icon": 3734,
      "icine": 3735,
      "rev": 3736,
      "rear": 3737,
      "repr": 3738,
      "reform": 3739,
      "recomm": 3740,
      "represents": 3741,
      "leav": 3742,
      "topher": 3743,
      "cha": 3744,
      "ils": 3745,
      "une": 3746,
      "unknown": 3747,
      "covers": 3748,
      "entit": 3749,
      "entrepr": 3750,
      "forts": 3751,
      "elong": 3752,
      "uration": 3753,
      "ads": 3754,
      "waste": 3755,
      "determin": 3756,
      "seg": 3757,
      "secut": 3758,
      "bey": 3759,
      "utah": 3760,
      "houston": 3761,
      "look": 3762,
      "trial": 3763,
      "emony": 3764,
      "aya": 3765,
      "soviet": 3766,
      "comment": 3767,
      "ider": 3768,
      "agric": 3769,
      "conver": 3770,
      "pective": 3771,
      "imp": 3772,
      "improv": 3773,
      "umn": 3774,
      "umar": 3775,
      "plane": 3776,
      "ceo": 3777,
      "estyle": 3778,
      "berry": 3779,
      "tet": 3780,
      "romance": 3781,
      "alliance": 3782,
      "moore": 3783,
      "move": 3784,
      "apart": 3785,
      "appar": 3786,
      "iant": 3787,
      "ops": 3788,
      "opt": 3789,
      "opter": 3790,
      "clus": 3791,
      "clay": 3792,
      "aven": 3793,
      "bra": 3794,
      "bras": 3795,
      "bright": 3796,
      "shap": 3797,
      "shared": 3798,
      "pow": 3799,
      "poet": 3800,
      "ugg": 3801,
      "afl": 3802,
      "afghan": 3803,
      "gra": 3804,
      "gray": 3805,
      "indones": 3806,
      "inea": 3807,
      "formula": 3808,
      "meg": 3809,
      "actually": 3810,
      "corresp": 3811,
      "bore": 3812,
      "mental": 3813,
      "exhib": 3814,
      "earth": 3815,
      "partner": 3816,
      "words": 3817,
      "perm": 3818,
      "filip": 3819,
      "disk": 3820,
      "disney": 3821,
      "ache": 3822,
      "duo": 3823,
      "compon": 3824,
      "colon": 3825,
      "frame": 3826,
      "spin": 3827,
      "spel": 3828,
      "goal": 3829,
      "scholar": 3830,
      "draw": 3831,
      "dragon": 3832,
      "interface": 3833,
      "internal": 3834,
      "norfolk": 3835,
      "maz": 3836,
      "maur": 3837,
      "mahar": 3838,
      "releases": 3839,
      "sydney": 3840,
      "content": 3841,
      "hero": 3842,
      "cargo": 3843,
      "carbon": 3844,
      "pret": 3845,
      "offices": 3846,
      "creation": 3847,
      "poly": 3848,
      "tennis": 3849,
      "founding": 3850,
      "caused": 3851,
      "universal": 3852,
      "veter": 3853,
      "southwestern": 3854,
      "intend": 3855,
      "flat": 3856,
      "flag": 3857,
      "shot": 3858,
      "shown": 3859,
      "attle": 3860,
      "attention": 3861,
      "lists": 3862,
      "larry": 3863,
      "largely": 3864,
      "decades": 3865,
      "sons": 3866,
      "finance": 3867,
      "finals": 3868,
      "finnish": 3869,
      "subsid": 3870,
      "musician": 3871,
      "profit": 3872,
      "ologist": 3873,
      "guy": 3874,
      "guard": 3875,
      "guide": 3876,
      "mercur": 3877,
      "highway": 3878,
      "publication": 3879,
      "calend": 3880,
      "classes": 3881,
      "classified": 3882,
      "inside": 3883,
      "northwest": 3884,
      "fully": 3885,
      "headquarter": 3886,
      "appearing": 3887,
      "titled": 3888,
      "divisions": 3889,
      "swim": 3890,
      "switz": 3891,
      "memory": 3892,
      "memorial": 3893,
      "ously": 3894,
      "talent": 3895,
      "caster": 3896,
      "longer": 3897,
      "requires": 3898,
      "efforts": 3899,
      "majority": 3900,
      "object": 3901,
      "moroc": 3902,
      "winner": 3903,
      "alongside": 3904,
      "managed": 3905,
      "benjamin": 3906,
      "denmark": 3907,
      "holm": 3908,
      "hollow": 3909,
      "scene": 3910,
      "broadcasts": 3911,
      "supporting": 3912,
      "starting": 3913,
      "grades": 3914,
      "structure": 3915,
      "independently": 3916,
      "sixth": 3917,
      "victory": 3918,
      "paid": 3919,
      "institution": 3920,
      "eneur": 3921,
      "containing": 3922,
      "blood": 3923,
      "kerala": 3924,
      "levels": 3925,
      "processing": 3926,
      "controlled": 3927,
      "networks": 3928,
      "legislature": 3929,
      "sprint": 3930,
      "diag": 3931,
      "freestyle": 3932,
      "multi": 3933,
      "renamed": 3934,
      "camera": 3935,
      "ethnic": 3936,
      "latter": 3937,
      "murder": 3938,
      "characterized": 3939,
      "cells": 3940,
      "distance": 3941,
      "devices": 3942,
      "seventh": 3943,
      "registered": 3944,
      "additional": 3945,
      "wheat": 3946,
      "wheel": 3947,
      "whether": 3948,
      "anthony": 3949,
      "participated": 3950,
      "flying": 3951,
      "funds": 3952,
      "lady": 3953,
      "bull": 3954,
      "floor": 3955,
      "spoken": 3956,
      "properties": 3957,
      "liberty": 3958,
      "atlanta": 3959,
      "adelaide": 3960,
      "priest": 3961,
      "consisted": 3962,
      "falls": 3963,
      "printed": 3964,
      "philippine": 3965,
      "flowering": 3966,
      "maryland": 3967,
      "possess": 3968,
      "possible": 3969,
      "architecture": 3970,
      "citizen": 3971,
      "copies": 3972,
      "residents": 3973,
      "brothers": 3974,
      "christopher": 3975,
      "frequent": 3976,
      "recognized": 3977,
      "defeated": 3978,
      "task": 3979,
      "alexander": 3980,
      "sunday": 3981,
      "athletic": 3982,
      "above": 3983,
      "reserve": 3984,
      "occasionally": 3985,
      "manufacturer": 3986,
      "jesus": 3987,
      "philosophy": 3988,
      "difficult": 3989,
      "adopted": 3990,
      "shield": 3991,
      "schedul": 3992,
      "cartoon": 3993,
      "implementation": 3994,
      "bishop": 3995,
      "llc": 3996,
      "bourne": 3997,
      "meaning": 3998,
      "vehicle": 3999,
      "licensed": 4000,
      "consumer": 4001,
      "tropical": 4002,
      "advanced": 4003,
      "traffic": 4004,
      "abandoned": 4005,
      "apolis": 4006,
      "bronze": 4007,
      "likely": 4008,
      "taiwan": 4009,
      "mississippi": 4010,
      "colombia": 4011,
      "kannada": 4012,
      "inspired": 4013,
      "alabama": 4014,
      "vegetation": 4015,
      "daughter": 4016,
      "technologies": 4017,
      "favor": 4018,
      "ncaa": 4019,
      "recommend": 4020,
      "entrepreneur": 4021,
      "agricult": 4022,
      "headquartered": 4023,
      "switzerland": 4024,
      "aa": 4025,
      "bag": 4026,
      "bind": 4027,
      "bone": 4028,
      "bach": 4029,
      "bib": 4030,
      "bones": 4031,
      "bapt": 4032,
      "cers": 4033,
      "dc": 4034,
      "dd": 4035,
      "dol": 4036,
      "dia": 4037,
      "dated": 4038,
      "dating": 4039,
      "drew": 4040,
      "dvd": 4041,
      "eon": 4042,
      "eup": 4043,
      "egy": 4044,
      "fan": 4045,
      "fit": 4046,
      "fro": 4047,
      "fers": 4048,
      "fix": 4049,
      "ffield": 4050,
      "gate": 4051,
      "ggest": 4052,
      "hun": 4053,
      "hir": 4054,
      "ias": 4055,
      "iel": 4056,
      "jar": 4057,
      "jama": 4058,
      "kat": 4059,
      "kes": 4060,
      "kit": 4061,
      "kam": 4062,
      "kur": 4063,
      "lr": 4064,
      "lam": 4065,
      "lil": 4066,
      "lap": 4067,
      "lio": 4068,
      "lind": 4069,
      "mul": 4070,
      "mers": 4071,
      "mish": 4072,
      "mak": 4073,
      "mck": 4074,
      "mally": 4075,
      "makes": 4076,
      "nat": 4077,
      "nit": 4078,
      "nur": 4079,
      "nav": 4080,
      "niger": 4081,
      "oa": 4082,
      "oy": 4083,
      "oor": 4084,
      "ole": 4085,
      "pine": 4086,
      "rab": 4087,
      "rav": 4088,
      "rice": 4089,
      "ried": 4090,
      "sant": 4091,
      "saw": 4092,
      "save": 4093,
      "sail": 4094,
      "sung": 4095,
      "sized": 4096,
      "tank": 4097,
      "temp": 4098,
      "vid": 4099,
      "vul": 4100,
      "vess": 4101,
      "wed": 4102,
      "wish": 4103,
      "want": 4104,
      "wave": 4105,
      "wright": 4106,
      "yr": 4107,
      "yan": 4108,
      "za": 4109,
      "zan": 4110,
      "inn": 4111,
      "inde": 4112,
      "inum": 4113,
      "infe": 4114,
      "inals": 4115,
      "inburgh": 4116,
      "thew": 4117,
      "theme": 4118,
      "erg": 4119,
      "eral": 4120,
      "onic": 4121,
      "ising": 4122,
      "isition": 4123,
      "istry": 4124,
      "edinburgh": 4125,
      "atari": 4126,
      "aled": 4127,
      "alger": 4128,
      "alpine": 4129,
      "enant": 4130,
      "asing": 4131,
      "aspects": 4132,
      "itor": 4133,
      "icke": 4134,
      "rey": 4135,
      "repe": 4136,
      "roof": 4137,
      "rough": 4138,
      "roots": 4139,
      "stated": 4140,
      "stamp": 4141,
      "stev": 4142,
      "stakes": 4143,
      "lel": 4144,
      "lex": 4145,
      "lement": 4146,
      "lets": 4147,
      "tol": 4148,
      "toward": 4149,
      "amaz": 4150,
      "ilies": 4151,
      "cob": 4152,
      "cool": 4153,
      "cook": 4154,
      "ental": 4155,
      "elve": 4156,
      "uries": 4157,
      "ador": 4158,
      "adapt": 4159,
      "advert": 4160,
      "acity": 4161,
      "oliver": 4162,
      "dee": 4163,
      "degre": 4164,
      "deleg": 4165,
      "seattle": 4166,
      "ivan": 4167,
      "terms": 4168,
      "uttar": 4169,
      "utenant": 4170,
      "lok": 4171,
      "locom": 4172,
      "logical": 4173,
      "trum": 4174,
      "trian": 4175,
      "trip": 4176,
      "emer": 4177,
      "comb": 4178,
      "idency": 4179,
      "pra": 4180,
      "prize": 4181,
      "imag": 4182,
      "prop": 4183,
      "abad": 4184,
      "ables": 4185,
      "istics": 4186,
      "mole": 4187,
      "mous": 4188,
      "api": 4189,
      "apple": 4190,
      "vere": 4191,
      "supre": 4192,
      "suggest": 4193,
      "eta": 4194,
      "etc": 4195,
      "isha": 4196,
      "climate": 4197,
      "clark": 4198,
      "bob": 4199,
      "aine": 4200,
      "brun": 4201,
      "brad": 4202,
      "brian": 4203,
      "brain": 4204,
      "brief": 4205,
      "fos": 4206,
      "sha": 4207,
      "shall": 4208,
      "quad": 4209,
      "server": 4210,
      "serial": 4211,
      "gren": 4212,
      "grah": 4213,
      "ift": 4214,
      "iful": 4215,
      "twice": 4216,
      "twelve": 4217,
      "astic": 4218,
      "actors": 4219,
      "porters": 4220,
      "except": 4221,
      "exchange": 4222,
      "cricke": 4223,
      "ongo": 4224,
      "oted": 4225,
      "does": 4226,
      "doug": 4227,
      "pha": 4228,
      "pharm": 4229,
      "display": 4230,
      "assess": 4231,
      "whom": 4232,
      "whole": 4233,
      "compar": 4234,
      "compass": 4235,
      "compens": 4236,
      "mining": 4237,
      "fruit": 4238,
      "spa": 4239,
      "spell": 4240,
      "cancel": 4241,
      "going": 4242,
      "joy": 4243,
      "joining": 4244,
      "sche": 4245,
      "dra": 4246,
      "drin": 4247,
      "drive": 4248,
      "families": 4249,
      "centimeters": 4250,
      "centuries": 4251,
      "outdoor": 4252,
      "normal": 4253,
      "ampton": 4254,
      "maxim": 4255,
      "idea": 4256,
      "presidency": 4257,
      "inclus": 4258,
      "grown": 4259,
      "grove": 4260,
      "liqu": 4261,
      "curt": 4262,
      "element": 4263,
      "older": 4264,
      "ultim": 4265,
      "carl": 4266,
      "carry": 4267,
      "kee": 4268,
      "keys": 4269,
      "pread": 4270,
      "prepar": 4271,
      "prefer": 4272,
      "evol": 4273,
      "crew": 4274,
      "polo": 4275,
      "buck": 4276,
      "ferry": 4277,
      "medi": 4278,
      "medium": 4279,
      "annually": 4280,
      "strong": 4281,
      "strik": 4282,
      "worker": 4283,
      "workers": 4284,
      "mono": 4285,
      "ceremony": 4286,
      "flash": 4287,
      "writers": 4288,
      "undergraduate": 4289,
      "decision": 4290,
      "providing": 4291,
      "finan": 4292,
      "submarine": 4293,
      "suburb": 4294,
      "banded": 4295,
      "champions": 4296,
      "guil": 4297,
      "guinea": 4298,
      "relatively": 4299,
      "merged": 4300,
      "highest": 4301,
      "transmit": 4302,
      "publications": 4303,
      "harris": 4304,
      "grew": 4305,
      "conditions": 4306,
      "classification": 4307,
      "ledge": 4308,
      "you": 4309,
      "identified": 4310,
      "ika": 4311,
      "historian": 4312,
      "historically": 4313,
      "matthew": 4314,
      "capes": 4315,
      "capacity": 4316,
      "hamil": 4317,
      "skating": 4318,
      "stephen": 4319,
      "backed": 4320,
      "background": 4321,
      "clos": 4322,
      "cloud": 4323,
      "follows": 4324,
      "walt": 4325,
      "effort": 4326,
      "solid": 4327,
      "value": 4328,
      "quebec": 4329,
      "debuted": 4330,
      "receive": 4331,
      "myster": 4332,
      "vised": 4333,
      "emphas": 4334,
      "downtown": 4335,
      "depending": 4336,
      "mills": 4337,
      "officers": 4338,
      "lasted": 4339,
      "covering": 4340,
      "holland": 4341,
      "presidential": 4342,
      "proteins": 4343,
      "superior": 4344,
      "limit": 4345,
      "industries": 4346,
      "struct": 4347,
      "cultiv": 4348,
      "sporting": 4349,
      "independence": 4350,
      "helic": 4351,
      "testament": 4352,
      "pression": 4353,
      "races": 4354,
      "greatest": 4355,
      "campbell": 4356,
      "sitcom": 4357,
      "controls": 4358,
      "torn": 4359,
      "graphical": 4360,
      "easter": 4361,
      "passage": 4362,
      "remaining": 4363,
      "croat": 4364,
      "fifa": 4365,
      "commerce": 4366,
      "graduated": 4367,
      "healthcare": 4368,
      "markets": 4369,
      "marketed": 4370,
      "changing": 4371,
      "colorado": 4372,
      "positions": 4373,
      "ethiop": 4374,
      "lux": 4375,
      "papua": 4376,
      "damage": 4377,
      "hosts": 4378,
      "distingu": 4379,
      "phoenix": 4380,
      "physics": 4381,
      "commissioned": 4382,
      "animals": 4383,
      "rogers": 4384,
      "column": 4385,
      "republican": 4386,
      "catal": 4387,
      "allowed": 4388,
      "birc": 4389,
      "thorn": 4390,
      "focused": 4391,
      "commander": 4392,
      "certified": 4393,
      "birds": 4394,
      "methods": 4395,
      "printing": 4396,
      "friends": 4397,
      "ranger": 4398,
      "terminal": 4399,
      "predict": 4400,
      "bowl": 4401,
      "problem": 4402,
      "temper": 4403,
      "analog": 4404,
      "comprises": 4405,
      "comprising": 4406,
      "teacher": 4407,
      "reduce": 4408,
      "reduced": 4409,
      "violence": 4410,
      "restaurants": 4411,
      "qualified": 4412,
      "survive": 4413,
      "astronom": 4414,
      "adventure": 4415,
      "contested": 4416,
      "keeping": 4417,
      "vietnam": 4418,
      "stockholm": 4419,
      "mountains": 4420,
      "lieutenant": 4421,
      "machine": 4422,
      "entrance": 4423,
      "promote": 4424,
      "granted": 4425,
      "archeological": 4426,
      "establishment": 4427,
      "literary": 4428,
      "electronics": 4429,
      "squadron": 4430,
      "kirk": 4431,
      "argentine": 4432,
      "suffering": 4433,
      "occupied": 4434,
      "purchased": 4435,
      "safety": 4436,
      "thirty": 4437,
      "styles": 4438,
      "iraq": 4439,
      "sponsored": 4440,
      "swedish": 4441,
      "split": 4442,
      "beautiful": 4443,
      "convention": 4444,
      "volume": 4445,
      "expanded": 4446,
      "crossing": 4447,
      "korean": 4448,
      "pseud": 4449,
      "tools": 4450,
      "partnership": 4451,
      "residential": 4452,
      "occurred": 4453,
      "controversial": 4454,
      "provincial": 4455,
      "harvard": 4456,
      "dakota": 4457,
      "heavily": 4458,
      "agreement": 4459,
      "barbara": 4460,
      "consolid": 4461,
      "belgium": 4462,
      "dynamic": 4463,
      "succeeded": 4464,
      "anthropology": 4465,
      "proprietary": 4466,
      "future": 4467,
      "widespread": 4468,
      "leaving": 4469,
      "avenue": 4470,
      "brighton": 4471,
      "shaped": 4472,
      "components": 4473,
      "subsidiary": 4474,
      "calendar": 4475,
      "scheduled": 4476,
      "egypt": 4477,
      "temple": 4478,
      "degrees": 4479,
      "locomot": 4480,
      "aid": 4481,
      "aust": 4482,
      "athen": 4483,
      "bid": 4484,
      "bip": 4485,
      "bure": 4486,
      "bane": 4487,
      "cn": 4488,
      "cw": 4489,
      "cave": 4490,
      "cue": 4491,
      "cement": 4492,
      "dh": 4493,
      "dj": 4494,
      "diam": 4495,
      "diction": 4496,
      "ees": 4497,
      "ecolo": 4498,
      "egg": 4499,
      "fu": 4500,
      "fel": 4501,
      "gel": 4502,
      "gur": 4503,
      "gly": 4504,
      "gig": 4505,
      "give": 4506,
      "giving": 4507,
      "ht": 4508,
      "hus": 4509,
      "hers": 4510,
      "hast": 4511,
      "hub": 4512,
      "here": 4513,
      "hend": 4514,
      "hunt": 4515,
      "hang": 4516,
      "hans": 4517,
      "haz": 4518,
      "hank": 4519,
      "ithe": 4520,
      "iers": 4521,
      "iqu": 4522,
      "ience": 4523,
      "iinae": 4524,
      "jum": 4525,
      "jaw": 4526,
      "jury": 4527,
      "kon": 4528,
      "kas": 4529,
      "kol": 4530,
      "kid": 4531,
      "kers": 4532,
      "kite": 4533,
      "kaz": 4534,
      "khar": 4535,
      "lp": 4536,
      "lum": 4537,
      "lia": 4538,
      "lip": 4539,
      "lack": 4540,
      "lions": 4541,
      "luc": 4542,
      "lank": 4543,
      "mates": 4544,
      "mort": 4545,
      "nin": 4546,
      "nol": 4547,
      "nud": 4548,
      "nast": 4549,
      "nell": 4550,
      "nhl": 4551,
      "oma": 4552,
      "pes": 4553,
      "pam": 4554,
      "pav": 4555,
      "penter": 4556,
      "plot": 4557,
      "rf": 4558,
      "rh": 4559,
      "rat": 4560,
      "rated": 4561,
      "rhy": 4562,
      "rna": 4563,
      "rise": 4564,
      "rene": 4565,
      "rush": 4566,
      "sr": 4567,
      "sas": 4568,
      "say": 4569,
      "sno": 4570,
      "sess": 4571,
      "sult": 4572,
      "surn": 4573,
      "snow": 4574,
      "tn": 4575,
      "tul": 4576,
      "ture": 4577,
      "uz": 4578,
      "uters": 4579,
      "vit": 4580,
      "vice": 4581,
      "vince": 4582,
      "vik": 4583,
      "vale": 4584,
      "wr": 4585,
      "wand": 4586,
      "wear": 4587,
      "wend": 4588,
      "wings": 4589,
      "yi": 4590,
      "yard": 4591,
      "yeast": 4592,
      "zim": 4593,
      "thin": 4594,
      "tham": 4595,
      "thunder": 4596,
      "things": 4597,
      "inch": 4598,
      "ination": 4599,
      "inated": 4600,
      "innov": 4601,
      "inner": 4602,
      "inhib": 4603,
      "inhabit": 4604,
      "injur": 4605,
      "anus": 4606,
      "anches": 4607,
      "thems": 4608,
      "theatr": 4609,
      "eri": 4610,
      "erto": 4611,
      "oni": 4612,
      "onse": 4613,
      "onne": 4614,
      "onian": 4615,
      "isle": 4616,
      "isol": 4617,
      "istr": 4618,
      "ories": 4619,
      "orbit": 4620,
      "orient": 4621,
      "orange": 4622,
      "edo": 4623,
      "edmon": 4624,
      "edges": 4625,
      "arl": 4626,
      "arr": 4627,
      "arct": 4628,
      "arrest": 4629,
      "atmo": 4630,
      "alo": 4631,
      "ales": 4632,
      "alfred": 4633,
      "eness": 4634,
      "ensure": 4635,
      "encing": 4636,
      "encies": 4637,
      "asc": 4638,
      "asters": 4639,
      "andhra": 4640,
      "iced": 4641,
      "ication": 4642,
      "icate": 4643,
      "icidae": 4644,
      "rett": 4645,
      "rehab": 4646,
      "revised": 4647,
      "roe": 4648,
      "rook": 4649,
      "stay": 4650,
      "steven": 4651,
      "leigh": 4652,
      "lewis": 4653,
      "leaves": 4654,
      "chen": 4655,
      "chand": 4656,
      "chile": 4657,
      "chase": 4658,
      "chos": 4659,
      "unus": 4660,
      "univer": 4661,
      "coe": 4662,
      "cow": 4663,
      "cott": 4664,
      "coding": 4665,
      "entity": 4666,
      "entered": 4667,
      "ela": 4668,
      "elves": 4669,
      "ellect": 4670,
      "adap": 4671,
      "address": 4672,
      "aces": 4673,
      "deb": 4674,
      "dead": 4675,
      "demand": 4676,
      "sections": 4677,
      "seems": 4678,
      "bean": 4679,
      "beck": 4680,
      "behind": 4681,
      "heim": 4682,
      "igo": 4683,
      "igen": 4684,
      "ignation": 4685,
      "uts": 4686,
      "utan": 4687,
      "util": 4688,
      "utions": 4689,
      "hos": 4690,
      "homa": 4691,
      "hook": 4692,
      "tran": 4693,
      "trig": 4694,
      "tridae": 4695,
      "truck": 4696,
      "embass": 4697,
      "ayalam": 4698,
      "comes": 4699,
      "combin": 4700,
      "combat": 4701,
      "ido": 4702,
      "agas": 4703,
      "agons": 4704,
      "agency": 4705,
      "ulus": 4706,
      "concent": 4707,
      "convict": 4708,
      "peg": 4709,
      "peace": 4710,
      "image": 4711,
      "immun": 4712,
      "uments": 4713,
      "noon": 4714,
      "noble": 4715,
      "plans": 4716,
      "proced": 4717,
      "propos": 4718,
      "proceed": 4719,
      "proportion": 4720,
      "neg": 4721,
      "abc": 4722,
      "absor": 4723,
      "esty": 4724,
      "estim": 4725,
      "estate": 4726,
      "estone": 4727,
      "berk": 4728,
      "berlin": 4729,
      "romantic": 4730,
      "arten": 4731,
      "articles": 4732,
      "mouth": 4733,
      "apur": 4734,
      "apply": 4735,
      "approved": 4736,
      "apache": 4737,
      "opto": 4738,
      "opposition": 4739,
      "sugar": 4740,
      "ishn": 4741,
      "clin": 4742,
      "cler": 4743,
      "clients": 4744,
      "bott": 4745,
      "aviation": 4746,
      "bru": 4747,
      "bral": 4748,
      "brass": 4749,
      "brick": 4750,
      "branches": 4751,
      "wnba": 4752,
      "manent": 4753,
      "sher": 4754,
      "sham": 4755,
      "shir": 4756,
      "shell": 4757,
      "shrub": 4758,
      "poem": 4759,
      "illum": 4760,
      "uge": 4761,
      "quant": 4762,
      "antine": 4763,
      "afted": 4764,
      "ify": 4765,
      "twin": 4766,
      "formal": 4767,
      "meters": 4768,
      "meado": 4769,
      "updated": 4770,
      "corrupt": 4771,
      "exists": 4772,
      "exclus": 4773,
      "cris": 4774,
      "credit": 4775,
      "cript": 4776,
      "permanent": 4777,
      "dog": 4778,
      "phag": 4779,
      "disc": 4780,
      "dissol": 4781,
      "disorder": 4782,
      "discontinued": 4783,
      "marc": 4784,
      "marin": 4785,
      "married": 4786,
      "marshall": 4787,
      "spee": 4788,
      "ellis": 4789,
      "awa": 4790,
      "comput": 4791,
      "newfound": 4792,
      "ported": 4793,
      "portland": 4794,
      "filmed": 4795,
      "mines": 4796,
      "minim": 4797,
      "frater": 4798,
      "cancer": 4799,
      "goals": 4800,
      "gospel": 4801,
      "schwe": 4802,
      "scheme": 4803,
      "drivers": 4804,
      "respect": 4805,
      "respective": 4806,
      "rescue": 4807,
      "normally": 4808,
      "paris": 4809,
      "parent": 4810,
      "math": 4811,
      "pressure": 4812,
      "raid": 4813,
      "locations": 4814,
      "okla": 4815,
      "grows": 4816,
      "otherwise": 4817,
      "ension": 4818,
      "elements": 4819,
      "aires": 4820,
      "airing": 4821,
      "carpenter": 4822,
      "kept": 4823,
      "offer": 4824,
      "evidence": 4825,
      "notably": 4826,
      "produce": 4827,
      "productions": 4828,
      "sheffield": 4829,
      "caught": 4830,
      "medals": 4831,
      "medicine": 4832,
      "anny": 4833,
      "string": 4834,
      "strength": 4835,
      "strugg": 4836,
      "ibly": 4837,
      "intellect": 4838,
      "studied": 4839,
      "epile": 4840,
      "shoot": 4841,
      "writes": 4842,
      "derby": 4843,
      "aza": 4844,
      "numbers": 4845,
      "mainstream": 4846,
      "laredo": 4847,
      "blues": 4848,
      "subst": 4849,
      "charter": 4850,
      "ails": 4851,
      "ailing": 4852,
      "bands": 4853,
      "jewish": 4854,
      "athy": 4855,
      "namib": 4856,
      "relations": 4857,
      "transfers": 4858,
      "harvey": 4859,
      "greater": 4860,
      "condition": 4861,
      "rican": 4862,
      "lineup": 4863,
      "miami": 4864,
      "ysis": 4865,
      "younger": 4866,
      "retail": 4867,
      "ukrain": 4868,
      "develops": 4869,
      "lateral": 4870,
      "owns": 4871,
      "iki": 4872,
      "depict": 4873,
      "deliver": 4874,
      "delhi": 4875,
      "rolling": 4876,
      "roller": 4877,
      "matic": 4878,
      "lawyer": 4879,
      "roads": 4880,
      "villa": 4881,
      "below": 4882,
      "capit": 4883,
      "hamlet": 4884,
      "ski": 4885,
      "tained": 4886,
      "televised": 4887,
      "clock": 4888,
      "opening": 4889,
      "hypo": 4890,
      "hybrid": 4891,
      "vijay": 4892,
      "basic": 4893,
      "cash": 4894,
      "sene": 4895,
      "representation": 4896,
      "masters": 4897,
      "walker": 4898,
      "valu": 4899,
      "halo": 4900,
      "topped": 4901,
      "malays": 4902,
      "malayalam": 4903,
      "rankings": 4904,
      "prises": 4905,
      "restor": 4906,
      "virt": 4907,
      "departure": 4908,
      "thought": 4909,
      "technical": 4910,
      "billion": 4911,
      "dynast": 4912,
      "grapher": 4913,
      "woods": 4914,
      "mord": 4915,
      "winners": 4916,
      "motion": 4917,
      "directorial": 4918,
      "novelist": 4919,
      "managing": 4920,
      "waterford": 4921,
      "ballot": 4922,
      "holiday": 4923,
      "link": 4924,
      "purpos": 4925,
      "scen": 4926,
      "scand": 4927,
      "riel": 4928,
      "penins": 4929,
      "bai": 4930,
      "baby": 4931,
      "eye": 4932,
      "eyes": 4933,
      "hands": 4934,
      "icians": 4935,
      "micro": 4936,
      "silent": 4937,
      "voy": 4938,
      "voir": 4939,
      "sterling": 4940,
      "membership": 4941,
      "authorities": 4942,
      "davies": 4943,
      "sixteen": 4944,
      "testing": 4945,
      "contrast": 4946,
      "anchor": 4947,
      "connection": 4948,
      "campus": 4949,
      "institutional": 4950,
      "institutions": 4951,
      "themes": 4952,
      "libraries": 4953,
      "blog": 4954,
      "importance": 4955,
      "kenny": 4956,
      "kenya": 4957,
      "storage": 4958,
      "railways": 4959,
      "jerus": 4960,
      "ready": 4961,
      "reading": 4962,
      "legislation": 4963,
      "richmond": 4964,
      "models": 4965,
      "response": 4966,
      "fifteen": 4967,
      "activist": 4968,
      "honored": 4969,
      "salem": 4970,
      "turkey": 4971,
      "editors": 4972,
      "expert": 4973,
      "soft": 4974,
      "coastal": 4975,
      "camer": 4976,
      "evening": 4977,
      "damaged": 4978,
      "greece": 4979,
      "melbourne": 4980,
      "medalist": 4981,
      "rams": 4982,
      "netic": 4983,
      "commissioner": 4984,
      "animation": 4985,
      "prisoners": 4986,
      "materials": 4987,
      "hindu": 4988,
      "samsung": 4989,
      "editions": 4990,
      "acquisition": 4991,
      "mounted": 4992,
      "performances": 4993,
      "participation": 4994,
      "participants": 4995,
      "ronald": 4996,
      "allows": 4997,
      "allowing": 4998,
      "select": 4999,
      "bulgar": 5000,
      "score": 5001,
      "scored": 5002,
      "scrip": 5003,
      "training": 5004,
      "finishing": 5005,
      "weekly": 5006,
      "battal": 5007,
      "romanian": 5008,
      "punk": 5009,
      "sussex": 5010,
      "setting": 5011,
      "platinum": 5012,
      "maintaining": 5013,
      "quarterback": 5014,
      "economics": 5015,
      "flowers": 5016,
      "turned": 5017,
      "planned": 5018,
      "approach": 5019,
      "interests": 5020,
      "boliv": 5021,
      "forests": 5022,
      "congressional": 5023,
      "southeastern": 5024,
      "influential": 5025,
      "drop": 5026,
      "frequently": 5027,
      "analysis": 5028,
      "teaching": 5029,
      "collaborative": 5030,
      "initially": 5031,
      "flex": 5032,
      "kinderg": 5033,
      "tasman": 5034,
      "transportation": 5035,
      "surviving": 5036,
      "chapter": 5037,
      "heavyweight": 5038,
      "tribe": 5039,
      "drums": 5040,
      "drummer": 5041,
      "fighting": 5042,
      "watch": 5043,
      "increase": 5044,
      "entries": 5045,
      "promoted": 5046,
      "measure": 5047,
      "regarded": 5048,
      "visitors": 5049,
      "habitat": 5050,
      "manufactured": 5051,
      "sphere": 5052,
      "tunis": 5053,
      "annex": 5054,
      "argentina": 5055,
      "remote": 5056,
      "becca": 5057,
      "carried": 5058,
      "baronetage": 5059,
      "baronetcy": 5060,
      "translation": 5061,
      "translated": 5062,
      "progressive": 5063,
      "brazilian": 5064,
      "customers": 5065,
      "bacter": 5066,
      "hampshire": 5067,
      "nelson": 5068,
      "piano": 5069,
      "safe": 5070,
      "straight": 5071,
      "chamber": 5072,
      "explor": 5073,
      "criminal": 5074,
      "collins": 5075,
      "paralymp": 5076,
      "parallel": 5077,
      "preserve": 5078,
      "transferred": 5079,
      "sweden": 5080,
      "ligament": 5081,
      "picture": 5082,
      "pictures": 5083,
      "constant": 5084,
      "conducted": 5085,
      "constitutional": 5086,
      "bernard": 5087,
      "expressed": 5088,
      "awareness": 5089,
      "occurs": 5090,
      "belonging": 5091,
      "believed": 5092,
      "psychology": 5093,
      "cinema": 5094,
      "diploma": 5095,
      "golf": 5096,
      "hungary": 5097,
      "iastical": 5098,
      "tells": 5099,
      "detect": 5100,
      "brisbane": 5101,
      "shelter": 5102,
      "illustrated": 5103,
      "meeting": 5104,
      "resources": 5105,
      "growth": 5106,
      "policy": 5107,
      "desert": 5108,
      "attached": 5109,
      "eccles": 5110,
      "eagles": 5111,
      "saturday": 5112,
      "welsh": 5113,
      "brigade": 5114,
      "geometridae": 5115,
      "excellence": 5116,
      "knowledge": 5117,
      "skills": 5118,
      "benefit": 5119,
      "enzyme": 5120,
      "achievements": 5121,
      "threaten": 5122,
      "cemetery": 5123,
      "eighth": 5124,
      "figure": 5125,
      "gabriel": 5126,
      "nazi": 5127,
      "ranked": 5128,
      "entitled": 5129,
      "beyond": 5130,
      "indonesia": 5131,
      "correspond": 5132,
      "colonial": 5133,
      "mercury": 5134,
      "swimming": 5135,
      "diagno": 5136,
      "taiwanese": 5137,
      "recommendations": 5138,
      "hunter": 5139,
      "jamaica": 5140,
      "vidhan": 5141,
      "fossil": 5142,
      "graham": 5143,
      "compensation": 5144,
      "canceled": 5145,
      "ultimately": 5146,
      "financial": 5147,
      "hamilton": 5148,
      "emphasis": 5149,
      "helicopter": 5150,
      "ethiopia": 5151,
      "diamond": 5152,
      "hastings": 5153,
      "sultan": 5154,
      "surname": 5155,
      "themselves": 5156,
      "edmonton": 5157,
      "rehabil": 5158,
      "chosen": 5159,
      "universe": 5160,
      "embassy": 5161,
      "newfoundland": 5162,
      "oklahoma": 5163,
      "intellectual": 5164,
      "ecclesiastical": 5165,
      "ais": 5166,
      "aja": 5167,
      "bes": 5168,
      "bic": 5169,
      "bun": 5170,
      "bug": 5171,
      "bust": 5172,
      "bally": 5173,
      "bhar": 5174,
      "bible": 5175,
      "bago": 5176,
      "baker": 5177,
      "cv": 5178,
      "cia": 5179,
      "cip": 5180,
      "cere": 5181,
      "cend": 5182,
      "cited": 5183,
      "cise": 5184,
      "caves": 5185,
      "dat": 5186,
      "dad": 5187,
      "dall": 5188,
      "dial": 5189,
      "dave": 5190,
      "fis": 5191,
      "fus": 5192,
      "fab": 5193,
      "fear": 5194,
      "fold": 5195,
      "fung": 5196,
      "gle": 5197,
      "gam": 5198,
      "gem": 5199,
      "gay": 5200,
      "gall": 5201,
      "gill": 5202,
      "gage": 5203,
      "gates": 5204,
      "gins": 5205,
      "hr": 5206,
      "hil": 5207,
      "hut": 5208,
      "hund": 5209,
      "hary": 5210,
      "hugh": 5211,
      "hair": 5212,
      "hann": 5213,
      "hstan": 5214,
      "jac": 5215,
      "jag": 5216,
      "jess": 5217,
      "jup": 5218,
      "jpur": 5219,
      "jets": 5220,
      "kn": 5221,
      "ku": 5222,
      "kan": 5223,
      "kand": 5224,
      "kab": 5225,
      "kos": 5226,
      "kane": 5227,
      "lun": 5228,
      "lag": 5229,
      "lav": 5230,
      "lud": 5231,
      "lidae": 5232,
      "liver": 5233,
      "lisa": 5234,
      "ltd": 5235,
      "mh": 5236,
      "mast": 5237,
      "might": 5238,
      "mbl": 5239,
      "mals": 5240,
      "maker": 5241,
      "mull": 5242,
      "ng": 5243,
      "nad": 5244,
      "nich": 5245,
      "ngo": 5246,
      "nial": 5247,
      "nba": 5248,
      "nadu": 5249,
      "och": 5250,
      "otho": 5251,
      "ospace": 5252,
      "pand": 5253,
      "pson": 5254,
      "panch": 5255,
      "rho": 5256,
      "rud": 5257,
      "rence": 5258,
      "rib": 5259,
      "rane": 5260,
      "sf": 5261,
      "sig": 5262,
      "sut": 5263,
      "sight": 5264,
      "sence": 5265,
      "sale": 5266,
      "sides": 5267,
      "sadd": 5268,
      "tan": 5269,
      "tto": 5270,
      "tag": 5271,
      "tap": 5272,
      "tact": 5273,
      "tang": 5274,
      "tier": 5275,
      "ube": 5276,
      "vac": 5277,
      "vine": 5278,
      "vision": 5279,
      "vfl": 5280,
      "vacc": 5281,
      "wich": 5282,
      "wick": 5283,
      "wins": 5284,
      "xter": 5285,
      "yar": 5286,
      "yak": 5287,
      "ygen": 5288,
      "yout": 5289,
      "yog": 5290,
      "yah": 5291,
      "zo": 5292,
      "zen": 5293,
      "thi": 5294,
      "thic": 5295,
      "thail": 5296,
      "inis": 5297,
      "inse": 5298,
      "inqu": 5299,
      "inspe": 5300,
      "infr": 5301,
      "invent": 5302,
      "input": 5303,
      "anter": 5304,
      "ante": 5305,
      "theor": 5306,
      "erse": 5307,
      "iser": 5308,
      "orn": 5309,
      "orship": 5310,
      "eden": 5311,
      "edward": 5312,
      "arn": 5313,
      "arus": 5314,
      "argu": 5315,
      "arctic": 5316,
      "array": 5317,
      "arbore": 5318,
      "ato": 5319,
      "atics": 5320,
      "alas": 5321,
      "alco": 5322,
      "alem": 5323,
      "alive": 5324,
      "alleg": 5325,
      "albert": 5326,
      "alpha": 5327,
      "already": 5328,
      "enab": 5329,
      "encer": 5330,
      "essex": 5331,
      "escape": 5332,
      "ands": 5333,
      "andra": 5334,
      "itian": 5335,
      "iceland": 5336,
      "rem": 5337,
      "recon": 5338,
      "reve": 5339,
      "recurr": 5340,
      "rector": 5341,
      "remark": 5342,
      "reput": 5343,
      "revenue": 5344,
      "rode": 5345,
      "roger": 5346,
      "routes": 5347,
      "stall": 5348,
      "stain": 5349,
      "stok": 5350,
      "stable": 5351,
      "stick": 5352,
      "inge": 5353,
      "leaf": 5354,
      "leban": 5355,
      "leather": 5356,
      "tox": 5357,
      "toast": 5358,
      "touch": 5359,
      "toxic": 5360,
      "tobago": 5361,
      "chy": 5362,
      "chin": 5363,
      "chal": 5364,
      "chur": 5365,
      "chag": 5366,
      "chall": 5367,
      "chess": 5368,
      "chick": 5369,
      "chef": 5370,
      "chrome": 5371,
      "chenna": 5372,
      "challen": 5373,
      "amy": 5374,
      "amic": 5375,
      "aments": 5376,
      "amster": 5377,
      "ambass": 5378,
      "ilis": 5379,
      "ilst": 5380,
      "illy": 5381,
      "illo": 5382,
      "una": 5383,
      "unes": 5384,
      "unity": 5385,
      "uncle": 5386,
      "unique": 5387,
      "cou": 5388,
      "cox": 5389,
      "cope": 5390,
      "cooper": 5391,
      "coord": 5392,
      "copy": 5393,
      "forum": 5394,
      "elo": 5395,
      "eline": 5396,
      "elite": 5397,
      "urance": 5398,
      "adri": 5399,
      "adjac": 5400,
      "acclaim": 5401,
      "accel": 5402,
      "olph": 5403,
      "det": 5404,
      "dew": 5405,
      "deen": 5406,
      "deman": 5407,
      "sem": 5408,
      "sev": 5409,
      "sean": 5410,
      "seal": 5411,
      "seas": 5412,
      "semin": 5413,
      "search": 5414,
      "tero": 5415,
      "terres": 5416,
      "terry": 5417,
      "terror": 5418,
      "byter": 5419,
      "lywood": 5420,
      "behalf": 5421,
      "beaver": 5422,
      "hearing": 5423,
      "hod": 5424,
      "hope": 5425,
      "howard": 5426,
      "hogg": 5427,
      "loan": 5428,
      "losing": 5429,
      "loos": 5430,
      "loys": 5431,
      "loose": 5432,
      "trav": 5433,
      "trio": 5434,
      "emen": 5435,
      "embr": 5436,
      "emily": 5437,
      "empower": 5438,
      "coming": 5439,
      "ctu": 5440,
      "price": 5441,
      "aga": 5442,
      "agh": 5443,
      "agan": 5444,
      "ager": 5445,
      "agog": 5446,
      "ulam": 5447,
      "concre": 5448,
      "constr": 5449,
      "consecut": 5450,
      "pean": 5451,
      "ims": 5452,
      "imprison": 5453,
      "immedi": 5454,
      "note": 5455,
      "wire": 5456,
      "plies": 5457,
      "plastic": 5458,
      "ceased": 5459,
      "ceived": 5460,
      "cephal": 5461,
      "prot": 5462,
      "proof": 5463,
      "proposed": 5464,
      "prohib": 5465,
      "neth": 5466,
      "necess": 5467,
      "neapolis": 5468,
      "abol": 5469,
      "abuse": 5470,
      "abroad": 5471,
      "absence": 5472,
      "ista": 5473,
      "istical": 5474,
      "berland": 5475,
      "arton": 5476,
      "whilst": 5477,
      "allied": 5478,
      "moment": 5479,
      "mosco": 5480,
      "aps": 5481,
      "apar": 5482,
      "apse": 5483,
      "apore": 5484,
      "vermont": 5485,
      "aret": 5486,
      "sudan": 5487,
      "suff": 5488,
      "sustain": 5489,
      "cla": 5490,
      "clif": 5491,
      "boo": 5492,
      "boot": 5493,
      "bodies": 5494,
      "bohem": 5495,
      "iport": 5496,
      "ained": 5497,
      "brut": 5498,
      "brab": 5499,
      "brane": 5500,
      "wned": 5501,
      "essed": 5502,
      "essential": 5503,
      "mans": 5504,
      "manip": 5505,
      "manner": 5506,
      "manila": 5507,
      "shut": 5508,
      "poiro": 5509,
      "thers": 5510,
      "therap": 5511,
      "uganda": 5512,
      "quin": 5513,
      "quick": 5514,
      "antage": 5515,
      "geons": 5516,
      "geelong": 5517,
      "grav": 5518,
      "grif": 5519,
      "ifol": 5520,
      "ifically": 5521,
      "indie": 5522,
      "indoor": 5523,
      "mex": 5524,
      "akhstan": 5525,
      "cide": 5526,
      "cipl": 5527,
      "portr": 5528,
      "corn": 5529,
      "coron": 5530,
      "coral": 5531,
      "corner": 5532,
      "expect": 5533,
      "earl": 5534,
      "crash": 5535,
      "worth": 5536,
      "peru": 5537,
      "perform": 5538,
      "performer": 5539,
      "playwright": 5540,
      "landmark": 5541,
      "ameter": 5542,
      "ott": 5543,
      "oty": 5544,
      "otes": 5545,
      "dod": 5546,
      "dox": 5547,
      "dogs": 5548,
      "commons": 5549,
      "phr": 5550,
      "disco": 5551,
      "dismiss": 5552,
      "diseas": 5553,
      "disasters": 5554,
      "discipl": 5555,
      "marg": 5556,
      "marvel": 5557,
      "marath": 5558,
      "fired": 5559,
      "butler": 5560,
      "aware": 5561,
      "ilyn": 5562,
      "izon": 5563,
      "unting": 5564,
      "untary": 5565,
      "newton": 5566,
      "newcastle": 5567,
      "mini": 5568,
      "minneapolis": 5569,
      "fron": 5570,
      "fried": 5571,
      "franch": 5572,
      "angu": 5573,
      "anglo": 5574,
      "genre": 5575,
      "spar": 5576,
      "spaces": 5577,
      "spencer": 5578,
      "cans": 5579,
      "canal": 5580,
      "cannon": 5581,
      "gow": 5582,
      "enges": 5583,
      "engines": 5584,
      "schol": 5585,
      "schwart": 5586,
      "driving": 5587,
      "driven": 5588,
      "dragons": 5589,
      "drafted": 5590,
      "famous": 5591,
      "resh": 5592,
      "resol": 5593,
      "resem": 5594,
      "interview": 5595,
      "interactive": 5596,
      "centered": 5597,
      "serve": 5598,
      "outbreak": 5599,
      "norman": 5600,
      "mathe": 5601,
      "presbyter": 5602,
      "specifically": 5603,
      "ody": 5604,
      "omb": 5605,
      "velle": 5606,
      "rah": 5607,
      "lows": 5608,
      "symb": 5609,
      "useful": 5610,
      "gross": 5611,
      "aea": 5612,
      "curator": 5613,
      "eleven": 5614,
      "herb": 5615,
      "carri": 5616,
      "preced": 5617,
      "offered": 5618,
      "offering": 5619,
      "offenders": 5620,
      "evangel": 5621,
      "ptor": 5622,
      "creative": 5623,
      "creator": 5624,
      "notes": 5625,
      "sheep": 5626,
      "timore": 5627,
      "anya": 5628,
      "anyone": 5629,
      "anything": 5630,
      "singers": 5631,
      "singapore": 5632,
      "tenth": 5633,
      "cau": 5634,
      "cathe": 5635,
      "causes": 5636,
      "median": 5637,
      "annon": 5638,
      "strip": 5639,
      "strateg": 5640,
      "counties": 5641,
      "monkey": 5642,
      "monument": 5643,
      "monroe": 5644,
      "southwest": 5645,
      "austrian": 5646,
      "epithe": 5647,
      "flank": 5648,
      "woo": 5649,
      "write": 5650,
      "underground": 5651,
      "deriv": 5652,
      "attor": 5653,
      "attending": 5654,
      "maine": 5655,
      "overseas": 5656,
      "gery": 5657,
      "build": 5658,
      "bling": 5659,
      "collect": 5660,
      "barry": 5661,
      "finally": 5662,
      "towns": 5663,
      "subdivision": 5664,
      "substitut": 5665,
      "subjects": 5666,
      "issa": 5667,
      "issance": 5668,
      "wayne": 5669,
      "cyn": 5670,
      "tyr": 5671,
      "origins": 5672,
      "musicians": 5673,
      "athan": 5674,
      "athing": 5675,
      "fiji": 5676,
      "ologic": 5677,
      "ologists": 5678,
      "gujar": 5679,
      "naming": 5680,
      "namely": 5681,
      "relay": 5682,
      "relating": 5683,
      "communist": 5684,
      "songwriting": 5685,
      "transmission": 5686,
      "transactions": 5687,
      "diving": 5688,
      "diverse": 5689,
      "generate": 5690,
      "harold": 5691,
      "thous": 5692,
      "operating": 5693,
      "osa": 5694,
      "oscar": 5695,
      "thereby": 5696,
      "therefore": 5697,
      "starling": 5698,
      "laur": 5699,
      "junct": 5700,
      "junction": 5701,
      "inscript": 5702,
      "developer": 5703,
      "appeal": 5704,
      "associations": 5705,
      "rado": 5706,
      "identical": 5707,
      "retro": 5708,
      "forever": 5709,
      "ukh": 5710,
      "uki": 5711,
      "developing": 5712,
      "simul": 5713,
      "simple": 5714,
      "rocky": 5715,
      "internationally": 5716,
      "juan": 5717,
      "supporters": 5718,
      "delaware": 5719,
      "rolled": 5720,
      "stems": 5721,
      "lawrence": 5722,
      "surrey": 5723,
      "surgery": 5724,
      "villages": 5725,
      "belgian": 5726,
      "capable": 5727,
      "venues": 5728,
      "venez": 5729,
      "skin": 5730,
      "skele": 5731,
      "stewart": 5732,
      "governing": 5733,
      "backing": 5734,
      "swiss": 5735,
      "switch": 5736,
      "taj": 5737,
      "hyper": 5738,
      "membrane": 5739,
      "taluk": 5740,
      "jordan": 5741,
      "archdiocese": 5742,
      "bread": 5743,
      "brewer": 5744,
      "breaking": 5745,
      "aneous": 5746,
      "courts": 5747,
      "boards": 5748,
      "boarding": 5749,
      "bush": 5750,
      "indiana": 5751,
      "lingu": 5752,
      "lington": 5753,
      "nearly": 5754,
      "persian": 5755,
      "persons": 5756,
      "missions": 5757,
      "ranch": 5758,
      "receptor": 5759,
      "employs": 5760,
      "patch": 5761,
      "patrick": 5762,
      "patients": 5763,
      "fordshire": 5764,
      "smaller": 5765,
      "letters": 5766,
      "seeing": 5767,
      "seeking": 5768,
      "bales": 5769,
      "balance": 5770,
      "pursu": 5771,
      "scatter": 5772,
      "burma": 5773,
      "educated": 5774,
      "protect": 5775,
      "governments": 5776,
      "penang": 5777,
      "venture": 5778,
      "charted": 5779,
      "superintend": 5780,
      "cuts": 5781,
      "limits": 5782,
      "handled": 5783,
      "holder": 5784,
      "authored": 5785,
      "cube": 5786,
      "heliport": 5787,
      "tests": 5788,
      "loss": 5789,
      "assembl": 5790,
      "shortly": 5791,
      "circle": 5792,
      "circum": 5793,
      "reflect": 5794,
      "postal": 5795,
      "engineers": 5796,
      "gather": 5797,
      "horror": 5798,
      "horizon": 5799,
      "onym": 5800,
      "ivalent": 5801,
      "kerry": 5802,
      "videos": 5803,
      "sequel": 5804,
      "sequence": 5805,
      "sequential": 5806,
      "daniel": 5807,
      "ufc": 5808,
      "stored": 5809,
      "stores": 5810,
      "processor": 5811,
      "processes": 5812,
      "aims": 5813,
      "biology": 5814,
      "jerome": 5815,
      "tortric": 5816,
      "treas": 5817,
      "reads": 5818,
      "youngest": 5819,
      "graphics": 5820,
      "journalist": 5821,
      "journalists": 5822,
      "faced": 5823,
      "glen": 5824,
      "glass": 5825,
      "mingham": 5826,
      "passed": 5827,
      "passenger": 5828,
      "comeback": 5829,
      "popularity": 5830,
      "labels": 5831,
      "differences": 5832,
      "crowd": 5833,
      "panic": 5834,
      "invas": 5835,
      "invited": 5836,
      "reaching": 5837,
      "choir": 5838,
      "laboratory": 5839,
      "continuing": 5840,
      "continuous": 5841,
      "salt": 5842,
      "turb": 5843,
      "wilson": 5844,
      "beetles": 5845,
      "loyd": 5846,
      "experiment": 5847,
      "marketing": 5848,
      "ruled": 5849,
      "statistical": 5850,
      "specialized": 5851,
      "specializes": 5852,
      "colored": 5853,
      "officials": 5854,
      "ethno": 5855,
      "equal": 5856,
      "equivalent": 5857,
      "luke": 5858,
      "murray": 5859,
      "involves": 5860,
      "hosted": 5861,
      "hosting": 5862,
      "banks": 5863,
      "macle": 5864,
      "enterprises": 5865,
      "comedian": 5866,
      "additions": 5867,
      "bassist": 5868,
      "rapper": 5869,
      "slave": 5870,
      "chemistry": 5871,
      "sexual": 5872,
      "commitment": 5873,
      "viewers": 5874,
      "effective": 5875,
      "democrats": 5876,
      "everything": 5877,
      "mollusc": 5878,
      "soldiers": 5879,
      "anthology": 5880,
      "stood": 5881,
      "sources": 5882,
      "explos": 5883,
      "goods": 5884,
      "participate": 5885,
      "autumn": 5886,
      "madison": 5887,
      "mirror": 5888,
      "selective": 5889,
      "publishes": 5890,
      "birth": 5891,
      "birmingham": 5892,
      "femina": 5893,
      "rule": 5894,
      "ruby": 5895,
      "wider": 5896,
      "constructed": 5897,
      "claims": 5898,
      "cruz": 5899,
      "frontman": 5900,
      "investment": 5901,
      "axy": 5902,
      "nineteenth": 5903,
      "sisters": 5904,
      "compound": 5905,
      "speeds": 5906,
      "speedway": 5907,
      "compiled": 5908,
      "methodist": 5909,
      "suspic": 5910,
      "employees": 5911,
      "manufacturing": 5912,
      "culmin": 5913,
      "rider": 5914,
      "riding": 5915,
      "ranging": 5916,
      "tournaments": 5917,
      "predomin": 5918,
      "contempl": 5919,
      "possibly": 5920,
      "municipal": 5921,
      "sarah": 5922,
      "vincent": 5923,
      "infurt": 5924,
      "copper": 5925,
      "planes": 5926,
      "planet": 5927,
      "needs": 5928,
      "needed": 5929,
      "editorial": 5930,
      "influences": 5931,
      "influenced": 5932,
      "farms": 5933,
      "galaxy": 5934,
      "judge": 5935,
      "pitts": 5936,
      "pitcher": 5937,
      "analy": 5938,
      "alternate": 5939,
      "recognition": 5940,
      "stanley": 5941,
      "mexican": 5942,
      "collaboration": 5943,
      "subsequent": 5944,
      "religion": 5945,
      "violent": 5946,
      "contributed": 5947,
      "contributions": 5948,
      "integrity": 5949,
      "aerial": 5950,
      "aerospace": 5951,
      "cdp": 5952,
      "layer": 5953,
      "wyn": 5954,
      "attribut": 5955,
      "empty": 5956,
      "qualifying": 5957,
      "earliest": 5958,
      "brooklyn": 5959,
      "experiences": 5960,
      "functional": 5961,
      "adventures": 5962,
      "becomes": 5963,
      "beaches": 5964,
      "achieve": 5965,
      "contestant": 5966,
      "directly": 5967,
      "athletes": 5968,
      "chronicle": 5969,
      "bhutan": 5970,
      "dishes": 5971,
      "dublin": 5972,
      "dubbed": 5973,
      "mrs": 5974,
      "mammal": 5975,
      "mammals": 5976,
      "nancy": 5977,
      "pike": 5978,
      "increased": 5979,
      "instruments": 5980,
      "foods": 5981,
      "measures": 5982,
      "reservoir": 5983,
      "establishing": 5984,
      "motorcycle": 5985,
      "aquatic": 5986,
      "garden": 5987,
      "knights": 5988,
      "muir": 5989,
      "narrow": 5990,
      "removed": 5991,
      "coalition": 5992,
      "confused": 5993,
      "spirit": 5994,
      "carrier": 5995,
      "philosoph": 5996,
      "celebrated": 5997,
      "babwe": 5998,
      "hampton": 5999,
      "juris": 6000,
      "pianist": 6001,
      "tibet": 6002,
      "decline": 6003,
      "boundaries": 6004,
      "explores": 6005,
      "criminals": 6006,
      "schedule": 6007,
      "preserved": 6008,
      "architectural": 6009,
      "liga": 6010,
      "puerto": 6011,
      "piece": 6012,
      "pieces": 6013,
      "adults": 6014,
      "accounts": 6015,
      "constitution": 6016,
      "conventional": 6017,
      "concepts": 6018,
      "promotion": 6019,
      "bridges": 6020,
      "induced": 6021,
      "exactly": 6022,
      "volumes": 6023,
      "criticized": 6024,
      "vocalist": 6025,
      "investigation": 6026,
      "budget": 6027,
      "caval": 6028,
      "pierre": 6029,
      "tube": 6030,
      "witness": 6031,
      "leonard": 6032,
      "uniform": 6033,
      "accident": 6034,
      "heights": 6035,
      "hours": 6036,
      "probably": 6037,
      "promised": 6038,
      "promising": 6039,
      "neuro": 6040,
      "suitable": 6041,
      "bringing": 6042,
      "butterfly": 6043,
      "resource": 6044,
      "shopping": 6045,
      "morrison": 6046,
      "synthesis": 6047,
      "initiated": 6048,
      "dreams": 6049,
      "banned": 6050,
      "messenger": 6051,
      "siege": 6052,
      "slowly": 6053,
      "encourage": 6054,
      "northeastern": 6055,
      "elevation": 6056,
      "strike": 6057,
      "cycling": 6058,
      "relationship": 6059,
      "relationships": 6060,
      "populations": 6061,
      "surrounding": 6062,
      "sikh": 6063,
      "taylor": 6064,
      "segment": 6065,
      "looking": 6066,
      "converted": 6067,
      "impact": 6068,
      "powers": 6069,
      "afghanistan": 6070,
      "exhibited": 6071,
      "filipino": 6072,
      "scholarship": 6073,
      "mazda": 6074,
      "morocco": 6075,
      "wheatley": 6076,
      "agricultural": 6077,
      "binding": 6078,
      "baptist": 6079,
      "makers": 6080,
      "nigeria": 6081,
      "vessels": 6082,
      "wanted": 6083,
      "index": 6084,
      "algeria": 6085,
      "steve": 6086,
      "amazon": 6087,
      "advertising": 6088,
      "molecular": 6089,
      "supreme": 6090,
      "briefly": 6091,
      "exception": 6092,
      "cricketers": 6093,
      "ongoing": 6094,
      "douglas": 6095,
      "maximum": 6096,
      "elementary": 6097,
      "keeper": 6098,
      "striker": 6099,
      "mystery": 6100,
      "tornado": 6101,
      "croatian": 6102,
      "distinguished": 6103,
      "catalog": 6104,
      "predictable": 6105,
      "bipolar": 6106,
      "jumping": 6107,
      "kazakhstan": 6108,
      "lanka": 6109,
      "zimbabwe": 6110,
      "inhabitants": 6111,
      "istration": 6112,
      "arctiinae": 6113,
      "atmosphere": 6114,
      "rookie": 6115,
      "concentr": 6116,
      "convicted": 6117,
      "estimated": 6118,
      "quantum": 6119,
      "phagia": 6120,
      "discuss": 6121,
      "speech": 6122,
      "schweinfurt": 6123,
      "epilepsy": 6124,
      "shooting": 6125,
      "delivered": 6126,
      "capitol": 6127,
      "malaysia": 6128,
      "virtual": 6129,
      "dynasty": 6130,
      "peninsula": 6131,
      "jerusalem": 6132,
      "bulgaria": 6133,
      "battalion": 6134,
      "kindergarten": 6135,
      "rehabilitation": 6136,
      "dallas": 6137,
      "hundred": 6138,
      "jupiter": 6139,
      "saddle": 6140,
      "vaccine": 6141,
      "youtube": 6142,
      "thailand": 6143,
      "anterior": 6144,
      "alcohol": 6145,
      "recurring": 6146,
      "churches": 6147,
      "challenges": 6148,
      "chennai": 6149,
      "challenge": 6150,
      "amsterdam": 6151,
      "ambassador": 6152,
      "adjacent": 6153,
      "acceler": 6154,
      "terrestrial": 6155,
      "loosely": 6156,
      "concrete": 6157,
      "consecutive": 6158,
      "immediately": 6159,
      "poirot": 6160,
      "diseases": 6161,
      "marathon": 6162,
      "franchise": 6163,
      "schwartz": 6164,
      "symbol": 6165,
      "venezuel": 6166,
      "brewery": 6167,
      "superintendent": 6168,
      "ao": 6169,
      "aar": 6170,
      "aen": 6171,
      "aub": 6172,
      "ault": 6173,
      "aik": 6174,
      "aids": 6175,
      "bt": 6176,
      "bing": 6177,
      "bam": 6178,
      "bare": 6179,
      "bian": 6180,
      "bund": 6181,
      "bak": 6182,
      "bub": 6183,
      "bdo": 6184,
      "bates": 6185,
      "bats": 6186,
      "cb": 6187,
      "cic": 6188,
      "cun": 6189,
      "cly": 6190,
      "cated": 6191,
      "cio": 6192,
      "cine": 6193,
      "cass": 6194,
      "cater": 6195,
      "cure": 6196,
      "canton": 6197,
      "cfu": 6198,
      "df": 6199,
      "dic": 6200,
      "dent": 6201,
      "dim": 6202,
      "ders": 6203,
      "dust": 6204,
      "dens": 6205,
      "divers": 6206,
      "dwell": 6207,
      "dina": 6208,
      "dna": 6209,
      "doll": 6210,
      "ea": 6211,
      "eb": 6212,
      "eg": 6213,
      "eis": 6214,
      "etr": 6215,
      "ether": 6216,
      "eile": 6217,
      "echo": 6218,
      "furn": 6219,
      "flee": 6220,
      "flot": 6221,
      "fuel": 6222,
      "floyd": 6223,
      "gp": 6224,
      "ghe": 6225,
      "gut": 6226,
      "gum": 6227,
      "gist": 6228,
      "gary": 6229,
      "gave": 6230,
      "gib": 6231,
      "gable": 6232,
      "gale": 6233,
      "gives": 6234,
      "hc": 6235,
      "hul": 6236,
      "hud": 6237,
      "hence": 6238,
      "hier": 6239,
      "hms": 6240,
      "iar": 6241,
      "iac": 6242,
      "ibe": 6243,
      "iest": 6244,
      "iber": 6245,
      "ike": 6246,
      "iata": 6247,
      "iya": 6248,
      "jk": 6249,
      "js": 6250,
      "jin": 6251,
      "jit": 6252,
      "jak": 6253,
      "jang": 6254,
      "jens": 6255,
      "jail": 6256,
      "jump": 6257,
      "km": 6258,
      "kre": 6259,
      "kle": 6260,
      "kne": 6261,
      "kish": 6262,
      "kod": 6263,
      "kom": 6264,
      "kok": 6265,
      "kick": 6266,
      "kyo": 6267,
      "khal": 6268,
      "kau": 6269,
      "kemp": 6270,
      "kru": 6271,
      "kurt": 6272,
      "kumar": 6273,
      "kresh": 6274,
      "lst": 6275,
      "lac": 6276,
      "lice": 6277,
      "luge": 6278,
      "mall": 6279,
      "mare": 6280,
      "mund": 6281,
      "mack": 6282,
      "mure": 6283,
      "mpt": 6284,
      "matt": 6285,
      "muk": 6286,
      "morgan": 6287,
      "mcle": 6288,
      "nx": 6289,
      "nap": 6290,
      "nity": 6291,
      "nade": 6292,
      "nix": 6293,
      "nase": 6294,
      "nbc": 6295,
      "oes": 6296,
      "obl": 6297,
      "overs": 6298,
      "ovan": 6299,
      "outer": 6300,
      "oples": 6301,
      "pc": 6302,
      "pd": 6303,
      "pis": 6304,
      "plo": 6305,
      "ppe": 6306,
      "pab": 6307,
      "pill": 6308,
      "phis": 6309,
      "pell": 6310,
      "pace": 6311,
      "pair": 6312,
      "pute": 6313,
      "pburn": 6314,
      "pads": 6315,
      "qat": 6316,
      "rer": 6317,
      "rent": 6318,
      "rus": 6319,
      "rim": 6320,
      "rum": 6321,
      "rish": 6322,
      "rary": 6323,
      "rif": 6324,
      "rine": 6325,
      "rend": 6326,
      "raw": 6327,
      "rach": 6328,
      "rition": 6329,
      "rivers": 6330,
      "rile": 6331,
      "ruc": 6332,
      "rides": 6333,
      "rington": 6334,
      "rival": 6335,
      "ravel": 6336,
      "rhin": 6337,
      "sic": 6338,
      "sul": 6339,
      "sire": 6340,
      "sack": 6341,
      "swe": 6342,
      "sson": 6343,
      "sier": 6344,
      "sville": 6345,
      "sample": 6346,
      "sava": 6347,
      "sizes": 6348,
      "sull": 6349,
      "tz": 6350,
      "tent": 6351,
      "tac": 6352,
      "tir": 6353,
      "tig": 6354,
      "tum": 6355,
      "tend": 6356,
      "tong": 6357,
      "tung": 6358,
      "tale": 6359,
      "tures": 6360,
      "tshire": 6361,
      "tuck": 6362,
      "tiger": 6363,
      "tiff": 6364,
      "uco": 6365,
      "upr": 6366,
      "upe": 6367,
      "uart": 6368,
      "ucture": 6369,
      "uvelle": 6370,
      "von": 6371,
      "vor": 6372,
      "vest": 6373,
      "vae": 6374,
      "vint": 6375,
      "vick": 6376,
      "vino": 6377,
      "vishn": 6378,
      "vista": 6379,
      "ww": 6380,
      "wre": 6381,
      "wser": 6382,
      "wine": 6383,
      "wang": 6384,
      "wives": 6385,
      "welf": 6386,
      "wicket": 6387,
      "waves": 6388,
      "xm": 6389,
      "xp": 6390,
      "yam": 6391,
      "yet": 6392,
      "yok": 6393,
      "yemen": 6394,
      "zach": 6395,
      "zomb": 6396,
      "tha": 6397,
      "throm": 6398,
      "thop": 6399,
      "inj": 6400,
      "inist": 6401,
      "inate": 6402,
      "inland": 6403,
      "incar": 6404,
      "anco": 6405,
      "anac": 6406,
      "ania": 6407,
      "anthem": 6408,
      "theid": 6409,
      "themed": 6410,
      "theft": 6411,
      "ert": 6412,
      "eries": 6413,
      "erie": 6414,
      "onas": 6415,
      "onward": 6416,
      "isto": 6417,
      "orb": 6418,
      "ori": 6419,
      "orle": 6420,
      "oria": 6421,
      "orph": 6422,
      "ortho": 6423,
      "oricon": 6424,
      "orthop": 6425,
      "eda": 6426,
      "ede": 6427,
      "eding": 6428,
      "edia": 6429,
      "edonian": 6430,
      "arc": 6431,
      "aration": 6432,
      "arid": 6433,
      "arity": 6434,
      "arches": 6435,
      "arbit": 6436,
      "arena": 6437,
      "arranger": 6438,
      "atis": 6439,
      "atom": 6440,
      "atra": 6441,
      "atric": 6442,
      "aly": 6443,
      "alter": 6444,
      "alum": 6445,
      "alber": 6446,
      "alumn": 6447,
      "enfor": 6448,
      "enne": 6449,
      "enport": 6450,
      "enos": 6451,
      "ennan": 6452,
      "enroll": 6453,
      "enthus": 6454,
      "enforced": 6455,
      "enthal": 6456,
      "encompass": 6457,
      "enjoy": 6458,
      "ennial": 6459,
      "escor": 6460,
      "escap": 6461,
      "asad": 6462,
      "aset": 6463,
      "asant": 6464,
      "asgow": 6465,
      "ando": 6466,
      "anders": 6467,
      "andrine": 6468,
      "itv": 6469,
      "itic": 6470,
      "itus": 6471,
      "item": 6472,
      "itos": 6473,
      "itors": 6474,
      "itob": 6475,
      "itimate": 6476,
      "itaine": 6477,
      "itinis": 6478,
      "icient": 6479,
      "rex": 6480,
      "rein": 6481,
      "rect": 6482,
      "rever": 6483,
      "reign": 6484,
      "reje": 6485,
      "replac": 6486,
      "replace": 6487,
      "reunion": 6488,
      "reaction": 6489,
      "remake": 6490,
      "rebell": 6491,
      "rejoined": 6492,
      "reissued": 6493,
      "reverse": 6494,
      "rebecca": 6495,
      "recip": 6496,
      "rot": 6497,
      "root": 6498,
      "rows": 6499,
      "rojava": 6500,
      "stic": 6501,
      "sters": 6502,
      "stab": 6503,
      "stere": 6504,
      "stals": 6505,
      "stuart": 6506,
      "ingle": 6507,
      "lem": 6508,
      "leone": 6509,
      "levi": 6510,
      "lechi": 6511,
      "leeds": 6512,
      "told": 6513,
      "todd": 6514,
      "tokyo": 6515,
      "cht": 6516,
      "ched": 6517,
      "chun": 6518,
      "chel": 6519,
      "chim": 6520,
      "chrom": 6521,
      "chant": 6522,
      "chass": 6523,
      "chev": 6524,
      "chago": 6525,
      "chitinis": 6526,
      "aman": 6527,
      "amino": 6528,
      "ameral": 6529,
      "iler": 6530,
      "ilit": 6531,
      "ille": 6532,
      "uno": 6533,
      "unte": 6534,
      "unable": 6535,
      "unlike": 6536,
      "cos": 6537,
      "coup": 6538,
      "cock": 6539,
      "coom": 6540,
      "coined": 6541,
      "cosmo": 6542,
      "elig": 6543,
      "elim": 6544,
      "urs": 6545,
      "ured": 6546,
      "urated": 6547,
      "urality": 6548,
      "admit": 6549,
      "administer": 6550,
      "admission": 6551,
      "usl": 6552,
      "acr": 6553,
      "acon": 6554,
      "accol": 6555,
      "accompan": 6556,
      "olle": 6557,
      "oliv": 6558,
      "olive": 6559,
      "dean": 6560,
      "deut": 6561,
      "deaf": 6562,
      "demon": 6563,
      "devil": 6564,
      "detro": 6565,
      "determ": 6566,
      "detained": 6567,
      "sets": 6568,
      "sevent": 6569,
      "ivas": 6570,
      "teries": 6571,
      "terra": 6572,
      "bye": 6573,
      "byz": 6574,
      "lying": 6575,
      "bear": 6576,
      "beers": 6577,
      "bever": 6578,
      "bett": 6579,
      "bears": 6580,
      "begins": 6581,
      "hee": 6582,
      "hew": 6583,
      "hein": 6584,
      "heir": 6585,
      "heath": 6586,
      "hepat": 6587,
      "heats": 6588,
      "hepburn": 6589,
      "igon": 6590,
      "uting": 6591,
      "utilities": 6592,
      "hole": 6593,
      "hous": 6594,
      "hosh": 6595,
      "housed": 6596,
      "hova": 6597,
      "homel": 6598,
      "homes": 6599,
      "lod": 6600,
      "log": 6601,
      "lop": 6602,
      "loth": 6603,
      "loop": 6604,
      "loud": 6605,
      "loved": 6606,
      "trap": 6607,
      "tria": 6608,
      "trich": 6609,
      "tried": 6610,
      "tribut": 6611,
      "tradem": 6612,
      "tracy": 6613,
      "emed": 6614,
      "emes": 6615,
      "emper": 6616,
      "empress": 6617,
      "ayan": 6618,
      "som": 6619,
      "soap": 6620,
      "somal": 6621,
      "complic": 6622,
      "commod": 6623,
      "idian": 6624,
      "pride": 6625,
      "agents": 6626,
      "uls": 6627,
      "ulated": 6628,
      "ulpt": 6629,
      "ulidae": 6630,
      "conan": 6631,
      "conserved": 6632,
      "context": 6633,
      "conspir": 6634,
      "console": 6635,
      "connell": 6636,
      "peer": 6637,
      "pete": 6638,
      "pected": 6639,
      "petra": 6640,
      "pearl": 6641,
      "peoples": 6642,
      "ima": 6643,
      "impro": 6644,
      "imper": 6645,
      "imits": 6646,
      "iments": 6647,
      "imba": 6648,
      "immigr": 6649,
      "nomine": 6650,
      "noctu": 6651,
      "nouvelle": 6652,
      "wirel": 6653,
      "plas": 6654,
      "plum": 6655,
      "plate": 6656,
      "plaza": 6657,
      "plurality": 6658,
      "cebu": 6659,
      "cecil": 6660,
      "protest": 6661,
      "neo": 6662,
      "neil": 6663,
      "ablan": 6664,
      "abdul": 6665,
      "abbott": 6666,
      "estor": 6667,
      "estro": 6668,
      "estion": 6669,
      "teeth": 6670,
      "tevere": 6671,
      "romag": 6672,
      "arta": 6673,
      "why": 6674,
      "allies": 6675,
      "allica": 6676,
      "mour": 6677,
      "mode": 6678,
      "moist": 6679,
      "mound": 6680,
      "mott": 6681,
      "moham": 6682,
      "modif": 6683,
      "apopto": 6684,
      "verty": 6685,
      "iants": 6686,
      "opa": 6687,
      "opport": 6688,
      "opens": 6689,
      "opposed": 6690,
      "opati": 6691,
      "suf": 6692,
      "suite": 6693,
      "etic": 6694,
      "etical": 6695,
      "etime": 6696,
      "ishment": 6697,
      "clim": 6698,
      "clip": 6699,
      "cline": 6700,
      "clara": 6701,
      "clays": 6702,
      "client": 6703,
      "clips": 6704,
      "claus": 6705,
      "boast": 6706,
      "bount": 6707,
      "boom": 6708,
      "bots": 6709,
      "bomb": 6710,
      "boats": 6711,
      "boss": 6712,
      "bobs": 6713,
      "bodia": 6714,
      "boiler": 6715,
      "avia": 6716,
      "avoid": 6717,
      "brat": 6718,
      "brah": 6719,
      "brush": 6720,
      "fod": 6721,
      "foster": 6722,
      "mann": 6723,
      "manitob": 6724,
      "shu": 6725,
      "shar": 6726,
      "shif": 6727,
      "shaw": 6728,
      "shuf": 6729,
      "shaft": 6730,
      "shrew": 6731,
      "shares": 6732,
      "shannon": 6733,
      "poe": 6734,
      "poker": 6735,
      "poison": 6736,
      "poverty": 6737,
      "illawar": 6738,
      "therine": 6739,
      "quat": 6740,
      "quit": 6741,
      "quel": 6742,
      "quay": 6743,
      "quite": 6744,
      "quake": 6745,
      "ichth": 6746,
      "iot": 6747,
      "iolet": 6748,
      "uder": 6749,
      "sery": 6750,
      "serious": 6751,
      "serpent": 6752,
      "geon": 6753,
      "geoff": 6754,
      "geos": 6755,
      "geological": 6756,
      "geologic": 6757,
      "gelechi": 6758,
      "afa": 6759,
      "affir": 6760,
      "afraid": 6761,
      "grac": 6762,
      "grain": 6763,
      "ifa": 6764,
      "ifer": 6765,
      "ustic": 6766,
      "inder": 6767,
      "indic": 6768,
      "indies": 6769,
      "indigen": 6770,
      "aston": 6771,
      "formally": 6772,
      "formats": 6773,
      "mez": 6774,
      "meets": 6775,
      "ups": 6776,
      "upcoming": 6777,
      "acton": 6778,
      "actual": 6779,
      "cience": 6780,
      "porter": 6781,
      "porno": 6782,
      "portra": 6783,
      "hispanic": 6784,
      "uban": 6785,
      "onect": 6786,
      "cora": 6787,
      "corros": 6788,
      "correct": 6789,
      "mention": 6790,
      "exit": 6791,
      "extra": 6792,
      "explain": 6793,
      "examin": 6794,
      "excav": 6795,
      "crater": 6796,
      "cramb": 6797,
      "partly": 6798,
      "erected": 6799,
      "endum": 6800,
      "endant": 6801,
      "perfe": 6802,
      "performs": 6803,
      "performing": 6804,
      "playstation": 6805,
      "landon": 6806,
      "landing": 6807,
      "oti": 6808,
      "otic": 6809,
      "doz": 6810,
      "dose": 6811,
      "dove": 6812,
      "doyle": 6813,
      "commenced": 6814,
      "phd": 6815,
      "phs": 6816,
      "phish": 6817,
      "filed": 6818,
      "ieth": 6819,
      "ieval": 6820,
      "disput": 6821,
      "disbanded": 6822,
      "dispute": 6823,
      "mari": 6824,
      "mares": 6825,
      "margin": 6826,
      "marri": 6827,
      "marilyn": 6828,
      "assic": 6829,
      "assigned": 6830,
      "fires": 6831,
      "elli": 6832,
      "ellidae": 6833,
      "awada": 6834,
      "achi": 6835,
      "izer": 6836,
      "dual": 6837,
      "duck": 6838,
      "complet": 6839,
      "collar": 6840,
      "ckoo": 6841,
      "ports": 6842,
      "portions": 6843,
      "portugu": 6844,
      "filming": 6845,
      "fee": 6846,
      "feel": 6847,
      "mins": 6848,
      "minton": 6849,
      "minster": 6850,
      "minutes": 6851,
      "spy": 6852,
      "spur": 6853,
      "spans": 6854,
      "spiro": 6855,
      "spider": 6856,
      "goog": 6857,
      "goss": 6858,
      "gods": 6859,
      "gothic": 6860,
      "gomez": 6861,
      "engers": 6862,
      "jos": 6863,
      "join": 6864,
      "jour": 6865,
      "josh": 6866,
      "johann": 6867,
      "schemes": 6868,
      "dral": 6869,
      "drain": 6870,
      "resort": 6871,
      "resides": 6872,
      "rescu": 6873,
      "resigned": 6874,
      "interior": 6875,
      "interaction": 6876,
      "intersection": 6877,
      "centers": 6878,
      "norton": 6879,
      "norwood": 6880,
      "balls": 6881,
      "parade": 6882,
      "parking": 6883,
      "parrot": 6884,
      "weather": 6885,
      "ughan": 6886,
      "aceous": 6887,
      "mail": 6888,
      "ideology": 6889,
      "presum": 6890,
      "specification": 6891,
      "ods": 6892,
      "oder": 6893,
      "odisha": 6894,
      "oming": 6895,
      "omba": 6896,
      "veland": 6897,
      "rai": 6898,
      "rao": 6899,
      "raise": 6900,
      "raised": 6901,
      "locally": 6902,
      "okes": 6903,
      "okee": 6904,
      "symp": 6905,
      "syrac": 6906,
      "knock": 6907,
      "enses": 6908,
      "ensus": 6909,
      "contact": 6910,
      "contents": 6911,
      "heral": 6912,
      "herder": 6913,
      "regulation": 6914,
      "registration": 6915,
      "olden": 6916,
      "carib": 6917,
      "keel": 6918,
      "kevin": 6919,
      "offs": 6920,
      "offensive": 6921,
      "offshore": 6922,
      "shipbuilding": 6923,
      "evil": 6924,
      "cream": 6925,
      "crews": 6926,
      "notion": 6927,
      "notting": 6928,
      "produces": 6929,
      "producers": 6930,
      "poll": 6931,
      "polis": 6932,
      "poland": 6933,
      "polish": 6934,
      "lesotho": 6935,
      "ogly": 6936,
      "sheath": 6937,
      "iversary": 6938,
      "browser": 6939,
      "buff": 6940,
      "buzz": 6941,
      "buenos": 6942,
      "lds": 6943,
      "singing": 6944,
      "designation": 6945,
      "muslim": 6946,
      "muscle": 6947,
      "tons": 6948,
      "caes": 6949,
      "catherine": 6950,
      "mediter": 6951,
      "medieval": 6952,
      "worlds": 6953,
      "anniversary": 6954,
      "strat": 6955,
      "stress": 6956,
      "strate": 6957,
      "workshop": 6958,
      "recordings": 6959,
      "monit": 6960,
      "montre": 6961,
      "southampton": 6962,
      "epic": 6963,
      "shops": 6964,
      "woomba": 6965,
      "understand": 6966,
      "understood": 6967,
      "derived": 6968,
      "derives": 6969,
      "derabad": 6970,
      "atta": 6971,
      "attain": 6972,
      "gano": 6973,
      "overseeing": 6974,
      "germain": 6975,
      "larvae": 6976,
      "counter": 6977,
      "counsel": 6978,
      "blair": 6979,
      "blaz": 6980,
      "blessed": 6981,
      "sonian": 6982,
      "cester": 6983,
      "colleague": 6984,
      "collector": 6985,
      "barn": 6986,
      "barr": 6987,
      "baron": 6988,
      "barber": 6989,
      "barrel": 6990,
      "barker": 6991,
      "barbad": 6992,
      "barrett": 6993,
      "finned": 6994,
      "license": 6995,
      "subscript": 6996,
      "charges": 6997,
      "charlot": 6998,
      "consensus": 6999,
      "cyprin": 7000,
      "tsman": 7001,
      "warm": 7002,
      "warning": 7003,
      "warren": 7004,
      "tyne": 7005,
      "profile": 7006,
      "fiber": 7007,
      "dont": 7008,
      "donated": 7009,
      "guer": 7010,
      "guid": 7011,
      "relative": 7012,
      "presenter": 7013,
      "merger": 7014,
      "highly": 7015,
      "highlight": 7016,
      "transformed": 7017,
      "transaction": 7018,
      "tted": 7019,
      "generated": 7020,
      "hark": 7021,
      "harbor": 7022,
      "harcourt": 7023,
      "harlan": 7024,
      "roscoe": 7025,
      "operates": 7026,
      "operator": 7027,
      "telegraph": 7028,
      "telecommunication": 7029,
      "laura": 7030,
      "wonder": 7031,
      "mike": 7032,
      "juno": 7033,
      "jane": 7034,
      "appeals": 7035,
      "northwestern": 7036,
      "your": 7037,
      "casting": 7038,
      "rada": 7039,
      "radi": 7040,
      "rador": 7041,
      "radar": 7042,
      "radiation": 7043,
      "westphal": 7044,
      "westminster": 7045,
      "labrador": 7046,
      "armored": 7047,
      "retre": 7048,
      "johnny": 7049,
      "atures": 7050,
      "fielded": 7051,
      "fielding": 7052,
      "developers": 7053,
      "sims": 7054,
      "rocket": 7055,
      "headed": 7056,
      "seconds": 7057,
      "supposed": 7058,
      "supplied": 7059,
      "markup": 7060,
      "delayed": 7061,
      "ahua": 7062,
      "nova": 7063,
      "matter": 7064,
      "matical": 7065,
      "mature": 7066,
      "matters": 7067,
      "metallica": 7068,
      "volta": 7069,
      "voluntary": 7070,
      "volunte": 7071,
      "surve": 7072,
      "titans": 7073,
      "legitimate": 7074,
      "belo": 7075,
      "belief": 7076,
      "belcher": 7077,
      "calls": 7078,
      "calling": 7079,
      "variant": 7080,
      "variants": 7081,
      "caps": 7082,
      "hama": 7083,
      "hamlets": 7084,
      "scout": 7085,
      "ska": 7086,
      "skins": 7087,
      "steph": 7088,
      "steep": 7089,
      "menis": 7090,
      "closure": 7091,
      "runner": 7092,
      "runners": 7093,
      "swan": 7094,
      "swaz": 7095,
      "tape": 7096,
      "hya": 7097,
      "hyderabad": 7098,
      "vibr": 7099,
      "vienna": 7100,
      "basin": 7101,
      "brewing": 7102,
      "breathing": 7103,
      "casablan": 7104,
      "courses": 7105,
      "parker": 7106,
      "showed": 7107,
      "mascot": 7108,
      "naples": 7109,
      "naissance": 7110,
      "walter": 7111,
      "walking": 7112,
      "severe": 7113,
      "placilla": 7114,
      "solar": 7115,
      "solution": 7116,
      "solutions": 7117,
      "valle": 7118,
      "halton": 7119,
      "aux": 7120,
      "missile": 7121,
      "reception": 7122,
      "myr": 7123,
      "myce": 7124,
      "midwest": 7125,
      "objects": 7126,
      "restigo": 7127,
      "virus": 7128,
      "technique": 7129,
      "pati": 7130,
      "patent": 7131,
      "ussie": 7132,
      "woodland": 7133,
      "winchester": 7134,
      "motel": 7135,
      "motive": 7136,
      "motors": 7137,
      "baltimore": 7138,
      "bennett": 7139,
      "denomin": 7140,
      "holl": 7141,
      "sculpt": 7142,
      "tourists": 7143,
      "tourism": 7144,
      "authors": 7145,
      "protective": 7146,
      "protecting": 7147,
      "affair": 7148,
      "supports": 7149,
      "humor": 7150,
      "nights": 7151,
      "santo": 7152,
      "sanitation": 7153,
      "supervis": 7154,
      "supernatural": 7155,
      "supercars": 7156,
      "baxter": 7157,
      "nesian": 7158,
      "nesday": 7159,
      "palest": 7160,
      "extant": 7161,
      "extending": 7162,
      "handed": 7163,
      "handle": 7164,
      "rounds": 7165,
      "define": 7166,
      "defensive": 7167,
      "defendant": 7168,
      "corporate": 7169,
      "cultures": 7170,
      "garner": 7171,
      "holders": 7172,
      "microm": 7173,
      "voter": 7174,
      "voters": 7175,
      "banan": 7176,
      "banking": 7177,
      "cuckoo": 7178,
      "davis": 7179,
      "davenport": 7180,
      "helen": 7181,
      "victims": 7182,
      "pressive": 7183,
      "cleveland": 7184,
      "lifts": 7185,
      "lifting": 7186,
      "magnetic": 7187,
      "connect": 7188,
      "connections": 7189,
      "racial": 7190,
      "refle": 7191,
      "posts": 7192,
      "quartet": 7193,
      "quarantine": 7194,
      "engineer": 7195,
      "businesses": 7196,
      "gaon": 7197,
      "rising": 7198,
      "onymous": 7199,
      "ashtra": 7200,
      "ashiki": 7201,
      "contained": 7202,
      "successor": 7203,
      "bloom": 7204,
      "sequences": 7205,
      "webster": 7206,
      "kenneth": 7207,
      "lights": 7208,
      "uff": 7209,
      "uche": 7210,
      "storm": 7211,
      "aimed": 7212,
      "bihar": 7213,
      "biplane": 7214,
      "trees": 7215,
      "distributes": 7216,
      "councilor": 7217,
      "similarly": 7218,
      "similarities": 7219,
      "competitions": 7220,
      "faith": 7221,
      "faces": 7222,
      "glasgow": 7223,
      "passes": 7224,
      "passengers": 7225,
      "troub": 7226,
      "troops": 7227,
      "referenced": 7228,
      "referendum": 7229,
      "syncline": 7230,
      "socialist": 7231,
      "popularized": 7232,
      "cumberland": 7233,
      "federations": 7234,
      "panne": 7235,
      "panthers": 7236,
      "panhandle": 7237,
      "springs": 7238,
      "choose": 7239,
      "premiere": 7240,
      "personnel": 7241,
      "odeon": 7242,
      "sounds": 7243,
      "soundtrack": 7244,
      "actively": 7245,
      "commercially": 7246,
      "graduates": 7247,
      "globe": 7248,
      "turtle": 7249,
      "wilkin": 7250,
      "wiltshire": 7251,
      "window": 7252,
      "windsor": 7253,
      "practical": 7254,
      "practiced": 7255,
      "grandfather": 7256,
      "experiments": 7257,
      "diameter": 7258,
      "freeman": 7259,
      "functions": 7260,
      "ruling": 7261,
      "statue": 7262,
      "statements": 7263,
      "coastline": 7264,
      "acyl": 7265,
      "hopper": 7266,
      "keyboard": 7267,
      "camero": 7268,
      "cambodia": 7269,
      "ethics": 7270,
      "lucy": 7271,
      "latest": 7272,
      "latifol": 7273,
      "murphy": 7274,
      "muricidae": 7275,
      "ancestor": 7276,
      "cherokee": 7277,
      "louise": 7278,
      "privately": 7279,
      "applicants": 7280,
      "damian": 7281,
      "jaco": 7282,
      "jacob": 7283,
      "involving": 7284,
      "orders": 7285,
      "moderate": 7286,
      "greenberg": 7287,
      "distinct": 7288,
      "henley": 7289,
      "macro": 7290,
      "ensemb": 7291,
      "devoted": 7292,
      "lottery": 7293,
      "trading": 7294,
      "individually": 7295,
      "monthly": 7296,
      "additionally": 7297,
      "launching": 7298,
      "slides": 7299,
      "animated": 7300,
      "separation": 7301,
      "columns": 7302,
      "viewed": 7303,
      "prisoner": 7304,
      "democracy": 7305,
      "everybody": 7306,
      "samples": 7307,
      "soldier": 7308,
      "anthak": 7309,
      "expans": 7310,
      "autono": 7311,
      "binary": 7312,
      "catch": 7313,
      "funded": 7314,
      "lancash": 7315,
      "ladies": 7316,
      "madagas": 7317,
      "martial": 7318,
      "martyr": 7319,
      "ariidae": 7320,
      "publisher": 7321,
      "publishers": 7322,
      "consider": 7323,
      "significance": 7324,
      "bulk": 7325,
      "float": 7326,
      "floating": 7327,
      "spot": 7328,
      "scorer": 7329,
      "scores": 7330,
      "scoring": 7331,
      "width": 7332,
      "thorough": 7333,
      "trained": 7334,
      "focusing": 7335,
      "commanding": 7336,
      "certification": 7337,
      "weekend": 7338,
      "describes": 7339,
      "axis": 7340,
      "finds": 7341,
      "killer": 7342,
      "painter": 7343,
      "painting": 7344,
      "sells": 7345,
      "compounds": 7346,
      "plains": 7347,
      "plaintiff": 7348,
      "romania": 7349,
      "consistently": 7350,
      "streams": 7351,
      "scientists": 7352,
      "successfully": 7353,
      "screened": 7354,
      "screenplay": 7355,
      "screenwriter": 7356,
      "farmer": 7357,
      "sids": 7358,
      "saba": 7359,
      "cognitive": 7360,
      "settlement": 7361,
      "prints": 7362,
      "existed": 7363,
      "existing": 7364,
      "existence": 7365,
      "frederic": 7366,
      "frederick": 7367,
      "maintains": 7368,
      "employee": 7369,
      "significantly": 7370,
      "economy": 7371,
      "biggest": 7372,
      "ranges": 7373,
      "turning": 7374,
      "chihu": 7375,
      "mobility": 7376,
      "crystals": 7377,
      "responses": 7378,
      "audio": 7379,
      "audition": 7380,
      "audience": 7381,
      "bolton": 7382,
      "dundee": 7383,
      "gentle": 7384,
      "pink": 7385,
      "instant": 7386,
      "agonist": 7387,
      "residue": 7388,
      "residence": 7389,
      "mastered": 7390,
      "louisiana": 7391,
      "cardiff": 7392,
      "farmhouse": 7393,
      "hawk": 7394,
      "recognizes": 7395,
      "stanford": 7396,
      "defeat": 7397,
      "defects": 7398,
      "comprise": 7399,
      "teaches": 7400,
      "catholics": 7401,
      "contribution": 7402,
      "traditionally": 7403,
      "fleet": 7404,
      "giants": 7405,
      "gregation": 7406,
      "gregory": 7407,
      "hurst": 7408,
      "layers": 7409,
      "layout": 7410,
      "pilots": 7411,
      "wyoming": 7412,
      "attracts": 7413,
      "entirely": 7414,
      "brazi": 7415,
      "automotive": 7416,
      "categories": 7417,
      "diego": 7418,
      "hardware": 7419,
      "hardcore": 7420,
      "nucle": 7421,
      "payne": 7422,
      "astructure": 7423,
      "triassic": 7424,
      "petals": 7425,
      "affiliate": 7426,
      "grassland": 7427,
      "twentieth": 7428,
      "bordered": 7429,
      "rajput": 7430,
      "electorate": 7431,
      "athletics": 7432,
      "chronic": 7433,
      "breeding": 7434,
      "breeders": 7435,
      "situation": 7436,
      "situations": 7437,
      "photographer": 7438,
      "bhatt": 7439,
      "gibral": 7440,
      "maps": 7441,
      "machines": 7442,
      "oxford": 7443,
      "oxygen": 7444,
      "piet": 7445,
      "waters": 7446,
      "wartime": 7447,
      "increasing": 7448,
      "stops": 7449,
      "stopping": 7450,
      "locking": 7451,
      "lockwood": 7452,
      "occasions": 7453,
      "regarding": 7454,
      "archeology": 7455,
      "visiting": 7456,
      "electronic": 7457,
      "squads": 7458,
      "documentary": 7459,
      "documentaries": 7460,
      "aquatics": 7461,
      "aquitaine": 7462,
      "dalkin": 7463,
      "gardens": 7464,
      "gardner": 7465,
      "hatcher": 7466,
      "sphing": 7467,
      "sensor": 7468,
      "sensors": 7469,
      "tune": 7470,
      "zza": 7471,
      "defined": 7472,
      "definition": 7473,
      "config": 7474,
      "suffered": 7475,
      "attacks": 7476,
      "attacked": 7477,
      "guests": 7478,
      "equipped": 7479,
      "dioceses": 7480,
      "celebrity": 7481,
      "burns": 7482,
      "fastest": 7483,
      "ginger": 7484,
      "nasa": 7485,
      "nutrition": 7486,
      "pulse": 7487,
      "styl": 7488,
      "toowoomba": 7489,
      "adopting": 7490,
      "declaration": 7491,
      "concern": 7492,
      "concerning": 7493,
      "vertical": 7494,
      "bounded": 7495,
      "antonio": 7496,
      "cartoons": 7497,
      "downloads": 7498,
      "jacksonville": 7499,
      "installed": 7500,
      "installment": 7501,
      "installations": 7502,
      "factory": 7503,
      "factors": 7504,
      "onomic": 7505,
      "reasons": 7506,
      "reasonable": 7507,
      "tommy": 7508,
      "cotton": 7509,
      "beauty": 7510,
      "traveling": 7511,
      "princeton": 7512,
      "promotional": 7513,
      "grammy": 7514,
      "expression": 7515,
      "vehicles": 7516,
      "believe": 7517,
      "criticism": 7518,
      "revolutionary": 7519,
      "cuban": 7520,
      "duluth": 7521,
      "happen": 7522,
      "korea": 7523,
      "varying": 7524,
      "voted": 7525,
      "votes": 7526,
      "voting": 7527,
      "witt": 7528,
      "wolver": 7529,
      "steps": 7530,
      "coleman": 7531,
      "urbation": 7532,
      "adviser": 7533,
      "advocated": 7534,
      "compliance": 7535,
      "probation": 7536,
      "neuros": 7537,
      "geographic": 7538,
      "affected": 7539,
      "mechanics": 7540,
      "doctorate": 7541,
      "fragment": 7542,
      "fragments": 7543,
      "electromag": 7544,
      "policies": 7545,
      "deserts": 7546,
      "attendance": 7547,
      "attempted": 7548,
      "provinces": 7549,
      "provisions": 7550,
      "consulting": 7551,
      "consultant": 7552,
      "harvest": 7553,
      "requesting": 7554,
      "requirements": 7555,
      "saxoph": 7556,
      "synthetic": 7557,
      "initiative": 7558,
      "potentially": 7559,
      "destroyer": 7560,
      "destroying": 7561,
      "instrumental": 7562,
      "banner": 7563,
      "eagle": 7564,
      "falcon": 7565,
      "finger": 7566,
      "fingers": 7567,
      "filled": 7568,
      "fillies": 7569,
      "fairly": 7570,
      "gilbert": 7571,
      "hartford": 7572,
      "julian": 7573,
      "mutual": 7574,
      "message": 7575,
      "tiny": 7576,
      "vascular": 7577,
      "zambales": 7578,
      "encouraged": 7579,
      "advance": 7580,
      "advantage": 7581,
      "tribes": 7582,
      "princess": 7583,
      "conquest": 7584,
      "umbent": 7585,
      "umbrel": 7586,
      "cluster": 7587,
      "excellent": 7588,
      "northeast": 7589,
      "regulations": 7590,
      "striking": 7591,
      "populated": 7592,
      "hydrogen": 7593,
      "hydroelectric": 7594,
      "patterns": 7595,
      "clearly": 7596,
      "rapidly": 7597,
      "achievement": 7598,
      "random": 7599,
      "riaa": 7600,
      "saga": 7601,
      "sagit": 7602,
      "inaugurated": 7603,
      "instructor": 7604,
      "andrews": 7605,
      "elongated": 7606,
      "determining": 7607,
      "secution": 7608,
      "commentator": 7609,
      "improvement": 7610,
      "apparently": 7611,
      "graeme": 7612,
      "megach": 7613,
      "permits": 7614,
      "framework": 7615,
      "maurice": 7616,
      "maharashtra": 7617,
      "heroes": 7618,
      "veteran": 7619,
      "veterans": 7620,
      "objectives": 7621,
      "bulls": 7622,
      "favorite": 7623,
      "favorable": 7624,
      "agriculture": 7625,
      "biblio": 7626,
      "dollar": 7627,
      "euphor": 7628,
      "frost": 7629,
      "nursery": 7630,
      "vulner": 7631,
      "wednesday": 7632,
      "repeated": 7633,
      "roughly": 7634,
      "lexington": 7635,
      "towards": 7636,
      "adaptations": 7637,
      "combined": 7638,
      "praised": 7639,
      "imaging": 7640,
      "propag": 7641,
      "brunei": 7642,
      "pharmacy": 7643,
      "assessments": 7644,
      "spawned": 7645,
      "drinks": 7646,
      "inclusive": 7647,
      "curtis": 7648,
      "evolved": 7649,
      "guild": 7650,
      "backgrounds": 7651,
      "closest": 7652,
      "closely": 7653,
      "cultivation": 7654,
      "columnist": 7655,
      "consolidated": 7656,
      "locomotives": 7657,
      "austin": 7658,
      "bureau": 7659,
      "ecological": 7660,
      "felt": 7661,
      "glyco": 7662,
      "herself": 7663,
      "jaws": 7664,
      "nolimits": 7665,
      "renew": 7666,
      "wrong": 7667,
      "innovation": 7668,
      "injured": 7669,
      "theatrical": 7670,
      "isolated": 7671,
      "oriented": 7672,
      "arrived": 7673,
      "arrested": 7674,
      "unusual": 7675,
      "adapted": 7676,
      "debate": 7677,
      "combination": 7678,
      "procedure": 7679,
      "proposal": 7680,
      "negative": 7681,
      "absorption": 7682,
      "apuram": 7683,
      "bruce": 7684,
      "meadows": 7685,
      "corruption": 7686,
      "exclusively": 7687,
      "fraternal": 7688,
      "respectively": 7689,
      "substant": 7690,
      "namibia": 7691,
      "ukrainian": 7692,
      "depicts": 7693,
      "vijayawada": 7694,
      "valuable": 7695,
      "restoration": 7696,
      "purposely": 7697,
      "scenario": 7698,
      "scandal": 7699,
      "voyage": 7700,
      "institutionalized": 7701,
      "scripting": 7702,
      "bacteria": 7703,
      "paralympics": 7704,
      "threatened": 7705,
      "diagnosed": 7706,
      "dataset": 7707,
      "fabric": 7708,
      "folded": 7709,
      "haryana": 7710,
      "jessica": 7711,
      "kabul": 7712,
      "mhz": 7713,
      "nichol": 7714,
      "rhode": 7715,
      "ranean": 7716,
      "infrastructure": 7717,
      "theoretical": 7718,
      "argued": 7719,
      "alaska": 7720,
      "reconnaissance": 7721,
      "revealed": 7722,
      "reputation": 7723,
      "lebanon": 7724,
      "touchdowns": 7725,
      "chicken": 7726,
      "sevens": 7727,
      "empowerment": 7728,
      "peanut": 7729,
      "moscow": 7730,
      "apartheid": 7731,
      "sustainable": 7732,
      "brabham": 7733,
      "shuttle": 7734,
      "coronation": 7735,
      "expectations": 7736,
      "landmarks": 7737,
      "margaret": 7738,
      "friedrich": 7739,
      "scholars": 7740,
      "presbyterian": 7741,
      "carriers": 7742,
      "cathedral": 7743,
      "derivatives": 7744,
      "attorney": 7745,
      "inscriptions": 7746,
      "tajik": 7747,
      "scattering": 7748,
      "assemblies": 7749,
      "horizontal": 7750,
      "tortricidae": 7751,
      "invasive": 7752,
      "turbine": 7753,
      "experimental": 7754,
      "macleish": 7755,
      "suspicion": 7756,
      "pittsburgh": 7757,
      "analyst": 7758,
      "attributed": 7759,
      "philosophers": 7760,
      "jurisdiction": 7761,
      "cavalry": 7762,
      "accelerated": 7763,
      "venezuelan": 7764,
      "auburn": 7765,
      "density": 7766,
      "dinajpur": 7767,
      "flotilla": 7768,
      "ghetto": 7769,
      "hulme": 7770,
      "hudson": 7771,
      "lstm": 7772,
      "murex": 7773,
      "pablo": 7774,
      "qatar": 7775,
      "sicily": 7776,
      "sierra": 7777,
      "sullivan": 7778,
      "upright": 7779,
      "welfare": 7780,
      "orleans": 7781,
      "orthodox": 7782,
      "arbitrary": 7783,
      "alumnus": 7784,
      "enforcement": 7785,
      "enthusiast": 7786,
      "enjoyed": 7787,
      "rebellion": 7788,
      "chassis": 7789,
      "chagoury": 7790,
      "chitinispir": 7791,
      "couple": 7792,
      "coombs": 7793,
      "cosmopter": 7794,
      "eligible": 7795,
      "admitted": 7796,
      "accompanied": 7797,
      "detroit": 7798,
      "determine": 7799,
      "hepatitis": 7800,
      "homeland": 7801,
      "tributary": 7802,
      "emperor": 7803,
      "conspiracy": 7804,
      "improve": 7805,
      "nominee": 7806,
      "wireless": 7807,
      "modified": 7808,
      "apoptosis": 7809,
      "opatija": 7810,
      "boasts": 7811,
      "bounty": 7812,
      "manitoba": 7813,
      "shuffle": 7814,
      "illawarra": 7815,
      "gelechiidae": 7816,
      "indigenous": 7817,
      "portrait": 7818,
      "crambidae": 7819,
      "perfect": 7820,
      "portuguese": 7821,
      "syracuse": 7822,
      "caribbean": 7823,
      "nottingham": 7824,
      "buffalo": 7825,
      "mediterranean": 7826,
      "charlotte": 7827,
      "casablanca": 7828,
      "restigouche": 7829,
      "wilkinson": 7830,
      "latifolium": 7831,
      "autonomous": 7832,
      "lancashire": 7833,
      "madagascar": 7834,
      "chihuahua": 7835,
      "gibraltar": 7836,
      "aan": 7837,
      "athe": 7838,
      "aes": 7839,
      "aig": 7840,
      "aire": 7841,
      "ahar": 7842,
      "ahead": 7843,
      "aii": 7844,
      "aussie": 7845,
      "bhe": 7846,
      "bim": 7847,
      "bart": 7848,
      "bav": 7849,
      "bess": 7850,
      "bant": 7851,
      "bend": 7852,
      "biz": 7853,
      "bloc": 7854,
      "bold": 7855,
      "bidae": 7856,
      "bath": 7857,
      "bik": 7858,
      "bons": 7859,
      "bung": 7860,
      "bah": 7861,
      "bival": 7862,
      "bility": 7863,
      "biod": 7864,
      "bhai": 7865,
      "bunting": 7866,
      "cc": 7867,
      "cj": 7868,
      "cp": 7869,
      "cz": 7870,
      "cbe": 7871,
      "cno": 7872,
      "cian": 7873,
      "cant": 7874,
      "cary": 7875,
      "cair": 7876,
      "cence": 7877,
      "ccy": 7878,
      "cake": 7879,
      "cuc": 7880,
      "croy": 7881,
      "cze": 7882,
      "cards": 7883,
      "cado": 7884,
      "cbs": 7885,
      "cements": 7886,
      "cpu": 7887,
      "carton": 7888,
      "cafa": 7889,
      "dion": 7890,
      "dag": 7891,
      "dare": 7892,
      "dian": 7893,
      "dess": 7894,
      "dud": 7895,
      "dup": 7896,
      "dact": 7897,
      "dere": 7898,
      "dland": 7899,
      "dong": 7900,
      "dang": 7901,
      "dict": 7902,
      "dden": 7903,
      "dago": 7904,
      "distan": 7905,
      "dns": 7906,
      "dhai": 7907,
      "duration": 7908,
      "dwayne": 7909,
      "eh": 7910,
      "eo": 7911,
      "ein": 7912,
      "eer": 7913,
      "eco": 7914,
      "eel": 7915,
      "ebr": 7916,
      "eug": 7917,
      "epar": 7918,
      "eoc": 7919,
      "ecess": 7920,
      "eben": 7921,
      "ecu": 7922,
      "ecore": 7923,
      "eclip": 7924,
      "fx": 7925,
      "fy": 7926,
      "fon": 7927,
      "fat": 7928,
      "fas": 7929,
      "fare": 7930,
      "fass": 7931,
      "fans": 7932,
      "fles": 7933,
      "fatt": 7934,
      "ffre": 7935,
      "fitz": 7936,
      "faster": 7937,
      "fanny": 7938,
      "failing": 7939,
      "gad": 7940,
      "gus": 7941,
      "gies": 7942,
      "gap": 7943,
      "gio": 7944,
      "gud": 7945,
      "gust": 7946,
      "gma": 7947,
      "gson": 7948,
      "gently": 7949,
      "gions": 7950,
      "gular": 7951,
      "gork": 7952,
      "gah": 7953,
      "gmy": 7954,
      "gaff": 7955,
      "glos": 7956,
      "gps": 7957,
      "gender": 7958,
      "gwy": 7959,
      "gument": 7960,
      "gastr": 7961,
      "guru": 7962,
      "hd": 7963,
      "hs": 7964,
      "hes": 7965,
      "hof": 7966,
      "hiv": 7967,
      "hid": 7968,
      "hup": 7969,
      "hell": 7970,
      "hae": 7971,
      "hance": 7972,
      "hatt": 7973,
      "hors": 7974,
      "hale": 7975,
      "hsil": 7976,
      "hwa": 7977,
      "hires": 7978,
      "hull": 7979,
      "hagen": 7980,
      "hunger": 7981,
      "iol": 7982,
      "iere": 7983,
      "ibranch": 7984,
      "iators": 7985,
      "jc": 7986,
      "jed": 7987,
      "jas": 7988,
      "jand": 7989,
      "jad": 7990,
      "jet": 7991,
      "jub": 7992,
      "jars": 7993,
      "jaffe": 7994,
      "jinn": 7995,
      "jhank": 7996,
      "jesty": 7997,
      "jhark": 7998,
      "kl": 7999,
      "kx": 8000,
      "kiv": 8001,
      "kay": 8002,
      "kies": 8003,
      "kud": 8004,
      "kits": 8005,
      "kell": 8006,
      "kra": 8007,
      "katt": 8008,
      "kail": 8009,
      "kuk": 8010,
      "kines": 8011,
      "kier": 8012,
      "kont": 8013,
      "knes": 8014,
      "kash": 8015,
      "kota": 8016,
      "kara": 8017,
      "lc": 8018,
      "lg": 8019,
      "lt": 8020,
      "lion": 8021,
      "lut": 8022,
      "lers": 8023,
      "lich": 8024,
      "laf": 8025,
      "lust": 8026,
      "lone": 8027,
      "liz": 8028,
      "lens": 8029,
      "lans": 8030,
      "laz": 8031,
      "lmay": 8032,
      "lific": 8033,
      "lene": 8034,
      "lighter": 8035,
      "md": 8036,
      "mt": 8037,
      "mum": 8038,
      "mab": 8039,
      "mber": 8040,
      "mcl": 8041,
      "mbr": 8042,
      "mong": 8043,
      "mell": 8044,
      "maw": 8045,
      "muth": 8046,
      "mca": 8047,
      "mline": 8048,
      "mham": 8049,
      "mings": 8050,
      "mural": 8051,
      "mesh": 8052,
      "mtv": 8053,
      "mberg": 8054,
      "mpeg": 8055,
      "nc": 8056,
      "nf": 8057,
      "nl": 8058,
      "niv": 8059,
      "nig": 8060,
      "npr": 8061,
      "nim": 8062,
      "nab": 8063,
      "nbr": 8064,
      "nate": 8065,
      "nant": 8066,
      "nak": 8067,
      "none": 8068,
      "ndo": 8069,
      "nach": 8070,
      "nang": 8071,
      "nons": 8072,
      "nsw": 8073,
      "nude": 8074,
      "nwa": 8075,
      "nils": 8076,
      "nintend": 8077,
      "nagas": 8078,
      "nathan": 8079,
      "nkx": 8080,
      "oe": 8081,
      "oth": 8082,
      "oas": 8083,
      "oir": 8084,
      "oct": 8085,
      "oul": 8086,
      "ope": 8087,
      "ote": 8088,
      "obo": 8089,
      "oman": 8090,
      "ove": 8091,
      "othy": 8092,
      "oidea": 8093,
      "ocris": 8094,
      "otrich": 8095,
      "ohama": 8096,
      "ostyl": 8097,
      "pf": 8098,
      "pp": 8099,
      "pig": 8100,
      "pia": 8101,
      "pip": 8102,
      "pated": 8103,
      "pif": 8104,
      "pup": 8105,
      "pact": 8106,
      "phas": 8107,
      "pere": 8108,
      "pend": 8109,
      "pach": 8110,
      "preg": 8111,
      "pure": 8112,
      "pals": 8113,
      "pices": 8114,
      "pesh": 8115,
      "pga": 8116,
      "pond": 8117,
      "paired": 8118,
      "pays": 8119,
      "pbs": 8120,
      "pestic": 8121,
      "pension": 8122,
      "punting": 8123,
      "phew": 8124,
      "ql": 8125,
      "rb": 8126,
      "rc": 8127,
      "rs": 8128,
      "rt": 8129,
      "rw": 8130,
      "rar": 8131,
      "rag": 8132,
      "rall": 8133,
      "rian": 8134,
      "rical": 8135,
      "ruth": 8136,
      "ride": 8137,
      "rix": 8138,
      "rific": 8139,
      "rors": 8140,
      "rik": 8141,
      "rating": 8142,
      "rings": 8143,
      "rash": 8144,
      "rss": 8145,
      "rays": 8146,
      "rpm": 8147,
      "rift": 8148,
      "rwand": 8149,
      "sg": 8150,
      "sio": 8151,
      "sak": 8152,
      "spart": 8153,
      "send": 8154,
      "sage": 8155,
      "sib": 8156,
      "sint": 8157,
      "sital": 8158,
      "slater": 8159,
      "sah": 8160,
      "sank": 8161,
      "sort": 8162,
      "sque": 8163,
      "sau": 8164,
      "slim": 8165,
      "slit": 8166,
      "slight": 8167,
      "sdi": 8168,
      "sara": 8169,
      "sburg": 8170,
      "says": 8171,
      "sending": 8172,
      "sinal": 8173,
      "sivan": 8174,
      "sql": 8175,
      "tb": 8176,
      "tf": 8177,
      "tm": 8178,
      "tis": 8179,
      "tse": 8180,
      "tab": 8181,
      "trom": 8182,
      "tart": 8183,
      "tian": 8184,
      "tund": 8185,
      "till": 8186,
      "taf": 8187,
      "tack": 8188,
      "tide": 8189,
      "tles": 8190,
      "tany": 8191,
      "tory": 8192,
      "tied": 8193,
      "troy": 8194,
      "tides": 8195,
      "tuss": 8196,
      "ticket": 8197,
      "tella": 8198,
      "tailed": 8199,
      "tues": 8200,
      "tgs": 8201,
      "tbil": 8202,
      "ui": 8203,
      "uy": 8204,
      "uer": 8205,
      "uro": 8206,
      "uct": 8207,
      "uate": 8208,
      "uci": 8209,
      "uae": 8210,
      "uca": 8211,
      "uque": 8212,
      "ucester": 8213,
      "vc": 8214,
      "vh": 8215,
      "vv": 8216,
      "vat": 8217,
      "vand": 8218,
      "vig": 8219,
      "vip": 8220,
      "vity": 8221,
      "vive": 8222,
      "vamp": 8223,
      "vents": 8224,
      "vann": 8225,
      "viver": 8226,
      "vement": 8227,
      "vms": 8228,
      "vlad": 8229,
      "violet": 8230,
      "wb": 8231,
      "wir": 8232,
      "wab": 8233,
      "wap": 8234,
      "wbo": 8235,
      "wong": 8236,
      "wight": 8237,
      "wwe": 8238,
      "wod": 8239,
      "wool": 8240,
      "watt": 8241,
      "wake": 8242,
      "wah": 8243,
      "wired": 8244,
      "wau": 8245,
      "wagon": 8246,
      "wavel": 8247,
      "wager": 8248,
      "xa": 8249,
      "xon": 8250,
      "xed": 8251,
      "xen": 8252,
      "xus": 8253,
      "xide": 8254,
      "xbox": 8255,
      "xml": 8256,
      "xoes": 8257,
      "yes": 8258,
      "yers": 8259,
      "yne": 8260,
      "yang": 8261,
      "ylic": 8262,
      "ycle": 8263,
      "yns": 8264,
      "yotes": 8265,
      "yuki": 8266,
      "yashiki": 8267,
      "zh": 8268,
      "zi": 8269,
      "zon": 8270,
      "zur": 8271,
      "zap": 8272,
      "zia": 8273,
      "zool": 8274,
      "zha": 8275,
      "zane": 8276,
      "zinc": 8277,
      "zoo": 8278,
      "ths": 8279,
      "thil": 8280,
      "thum": 8281,
      "thres": 8282,
      "thma": 8283,
      "thology": 8284,
      "thlon": 8285,
      "thread": 8286,
      "threw": 8287,
      "ink": 8288,
      "iny": 8289,
      "intr": 8290,
      "inno": 8291,
      "inia": 8292,
      "inian": 8293,
      "inction": 8294,
      "inations": 8295,
      "intim": 8296,
      "infer": 8297,
      "inos": 8298,
      "invoc": 8299,
      "inberg": 8300,
      "inns": 8301,
      "inhab": 8302,
      "intric": 8303,
      "incomplete": 8304,
      "inorganic": 8305,
      "inental": 8306,
      "injury": 8307,
      "inmates": 8308,
      "inivas": 8309,
      "anu": 8310,
      "anand": 8311,
      "anic": 8312,
      "anie": 8313,
      "ancy": 8314,
      "anarch": 8315,
      "anera": 8316,
      "anxi": 8317,
      "anza": 8318,
      "aneta": 8319,
      "anonymous": 8320,
      "thel": 8321,
      "eror": 8322,
      "eration": 8323,
      "eria": 8324,
      "eros": 8325,
      "erith": 8326,
      "erva": 8327,
      "error": 8328,
      "erbai": 8329,
      "ercise": 8330,
      "erdeen": 8331,
      "onal": 8332,
      "onding": 8333,
      "onboard": 8334,
      "onvul": 8335,
      "isi": 8336,
      "iso": 8337,
      "isu": 8338,
      "ises": 8339,
      "isch": 8340,
      "isles": 8341,
      "istern": 8342,
      "iswar": 8343,
      "iscal": 8344,
      "isons": 8345,
      "isms": 8346,
      "ischem": 8347,
      "issett": 8348,
      "oro": 8349,
      "orty": 8350,
      "ornam": 8351,
      "orrall": 8352,
      "edel": 8353,
      "edith": 8354,
      "edged": 8355,
      "eddie": 8356,
      "edonia": 8357,
      "edmund": 8358,
      "arth": 8359,
      "aras": 8360,
      "arro": 8361,
      "aram": 8362,
      "arian": 8363,
      "arip": 8364,
      "arise": 8365,
      "argy": 8366,
      "arks": 8367,
      "arff": 8368,
      "arians": 8369,
      "arrang": 8370,
      "arcs": 8371,
      "argument": 8372,
      "atch": 8373,
      "atible": 8374,
      "alm": 8375,
      "aling": 8376,
      "alent": 8377,
      "alma": 8378,
      "alty": 8379,
      "alities": 8380,
      "algar": 8381,
      "alison": 8382,
      "alkot": 8383,
      "ento": 8384,
      "enem": 8385,
      "enia": 8386,
      "enable": 8387,
      "enhan": 8388,
      "encro": 8389,
      "enberg": 8390,
      "ennomin": 8391,
      "ennis": 8392,
      "enstein": 8393,
      "enrolled": 8394,
      "enhance": 8395,
      "esters": 8396,
      "esden": 8397,
      "escu": 8398,
      "esville": 8399,
      "esigned": 8400,
      "estrian": 8401,
      "escope": 8402,
      "esenthal": 8403,
      "asin": 8404,
      "ashe": 8405,
      "asso": 8406,
      "asim": 8407,
      "asser": 8408,
      "aside": 8409,
      "asley": 8410,
      "asama": 8411,
      "asked": 8412,
      "aspir": 8413,
      "asamy": 8414,
      "asthma": 8415,
      "ofrequ": 8416,
      "offee": 8417,
      "ito": 8418,
      "iting": 8419,
      "itel": 8420,
      "itter": 8421,
      "itia": 8422,
      "itted": 8423,
      "itives": 8424,
      "itlin": 8425,
      "itime": 8426,
      "itunes": 8427,
      "ico": 8428,
      "icar": 8429,
      "icit": 8430,
      "icul": 8431,
      "icide": 8432,
      "icious": 8433,
      "icular": 8434,
      "icures": 8435,
      "icruc": 8436,
      "icameral": 8437,
      "req": 8438,
      "rely": 8439,
      "retr": 8440,
      "refin": 8441,
      "relocated": 8442,
      "remember": 8443,
      "rebel": 8444,
      "recalled": 8445,
      "recover": 8446,
      "replic": 8447,
      "reformation": 8448,
      "removing": 8449,
      "reagent": 8450,
      "remn": 8451,
      "reuters": 8452,
      "reviewers": 8453,
      "rod": 8454,
      "rober": 8455,
      "rods": 8456,
      "roush": 8457,
      "roshi": 8458,
      "robot": 8459,
      "rodney": 8460,
      "roost": 8461,
      "stv": 8462,
      "stro": 8463,
      "stam": 8464,
      "stol": 8465,
      "stum": 8466,
      "stunt": 8467,
      "stom": 8468,
      "stret": 8469,
      "stating": 8470,
      "stones": 8471,
      "stages": 8472,
      "stuck": 8473,
      "stanton": 8474,
      "ionidae": 8475,
      "inger": 8476,
      "ingia": 8477,
      "ingual": 8478,
      "ingham": 8479,
      "lea": 8480,
      "leo": 8481,
      "lew": 8482,
      "lean": 8483,
      "leag": 8484,
      "leices": 8485,
      "lems": 8486,
      "lewood": 8487,
      "leica": 8488,
      "leburg": 8489,
      "levin": 8490,
      "lechase": 8491,
      "togo": 8492,
      "tough": 8493,
      "tophil": 8494,
      "tomor": 8495,
      "toler": 8496,
      "toss": 8497,
      "tobac": 8498,
      "tochrome": 8499,
      "chis": 8500,
      "ching": 8501,
      "chest": 8502,
      "chies": 8503,
      "chud": 8504,
      "chak": 8505,
      "chell": 8506,
      "chaw": 8507,
      "chath": 8508,
      "chung": 8509,
      "chlam": 8510,
      "amt": 8511,
      "amor": 8512,
      "amar": 8513,
      "amen": 8514,
      "amas": 8515,
      "amol": 8516,
      "amig": 8517,
      "amorgan": 8518,
      "amnes": 8519,
      "amples": 8520,
      "ilo": 8521,
      "iland": 8522,
      "ilion": 8523,
      "ilia": 8524,
      "ilidae": 8525,
      "ilization": 8526,
      "illegal": 8527,
      "unct": 8528,
      "unge": 8529,
      "unos": 8530,
      "unlaw": 8531,
      "uncommon": 8532,
      "uncing": 8533,
      "unsuccessful": 8534,
      "unpred": 8535,
      "uncertain": 8536,
      "unee": 8537,
      "unemployment": 8538,
      "unravel": 8539,
      "unicameral": 8540,
      "coin": 8541,
      "coon": 8542,
      "coel": 8543,
      "coag": 8544,
      "coated": 8545,
      "cough": 8546,
      "coher": 8547,
      "codes": 8548,
      "copen": 8549,
      "cohen": 8550,
      "cooperation": 8551,
      "coining": 8552,
      "coaster": 8553,
      "coccy": 8554,
      "coyotes": 8555,
      "entran": 8556,
      "entiary": 8557,
      "entailing": 8558,
      "fork": 8559,
      "fores": 8560,
      "fortress": 8561,
      "elk": 8562,
      "elor": 8563,
      "elle": 8564,
      "else": 8565,
      "elmo": 8566,
      "elap": 8567,
      "elia": 8568,
      "elman": 8569,
      "elwes": 8570,
      "elines": 8571,
      "elsa": 8572,
      "elago": 8573,
      "elkh": 8574,
      "elux": 8575,
      "elias": 8576,
      "elodeon": 8577,
      "urg": 8578,
      "uri": 8579,
      "urer": 8580,
      "urged": 8581,
      "urugu": 8582,
      "uronect": 8583,
      "aden": 8584,
      "adol": 8585,
      "adir": 8586,
      "ados": 8587,
      "adjust": 8588,
      "admir": 8589,
      "adni": 8590,
      "admissions": 8591,
      "usi": 8592,
      "usage": 8593,
      "uscan": 8594,
      "usied": 8595,
      "usual": 8596,
      "usani": 8597,
      "acs": 8598,
      "acin": 8599,
      "aced": 8600,
      "acle": 8601,
      "acies": 8602,
      "accur": 8603,
      "acier": 8604,
      "accum": 8605,
      "acute": 8606,
      "accompl": 8607,
      "oli": 8608,
      "olor": 8609,
      "olic": 8610,
      "olly": 8611,
      "olone": 8612,
      "oloph": 8613,
      "olacton": 8614,
      "dem": 8615,
      "dees": 8616,
      "dece": 8617,
      "demar": 8618,
      "deck": 8619,
      "deport": 8620,
      "deals": 8621,
      "devi": 8622,
      "deforest": 8623,
      "debra": 8624,
      "depression": 8625,
      "decommissioned": 8626,
      "decide": 8627,
      "sees": 8628,
      "seiz": 8629,
      "secre": 8630,
      "seals": 8631,
      "seize": 8632,
      "semap": 8633,
      "seeds": 8634,
      "secure": 8635,
      "searches": 8636,
      "seemed": 8637,
      "seoul": 8638,
      "iva": 8639,
      "ivy": 8640,
      "ivity": 8641,
      "ivial": 8642,
      "teridae": 8643,
      "terrest": 8644,
      "terrace": 8645,
      "terrac": 8646,
      "termit": 8647,
      "terbury": 8648,
      "irb": 8649,
      "iris": 8650,
      "irre": 8651,
      "iration": 8652,
      "irable": 8653,
      "irregular": 8654,
      "irrig": 8655,
      "lyon": 8656,
      "lymp": 8657,
      "bek": 8658,
      "bew": 8659,
      "beating": 8660,
      "beta": 8661,
      "beau": 8662,
      "behav": 8663,
      "begun": 8664,
      "beacon": 8665,
      "beasley": 8666,
      "hef": 8667,
      "hey": 8668,
      "heed": 8669,
      "hear": 8670,
      "hele": 8671,
      "hect": 8672,
      "heard": 8673,
      "hebre": 8674,
      "hetam": 8675,
      "ige": 8676,
      "igation": 8677,
      "igang": 8678,
      "igence": 8679,
      "igidae": 8680,
      "igosa": 8681,
      "uted": 8682,
      "utter": 8683,
      "utist": 8684,
      "utical": 8685,
      "utory": 8686,
      "hoe": 8687,
      "hom": 8688,
      "hou": 8689,
      "hove": 8690,
      "homer": 8691,
      "howell": 8692,
      "hoped": 8693,
      "hoyi": 8694,
      "lob": 8695,
      "loon": 8696,
      "lose": 8697,
      "loire": 8698,
      "loach": 8699,
      "lowe": 8700,
      "logy": 8701,
      "lombr": 8702,
      "tral": 8703,
      "tras": 8704,
      "tram": 8705,
      "trated": 8706,
      "traf": 8707,
      "traw": 8708,
      "truth": 8709,
      "trude": 8710,
      "traction": 8711,
      "triple": 8712,
      "trends": 8713,
      "trips": 8714,
      "trisha": 8715,
      "trandrine": 8716,
      "tringia": 8717,
      "trivial": 8718,
      "emin": 8719,
      "emma": 8720,
      "email": 8721,
      "emmy": 8722,
      "embed": 8723,
      "eminal": 8724,
      "embour": 8725,
      "ayton": 8726,
      "ayette": 8727,
      "sopr": 8728,
      "socks": 8729,
      "soils": 8730,
      "somers": 8731,
      "sovere": 8732,
      "coma": 8733,
      "compos": 8734,
      "comfort": 8735,
      "composition": 8736,
      "complain": 8737,
      "idio": 8738,
      "idine": 8739,
      "idos": 8740,
      "iduk": 8741,
      "idium": 8742,
      "prc": 8743,
      "pray": 8744,
      "prest": 8745,
      "prak": 8746,
      "prair": 8747,
      "pratt": 8748,
      "prague": 8749,
      "prys": 8750,
      "prax": 8751,
      "prunus": 8752,
      "prasad": 8753,
      "pringle": 8754,
      "agar": 8755,
      "aging": 8756,
      "agma": 8757,
      "agher": 8758,
      "aghan": 8759,
      "aggress": 8760,
      "agwat": 8761,
      "ulm": 8762,
      "ulship": 8763,
      "ulla": 8764,
      "coni": 8765,
      "cones": 8766,
      "concl": 8767,
      "confir": 8768,
      "congo": 8769,
      "concord": 8770,
      "convers": 8771,
      "conrad": 8772,
      "conner": 8773,
      "conven": 8774,
      "consequ": 8775,
      "conclus": 8776,
      "conceived": 8777,
      "congregation": 8778,
      "pep": 8779,
      "peare": 8780,
      "peck": 8781,
      "pept": 8782,
      "pets": 8783,
      "peters": 8784,
      "peaking": 8785,
      "imir": 8786,
      "impart": 8787,
      "impre": 8788,
      "implant": 8789,
      "implies": 8790,
      "imedia": 8791,
      "imolle": 8792,
      "ership": 8793,
      "nos": 8794,
      "noir": 8795,
      "nout": 8796,
      "nock": 8797,
      "nodes": 8798,
      "nomen": 8799,
      "noise": 8800,
      "nobody": 8801,
      "nothing": 8802,
      "nophagia": 8803,
      "nobility": 8804,
      "wiesenthal": 8805,
      "pler": 8806,
      "plen": 8807,
      "pling": 8808,
      "plus": 8809,
      "plug": 8810,
      "plaus": 8811,
      "cecafa": 8812,
      "proto": 8813,
      "prospe": 8814,
      "promen": 8815,
      "propy": 8816,
      "prompt": 8817,
      "prosecution": 8818,
      "prolific": 8819,
      "neur": 8820,
      "neut": 8821,
      "neum": 8822,
      "neore": 8823,
      "neys": 8824,
      "negot": 8825,
      "nebras": 8826,
      "nephew": 8827,
      "neusied": 8828,
      "aba": 8829,
      "abies": 8830,
      "abund": 8831,
      "abstr": 8832,
      "abird": 8833,
      "absol": 8834,
      "abble": 8835,
      "absent": 8836,
      "abilities": 8837,
      "aberdeen": 8838,
      "iste": 8839,
      "berleburg": 8840,
      "tea": 8841,
      "tett": 8842,
      "tehsil": 8843,
      "tetrandrine": 8844,
      "romero": 8845,
      "artwork": 8846,
      "artific": 8847,
      "whis": 8848,
      "whist": 8849,
      "allison": 8850,
      "moon": 8851,
      "moto": 8852,
      "moby": 8853,
      "moshe": 8854,
      "modes": 8855,
      "motown": 8856,
      "mosk": 8857,
      "modest": 8858,
      "apg": 8859,
      "apes": 8860,
      "apest": 8861,
      "apoc": 8862,
      "appel": 8863,
      "apost": 8864,
      "apaga": 8865,
      "apsids": 8866,
      "verb": 8867,
      "veri": 8868,
      "veren": 8869,
      "verde": 8870,
      "verte": 8871,
      "verona": 8872,
      "veratr": 8873,
      "iang": 8874,
      "iano": 8875,
      "ianna": 8876,
      "opi": 8877,
      "opy": 8878,
      "opal": 8879,
      "opol": 8880,
      "oppos": 8881,
      "ophy": 8882,
      "ophon": 8883,
      "opsar": 8884,
      "sue": 8885,
      "suk": 8886,
      "suther": 8887,
      "suck": 8888,
      "subl": 8889,
      "sudden": 8890,
      "suyuki": 8891,
      "suicide": 8892,
      "ett": 8893,
      "eties": 8894,
      "etta": 8895,
      "isher": 8896,
      "ishna": 8897,
      "ishments": 8898,
      "clan": 8899,
      "clam": 8900,
      "clive": 8901,
      "clamp": 8902,
      "bos": 8903,
      "bout": 8904,
      "boud": 8905,
      "bought": 8906,
      "boots": 8907,
      "boils": 8908,
      "bouts": 8909,
      "bomber": 8910,
      "ipo": 8911,
      "ipelago": 8912,
      "avo": 8913,
      "aval": 8914,
      "avell": 8915,
      "aint": 8916,
      "bry": 8917,
      "bred": 8918,
      "bray": 8919,
      "braw": 8920,
      "brack": 8921,
      "brides": 8922,
      "bruss": 8923,
      "bratr": 8924,
      "brule": 8925,
      "briber": 8926,
      "brennan": 8927,
      "wns": 8928,
      "esses": 8929,
      "ession": 8930,
      "essay": 8931,
      "essays": 8932,
      "fought": 8933,
      "foaled": 8934,
      "manor": 8935,
      "manual": 8936,
      "mangel": 8937,
      "manhatt": 8938,
      "shr": 8939,
      "shin": 8940,
      "shor": 8941,
      "shro": 8942,
      "shaf": 8943,
      "shang": 8944,
      "shah": 8945,
      "shank": 8946,
      "shakes": 8947,
      "shado": 8948,
      "sharing": 8949,
      "shatter": 8950,
      "shift": 8951,
      "pov": 8952,
      "pope": 8953,
      "pomer": 8954,
      "pouch": 8955,
      "poets": 8956,
      "pozz": 8957,
      "pounds": 8958,
      "iller": 8959,
      "illes": 8960,
      "illas": 8961,
      "illie": 8962,
      "illance": 8963,
      "illara": 8964,
      "illaceae": 8965,
      "illicit": 8966,
      "therly": 8967,
      "ugal": 8968,
      "ugee": 8969,
      "quis": 8970,
      "quot": 8971,
      "quint": 8972,
      "quities": 8973,
      "quaker": 8974,
      "question": 8975,
      "quote": 8976,
      "thatching": 8977,
      "ios": 8978,
      "iodes": 8979,
      "antly": 8980,
      "antip": 8981,
      "antenna": 8982,
      "antares": 8983,
      "antigon": 8984,
      "udu": 8985,
      "udra": 8986,
      "serbia": 8987,
      "serrat": 8988,
      "gear": 8989,
      "geared": 8990,
      "arda": 8991,
      "ardom": 8992,
      "ardinia": 8993,
      "aryan": 8994,
      "afro": 8995,
      "afford": 8996,
      "aftsman": 8997,
      "gry": 8998,
      "gran": 8999,
      "grid": 9000,
      "grip": 9001,
      "grill": 9002,
      "grave": 9003,
      "grange": 9004,
      "grinder": 9005,
      "ifb": 9006,
      "ife": 9007,
      "ifs": 9008,
      "ifies": 9009,
      "ifier": 9010,
      "ifting": 9011,
      "indict": 9012,
      "indicated": 9013,
      "indicate": 9014,
      "inez": 9015,
      "inexp": 9016,
      "twe": 9017,
      "twir": 9018,
      "twist": 9019,
      "twelf": 9020,
      "astiswar": 9021,
      "meal": 9022,
      "mete": 9023,
      "metric": 9024,
      "aki": 9025,
      "aked": 9026,
      "akulam": 9027,
      "upward": 9028,
      "upgrad": 9029,
      "upset": 9030,
      "upload": 9031,
      "updates": 9032,
      "upgrades": 9033,
      "actin": 9034,
      "cie": 9035,
      "cius": 9036,
      "ciap": 9037,
      "porsche": 9038,
      "hism": 9039,
      "uba": 9040,
      "ubava": 9041,
      "cork": 9042,
      "corp": 9043,
      "corners": 9044,
      "coraco": 9045,
      "bora": 9046,
      "borg": 9047,
      "boro": 9048,
      "boris": 9049,
      "borne": 9050,
      "mentor": 9051,
      "exits": 9052,
      "extern": 9053,
      "exha": 9054,
      "exped": 9055,
      "exposed": 9056,
      "expected": 9057,
      "exxon": 9058,
      "exercise": 9059,
      "examples": 9060,
      "extraction": 9061,
      "earn": 9062,
      "earning": 9063,
      "crt": 9064,
      "cran": 9065,
      "crus": 9066,
      "crest": 9067,
      "crip": 9068,
      "craw": 9069,
      "croft": 9070,
      "craig": 9071,
      "craftsman": 9072,
      "partial": 9073,
      "wore": 9074,
      "worst": 9075,
      "worship": 9076,
      "erebidae": 9077,
      "endor": 9078,
      "endary": 9079,
      "endra": 9080,
      "endors": 9081,
      "endurance": 9082,
      "peri": 9083,
      "perth": 9084,
      "perry": 9085,
      "perple": 9086,
      "permit": 9087,
      "perhap": 9088,
      "perceived": 9089,
      "perennial": 9090,
      "pertuss": 9091,
      "playlists": 9092,
      "playoffs": 9093,
      "landed": 9094,
      "onga": 9095,
      "otis": 9096,
      "otto": 9097,
      "doe": 9098,
      "dos": 9099,
      "dodo": 9100,
      "domon": 9101,
      "domen": 9102,
      "doob": 9103,
      "docks": 9104,
      "phon": 9105,
      "phones": 9106,
      "phonet": 9107,
      "files": 9108,
      "ieu": 9109,
      "iegs": 9110,
      "dispos": 9111,
      "displays": 9112,
      "disks": 9113,
      "dislocation": 9114,
      "discourse": 9115,
      "disjunct": 9116,
      "disorders": 9117,
      "mars": 9118,
      "maria": 9119,
      "mario": 9120,
      "marie": 9121,
      "marking": 9122,
      "marque": 9123,
      "margar": 9124,
      "marino": 9125,
      "markings": 9126,
      "assum": 9127,
      "assman": 9128,
      "assass": 9129,
      "assists": 9130,
      "assault": 9131,
      "spect": 9132,
      "speak": 9133,
      "speaking": 9134,
      "specially": 9135,
      "speaker": 9136,
      "ellation": 9137,
      "ellison": 9138,
      "elligence": 9139,
      "awei": 9140,
      "achan": 9141,
      "achlan": 9142,
      "nationwide": 9143,
      "izom": 9144,
      "izable": 9145,
      "izoph": 9146,
      "duction": 9147,
      "duke": 9148,
      "ducks": 9149,
      "duchess": 9150,
      "compact": 9151,
      "compile": 9152,
      "compute": 9153,
      "computers": 9154,
      "compatible": 9155,
      "cola": 9156,
      "colm": 9157,
      "colin": 9158,
      "colla": 9159,
      "colony": 9160,
      "collateral": 9161,
      "colchag": 9162,
      "newman": 9163,
      "newborn": 9164,
      "americas": 9165,
      "cking": 9166,
      "ckland": 9167,
      "portal": 9168,
      "portugal": 9169,
      "filmmaker": 9170,
      "filmmakers": 9171,
      "fever": 9172,
      "feeding": 9173,
      "feinberg": 9174,
      "mina": 9175,
      "miners": 9176,
      "mineral": 9177,
      "minerva": 9178,
      "frs": 9179,
      "fris": 9180,
      "freder": 9181,
      "frances": 9182,
      "friday": 9183,
      "franny": 9184,
      "fringe": 9185,
      "franco": 9186,
      "nationals": 9187,
      "nationally": 9188,
      "nationalization": 9189,
      "nationalism": 9190,
      "anga": 9191,
      "angam": 9192,
      "angles": 9193,
      "anglic": 9194,
      "angular": 9195,
      "angered": 9196,
      "angola": 9197,
      "anglia": 9198,
      "geno": 9199,
      "genic": 9200,
      "gency": 9201,
      "genome": 9202,
      "genstein": 9203,
      "spending": 9204,
      "spinal": 9205,
      "sparing": 9206,
      "icta": 9207,
      "cana": 9208,
      "cane": 9209,
      "canals": 9210,
      "cancell": 9211,
      "canvas": 9212,
      "canelo": 9213,
      "canterbury": 9214,
      "canopy": 9215,
      "gos": 9216,
      "goes": 9217,
      "gomer": 9218,
      "gotevere": 9219,
      "golems": 9220,
      "gowns": 9221,
      "engined": 9222,
      "engaged": 9223,
      "joins": 9224,
      "joker": 9225,
      "schley": 9226,
      "scharff": 9227,
      "schizoph": 9228,
      "dried": 9229,
      "drake": 9230,
      "drago": 9231,
      "drying": 9232,
      "dresden": 9233,
      "drayton": 9234,
      "fama": 9235,
      "restr": 9236,
      "restrain": 9237,
      "resignation": 9238,
      "albion": 9239,
      "interact": 9240,
      "interpre": 9241,
      "interstate": 9242,
      "intercolle": 9243,
      "interven": 9244,
      "intercept": 9245,
      "intermit": 9246,
      "interrog": 9247,
      "interviews": 9248,
      "interactions": 9249,
      "interacting": 9250,
      "interrupt": 9251,
      "interpret": 9252,
      "interlocking": 9253,
      "serviced": 9254,
      "americans": 9255,
      "outlaw": 9256,
      "outbuildings": 9257,
      "northerly": 9258,
      "ballard": 9259,
      "pari": 9260,
      "parac": 9261,
      "parod": 9262,
      "parents": 9263,
      "parades": 9264,
      "paramount": 9265,
      "weh": 9266,
      "weed": 9267,
      "weevil": 9268,
      "weyns": 9269,
      "amphetam": 9270,
      "aceutical": 9271,
      "maut": 9272,
      "majesty": 9273,
      "ideas": 9274,
      "speculation": 9275,
      "specified": 9276,
      "specifying": 9277,
      "spectrum": 9278,
      "odonto": 9279,
      "omi": 9280,
      "omy": 9281,
      "omonas": 9282,
      "velt": 9283,
      "reef": 9284,
      "raz": 9285,
      "rath": 9286,
      "rape": 9287,
      "raja": 9288,
      "raiser": 9289,
      "locust": 9290,
      "oka": 9291,
      "syner": 9292,
      "syri": 9293,
      "syria": 9294,
      "knox": 9295,
      "useppe": 9296,
      "gros": 9297,
      "grocer": 9298,
      "liu": 9299,
      "libell": 9300,
      "liasso": 9301,
      "lielmo": 9302,
      "allyson": 9303,
      "aeidae": 9304,
      "curing": 9305,
      "curcul": 9306,
      "ocy": 9307,
      "enson": 9308,
      "ensions": 9309,
      "eley": 9310,
      "airment": 9311,
      "airline": 9312,
      "airlines": 9313,
      "uefa": 9314,
      "elded": 9315,
      "ignia": 9316,
      "herr": 9317,
      "herman": 9318,
      "regent": 9319,
      "regime": 9320,
      "registry": 9321,
      "olds": 9322,
      "oldies": 9323,
      "ultimate": 9324,
      "carlos": 9325,
      "carmel": 9326,
      "carmichael": 9327,
      "carneg": 9328,
      "cardew": 9329,
      "kewa": 9330,
      "prehistoric": 9331,
      "premis": 9332,
      "prepaid": 9333,
      "prefix": 9334,
      "prequel": 9335,
      "offense": 9336,
      "eve": 9337,
      "evident": 9338,
      "creelman": 9339,
      "nota": 9340,
      "notice": 9341,
      "polarity": 9342,
      "rite": 9343,
      "ritten": 9344,
      "lesher": 9345,
      "ogh": 9346,
      "ogical": 9347,
[...]
