{
  "version": "1.0",
  "truncation": null,
  "padding": null,
  "added_tokens": [
    {
      "id": 0,
      "content": "<UNK>",
      "single_word": false,
      "lstrip": false,
      "rstrip": false,
      "normalized": false,
      "special": true
    }
  ],
  "normalizer": {
    "type": "Sequence",
    "normalizers": [
      {
        "type": "NFKC"
      },
      {
        "type": "Lowercase"
      }
    ]
  },
  "pre_tokenizer": {
    "type": "Sequence",
    "pretokenizers": [
      {
        "type": "WhitespaceSplit"
      },
      {
        "type": "Punctuation",
        "behavior": "Isolated"
      },
      {
        "type": "Digits",
        "individual_digits": true
      }
    ]
  },
  "post_processor": null,
  "decoder": null,
  "model": {
    "type": "BPE",
    "dropout": null,
    "unk_token": "<UNK>",
    "continuing_subword_prefix": null,
    "end_of_word_suffix": null,
    "fuse_unk": false,
    "byte_fallback": false,
    "ignore_merges": false,
    "vocab": {
      "<UNK>": 0,
      "!": 1,
      "\"": 2,
      "#": 3,
      "$": 4,
      "%": 5,
      "&": 6,
      "'": 7,
      "(": 8,
      ")": 9,
      "*": 10,
      "+": 11,
      ",": 12,
      "-": 13,
      ".": 14,
      "/": 15,
      "0": 16,
      "1": 17,
      "2": 18,
      "3": 19,
      "4": 20,
      "5": 21,
      "6": 22,
      "7": 23,
      "8": 24,
      "9": 25,
      ":": 26,
      ";": 27,
      "<": 28,
      "=": 29,
      ">": 30,
      "?": 31,
      "@": 32,
      "[": 33,
      "\\": 34,
      "]": 35,
      "^": 36,
      "_": 37,
      "`": 38,
      "a": 39,
      "b": 40,
      "c": 41,
      "d": 42,
      "e": 43,
      "f": 44,
      "g": 45,
      "h": 46,
      "i": 47,
      "j": 48,
      "k": 49,
      "l": 50,
      "m": 51,
      "n": 52,
      "o": 53,
      "p": 54,
      "q": 55,
      "r": 56,
      "s": 57,
      "t": 58,
      "u": 59,
      "v": 60,
      "w": 61,
      "x": 62,
      "y": 63,
      "z": 64,
      "{": 65,
      "|": 66,
      "}": 67,
      "~": 68,
      "th": 69,
      "in": 70,
      "an": 71,
      "the": 72,
      "er": 73,
      "on": 74,
      "or": 75,
      "is": 76,
      "ed": 77,
      "al": 78,
      "at": 79,
      "en": 80,
      "ar": 81,
      "es": 82,
      "as": 83,
      "of": 84,
      "and": 85,
      "it": 86,
      "ic": 87,
      "re": 88,
      "ro": 89,
      "st": 90,
      "ion": 91,
      "ing": 92,
      "le": 93,
      "to": 94,
      "am": 95,
      "ch": 96,
      "un": 97,
      "co": 98,
      "il": 99,
      "ent": 100,
      "el": 101,
      "ur": 102,
      "for": 103,
      "us": 104,
      "ad": 105,
      "ac": 106,
      "was": 107,
      "ol": 108,
      "se": 109,
      "ter": 110,
      "ation": 111,
      "iv": 112,
      "de": 113,
      "ir": 114,
      "by": 115,
      "ly": 116,
      "be": 117,
      "tr": 118,
      "so": 119,
      "ho": 120,
      "ig": 121,
      "ay": 122,
      "lo": 123,
      "he": 124,
      "id": 125,
      "em": 126,
      "com": 127,
      "ct": 128,
      "ag": 129,
      "ut": 130,
      "im": 131,
      "pe": 132,
      "con": 133,
      "um": 134,
      "ul": 135,
      "pr": 136,
      "ers": 137,
      "ne": 138,
      "ce": 139,
      "no": 140,
      "pl": 141,
      "wi": 142,
      "pro": 143,
      "ist": 144,
      "ies": 145,
      "all": 146,
      "with": 147,
      "est": 148,
      "ab": 149,
      "mo": 150,
      "rom": 151,
      "ap": 152,
      "te": 153,
      "art": 154,
      "wh": 155,
      "ia": 156,
      "ber": 157,
      "op": 158,
      "ian": 159,
      "et": 160,
      "ver": 161,
      "are": 162,
      "from": 163,
      "cl": 164,
      "ity": 165,
      "su": 166,
      "ain": 167,
      "av": 168,
      "und": 169,
      "ess": 170,
      "bo": 171,
      "ate": 172,
      "wn": 173,
      "ish": 174,
      "ated": 175,
      "fo": 176,
      "ip": 177,
      "sh": 178,
      "br": 179,
      "man": 180,
      "po": 181,
      "ill": 182,
      "ug": 183,
      "ard": 184,
      "ud": 185,
      "ther": 186,
      "io": 187,
      "ich": 188,
      "that": 189,
      "af": 190,
      "ge": 191,
      "igh": 192,
      "if": 193,
      "wor": 194,
      "qu": 195,
      "ak": 196,
      "ser": 197,
      "me": 198,
      "ary": 199,
      "ive": 200,
      "gr": 201,
      "bor": 202,
      "ial": 203,
      "form": 204,
      "ust": 205,
      "ex": 206,
      "ub": 207,
      "ind": 208,
      "por": 209,
      "cor": 210,
      "ant": 211,
      "ment": 212,
      "per": 213,
      "ear": 214,
      "ast": 215,
      "ine": 216,
      "one": 217,
      "has": 218,
      "ong": 219,
      "ere": 220,
      "up": 221,
      "wo": 222,
      "cr": 223,
      "ame": 224,
      "play": 225,
      "land": 226,
      "ie": 227,
      "act": 228,
      "mar": 229,
      "his": 230,
      "end": 231,
      "ell": 232,
      "we": 233,
      "ical": 234,
      "part": 235,
      "its": 236,
      "ot": 237,
      "comm": 238,
      "which": 239,
      "dis": 240,
      "unt": 241,
      "also": 242,
      "ased": 243,
      "ire": 244,
      "do": 245,
      "new": 246,
      "born": 247,
      "ican": 248,
      "spe": 249,
      "fe": 250,
      "du": 251,
      "aw": 252,
      "amer": 253,
      "ember": 254,
      "fir": 255,
      "nation": 256,
      "iz": 257,
      "ph": 258,
      "ass": 259,
      "res": 260,
      "ach": 261,
      "age": 262,
      "ts": 263,
      "col": 264,
      "who": 265,
      "ck": 266,
      "fil": 267,
      "ction": 268,
      "comp": 269,
      "ited": 270,
      "gen": 271,
      "ily": 272,
      "first": 273,
      "nor": 274,
      "ates": 275,
      "go": 276,
      "but": 277,
      "ack": 278,
      "spec": 279,
      "can": 280,
      "ict": 281,
      "fr": 282,
      "ang": 283,
      "national": 284,
      "uth": 285,
      "min": 286,
      "sch": 287,
      "cent": 288,
      "jo": 289,
      "par": 290,
      "fam": 291,
      "ugh": 292,
      "dr": 293,
      "this": 294,
      "ci": 295,
      "use": 296,
      "american": 297,
      "film": 298,
      "eng": 299,
      "alb": 300,
      "inter": 301,
      "od": 302,
      "ball": 303,
      "low": 304,
      "sp": 305,
      "rele": 306,
      "ition": 307,
      "ice": 308,
      "serv": 309,
      "ubl": 310,
      "kno": 311,
      "loc": 312,
      "album": 313,
      "ae": 314,
      "ace": 315,
      "were": 316,
      "amp": 317,
      "family": 318,
      "pres": 319,
      "ok": 320,
      "ure": 321,
      "incl": 322,
      "port": 323,
      "united": 324,
      "ele": 325,
      "sy": 326,
      "publ": 327,
      "ens": 328,
      "vel": 329,
      "ma": 330,
      "work": 331,
      "cre": 332,
      "ign": 333,
      "air": 334,
      "ue": 335,
      "out": 336,
      "gro": 337,
      "ater": 338,
      "ide": 339,
      "ra": 340,
      "ans": 341,
      "known": 342,
      "ke": 343,
      "ib": 344,
      "ore": 345,
      "reg": 346,
      "hav": 347,
      "cord": 348,
      "car": 349,
      "other": 350,
      "her": 351,
      "des": 352,
      "tim": 353,
      "ight": 354,
      "cur": 355,
      "year": 356,
      "ool": 357,
      "off": 358,
      "not": 359,
      "old": 360,
      "eld": 361,
      "she": 362,
      "str": 363,
      "school": 364,
      "ustr": 365,
      "sing": 366,
      "pre": 367,
      "ship": 368,
      "ence": 369,
      "ally": 370,
      "pt": 371,
      "produ": 372,
      "ev": 373,
      "states": 374,
      "their": 375,
      "bu": 376,
      "oc": 377,
      "pol": 378,
      "ten": 379,
      "cont": 380,
      "om": 381,
      "released": 382,
      "ory": 383,
      "ree": 384,
      "species": 385,
      "wr": 386,
      "ton": 387,
      "count": 388,
      "li": 389,
      "mus": 390,
      "ivers": 391,
      "been": 392,
      "med": 393,
      "ite": 394,
      "foot": 395,
      "fer": 396,
      "ult": 397,
      "cted": 398,
      "found": 399,
      "og": 400,
      "ations": 401,
      "ld": 402,
      "ents": 403,
      "two": 404,
      "mon": 405,
      "fl": 406,
      "includ": 407,
      "after": 408,
      "ca": 409,
      "int": 410,
      "record": 411,
      "state": 412,
      "distr": 413,
      "south": 414,
      "world": 415,
      "ics": 416,
      "bro": 417,
      "ance": 418,
      "fin": 419,
      "ced": 420,
      "ve": 421,
      "football": 422,
      "cer": 423,
      "urn": 424,
      "ision": 425,
      "les": 426,
      "der": 427,
      "sho": 428,
      "have": 429,
      "uring": 430,
      "ick": 431,
      "stud": 432,
      "dire": 433,
      "univers": 434,
      "may": 435,
      "high": 436,
      "gan": 437,
      "any": 438,
      "ade": 439,
      "ince": 440,
      "ished": 441,
      "att": 442,
      "ces": 443,
      "ase": 444,
      "former": 445,
      "used": 446,
      "son": 447,
      "county": 448,
      "sub": 449,
      "tern": 450,
      "ied": 451,
      "had": 452,
      "prov": 453,
      "buil": 454,
      "able": 455,
      "town": 456,
      "located": 457,
      "most": 458,
      "coun": 459,
      "uary": 460,
      "they": 461,
      "main": 462,
      "writ": 463,
      "austr": 464,
      "pos": 465,
      "team": 466,
      "ty": 467,
      "idae": 468,
      "over": 469,
      "ann": 470,
      "ath": 471,
      "way": 472,
      "ely": 473,
      "north": 474,
      "ail": 475,
      "university": 476,
      "bl": 477,
      "mi": 478,
      "band": 479,
      "prof": 480,
      "cy": 481,
      "under": 482,
      "bet": 483,
      "az": 484,
      "mer": 485,
      "series": 486,
      "ger": 487,
      "ional": 488,
      "music": 489,
      "arr": 490,
      "city": 491,
      "ors": 492,
      "cond": 493,
      "ions": 494,
      "ative": 495,
      "colle": 496,
      "ile": 497,
      "cons": 498,
      "cess": 499,
      "gu": 500,
      "curr": 501,
      "ason": 502,
      "men": 503,
      "district": 504,
      "je": 505,
      "austral": 506,
      "hist": 507,
      "commun": 508,
      "ital": 509,
      "iss": 510,
      "time": 511,
      "ious": 512,
      "song": 513,
      "only": 514,
      "during": 515,
      "olog": 516,
      "pop": 517,
      "char": 518,
      "played": 519,
      "soci": 520,
      "thro": 521,
      "tho": 522,
      "ames": 523,
      "ep": 524,
      "ank": 525,
      "group": 526,
      "ted": 527,
      "based": 528,
      "list": 529,
      "west": 530,
      "oper": 531,
      "la": 532,
      "present": 533,
      "well": 534,
      "ters": 535,
      "ague": 536,
      "ular": 537,
      "num": 538,
      "cal": 539,
      "brit": 540,
      "gre": 541,
      "ings": 542,
      "fi": 543,
      "profess": 544,
      "second": 545,
      "champ": 546,
      "war": 547,
      "iver": 548,
      "league": 549,
      "award": 550,
      "ual": 551,
      "public": 552,
      "rel": 553,
      "many": 554,
      "feat": 555,
      "ween": 556,
      "jun": 557,
      "day": 558,
      "my": 559,
      "igin": 560,
      "lar": 561,
      "between": 562,
      "devel": 563,
      "origin": 564,
      "red": 565,
      "name": 566,
      "ica": 567,
      "fol": 568,
      "current": 569,
      "ake": 570,
      "dec": 571,
      "gener": 572,
      "season": 573,
      "try": 574,
      "cial": 575,
      "into": 576,
      "company": 577,
      "tt": 578,
      "more": 579,
      "develop": 580,
      "ident": 581,
      "since": 582,
      "jan": 583,
      "ss": 584,
      "champion": 585,
      "canad": 586,
      "such": 587,
      "when": 588,
      "house": 589,
      "mat": 590,
      "ah": 591,
      "uc": 592,
      "don": 593,
      "some": 594,
      "organ": 595,
      "ific": 596,
      "there": 597,
      "gram": 598,
      "gover": 599,
      "compe": 600,
      "three": 601,
      "met": 602,
      "won": 603,
      "ley": 604,
      "nam": 605,
      "stem": 606,
      "ures": 607,
      "member": 608,
      "trans": 609,
      "four": 610,
      "ry": 611,
      "own": 612,
      "ins": 613,
      "book": 614,
      "tele": 615,
      "station": 616,
      "british": 617,
      "king": 618,
      "os": 619,
      "ctor": 620,
      "bar": 621,
      "ret": 622,
      "where": 623,
      "ina": 624,
      "including": 625,
      "als": 626,
      "will": 627,
      "international": 628,
      "hy": 629,
      "joh": 630,
      "polit": 631,
      "ior": 632,
      "mem": 633,
      "ities": 634,
      "stit": 635,
      "ful": 636,
      "ix": 637,
      "yo": 638,
      "inn": 639,
      "nov": 640,
      "bur": 641,
      "years": 642,
      "vision": 643,
      "ju": 644,
      "system": 645,
      "class": 646,
      "number": 647,
      "mal": 648,
      "ven": 649,
      "came": 650,
      "fore": 651,
      "club": 652,
      "lab": 653,
      "ating": 654,
      "ement": 655,
      "mov": 656,
      "var": 657,
      "ta": 658,
      "tit": 659,
      "leg": 660,
      "held": 661,
      "led": 662,
      "design": 663,
      "show": 664,
      "vol": 665,
      "line": 666,
      "au": 667,
      "urch": 668,
      "sm": 669,
      "vers": 670,
      "genus": 671,
      "john": 672,
      "field": 673,
      "appe": 674,
      "mark": 675,
      "championship": 676,
      "del": 677,
      "uld": 678,
      "best": 679,
      "bel": 680,
      "uro": 681,
      "thern": 682,
      "through": 683,
      "lish": 684,
      "cour": 685,
      "vill": 686,
      "cap": 687,
      "ered": 688,
      "bus": 689,
      "lead": 690,
      "ork": 691,
      "associ": 692,
      "follow": 693,
      "sw": 694,
      "aug": 695,
      "ous": 696,
      "made": 697,
      "ized": 698,
      "lin": 699,
      "cast": 700,
      "york": 701,
      "sur": 702,
      "head": 703,
      "program": 704,
      "har": 705,
      "game": 706,
      "later": 707,
      "histor": 708,
      "sco": 709,
      "call": 710,
      "ste": 711,
      "ym": 712,
      "ash": 713,
      "build": 714,
      "ys": 715,
      "arch": 716,
      "than": 717,
      "appear": 718,
      "net": 719,
      "dep": 720,
      "television": 721,
      "ham": 722,
      "govern": 723,
      "sept": 724,
      "rock": 725,
      "january": 726,
      "august": 727,
      "ii": 728,
      "ons": 729,
      "ek": 730,
      "sup": 731,
      "professional": 732,
      "sk": 733,
      "both": 734,
      "college": 735,
      "represent": 736,
      "uk": 737,
      "que": 738,
      "march": 739,
      "sim": 740,
      "area": 741,
      "indian": 742,
      "octo": 743,
      "september": 744,
      "let": 745,
      "open": 746,
      "election": 747,
      "sci": 748,
      "val": 749,
      "ister": 750,
      "single": 751,
      "enn": 752,
      "ium": 753,
      "october": 754,
      "ward": 755,
      "bers": 756,
      "div": 757,
      "chr": 758,
      "ived": 759,
      "mid": 760,
      "ists": 761,
      "sen": 762,
      "clo": 763,
      "rad": 764,
      "about": 765,
      "plac": 766,
      "jor": 767,
      "run": 768,
      "offic": 769,
      "apr": 770,
      "cts": 771,
      "place": 772,
      "law": 773,
      "july": 774,
      "being": 775,
      "ural": 776,
      "vir": 777,
      "tain": 778,
      "east": 779,
      "ople": 780,
      "mb": 781,
      "wes": 782,
      "church": 783,
      "add": 784,
      "june": 785,
      "until": 786,
      "ute": 787,
      "sever": 788,
      "ob": 789,
      "english": 790,
      "april": 791,
      "ale": 792,
      "ms": 793,
      "people": 794,
      "euro": 795,
      "ird": 796,
      "now": 797,
      "currently": 798,
      "stre": 799,
      "november": 800,
      "ik": 801,
      "published": 802,
      "mil": 803,
      "then": 804,
      "tw": 805,
      "park": 806,
      "long": 807,
      "ury": 808,
      "stru": 809,
      "village": 810,
      "wer": 811,
      "center": 812,
      "board": 813,
      "small": 814,
      "back": 815,
      "rol": 816,
      "ung": 817,
      "became": 818,
      "wal": 819,
      "road": 820,
      "ulation": 821,
      "grap": 822,
      "government": 823,
      "bas": 824,
      "ort": 825,
      "vent": 826,
      "ament": 827,
      "ology": 828,
      "community": 829,
      "tech": 830,
      "cro": 831,
      "though": 832,
      "vie": 833,
      "dif": 834,
      "while": 835,
      "games": 836,
      "december": 837,
      "directed": 838,
      "ives": 839,
      "western": 840,
      "studio": 841,
      "river": 842,
      "pers": 843,
      "several": 844,
      "ier": 845,
      "india": 846,
      "top": 847,
      "rece": 848,
      "named": 849,
      "ibut": 850,
      "served": 851,
      "ise": 852,
      "built": 853,
      "ze": 854,
      "party": 855,
      "europe": 856,
      "ches": 857,
      "rail": 858,
      "island": 859,
      "near": 860,
      "early": 861,
      "major": 862,
      "produced": 863,
      "sign": 864,
      "bre": 865,
      "very": 866,
      "organiz": 867,
      "afr": 868,
      "side": 869,
      "player": 870,
      "australia": 871,
      "view": 872,
      "australian": 873,
      "ude": 874,
      "written": 875,
      "ety": 876,
      "van": 877,
      "centr": 878,
      "pat": 879,
      "ef": 880,
      "star": 881,
      "again": 882,
      "febr": 883,
      "before": 884,
      "february": 885,
      "mill": 886,
      "members": 887,
      "ford": 888,
      "these": 889,
      "formed": 890,
      "wood": 891,
      "ired": 892,
      "lif": 893,
      "corpor": 894,
      "ner": 895,
      "suc": 896,
      "mag": 897,
      "dy": 898,
      "ices": 899,
      "england": 900,
      "educ": 901,
      "track": 902,
      "ange": 903,
      "lon": 904,
      "ling": 905,
      "records": 906,
      "vis": 907,
      "ines": 908,
      "ality": 909,
      "techn": 910,
      "vi": 911,
      "icip": 912,
      "tal": 913,
      "care": 914,
      "auth": 915,
      "ator": 916,
      "mor": 917,
      "stand": 918,
      "set": 919,
      "prim": 920,
      "ically": 921,
      "sou": 922,
      "broad": 923,
      "ext": 924,
      "ama": 925,
      "general": 926,
      "estab": 927,
      "manag": 928,
      "phil": 929,
      "sol": 930,
      "emp": 931,
      "cle": 932,
      "non": 933,
      "cup": 934,
      "hum": 935,
      "called": 936,
      "ey": 937,
      "ata": 938,
      "cil": 939,
      "women": 940,
      "ually": 941,
      "ports": 942,
      "mot": 943,
      "ission": 944,
      "ymp": 945,
      "sum": 946,
      "uss": 947,
      "pal": 948,
      "da": 949,
      "lang": 950,
      "founded": 951,
      "home": 952,
      "ow": 953,
      "tro": 954,
      "president": 955,
      "sa": 956,
      "nia": 957,
      "association": 958,
      "inc": 959,
      "building": 960,
      "author": 961,
      "cut": 962,
      "ival": 963,
      "lim": 964,
      "iness": 965,
      "population": 966,
      "tex": 967,
      "resear": 968,
      "century": 969,
      "country": 970,
      "ved": 971,
      "dav": 972,
      "research": 973,
      "central": 974,
      "depart": 975,
      "ps": 976,
      "cover": 977,
      "six": 978,
      "aro": 979,
      "bal": 980,
      "roy": 981,
      "nat": 982,
      "along": 983,
      "san": 984,
      "event": 985,
      "cali": 986,
      "gy": 987,
      "same": 988,
      "fact": 989,
      "ha": 990,
      "division": 991,
      "ended": 992,
      "following": 993,
      "camp": 994,
      "radio": 995,
      "mic": 996,
      "depend": 997,
      "ont": 998,
      "within": 999,
      "water": 1000,
      "ides": 1001,
      "canadian": 1002,
      "chil": 1003,
      "iam": 1004,
      "director": 1005,
      "ba": 1006,
      "prev": 1007,
      "each": 1008,
      "califor": 1009,
      "council": 1010,
      "ured": 1011,
      "ism": 1012,
      "vo": 1013,
      "business": 1014,
      "eas": 1015,
      "plant": 1016,
      "special": 1017,
      "lit": 1018,
      "ject": 1019,
      "mun": 1020,
      "ney": 1021,
      "would": 1022,
      "california": 1023,
      "ief": 1024,
      "service": 1025,
      "success": 1026,
      "point": 1027,
      "third": 1028,
      "differ": 1029,
      "han": 1030,
      "ri": 1031,
      "vil": 1032,
      "sal": 1033,
      "bill": 1034,
      "include": 1035,
      "dom": 1036,
      "historic": 1037,
      "writer": 1038,
      "eder": 1039,
      "olymp": 1040,
      "debut": 1041,
      "den": 1042,
      "down": 1043,
      "vide": 1044,
      "press": 1045,
      "dan": 1046,
      "contin": 1047,
      "education": 1048,
      "na": 1049,
      "def": 1050,
      "charac": 1051,
      "geor": 1052,
      "previous": 1053,
      "pa": 1054,
      "ino": 1055,
      "local": 1056,
      "start": 1057,
      "compet": 1058,
      "elf": 1059,
      "tre": 1060,
      "london": 1061,
      "chart": 1062,
      "union": 1063,
      "development": 1064,
      "contr": 1065,
      "sc": 1066,
      "ains": 1067,
      "canada": 1068,
      "langu": 1069,
      "hol": 1070,
      "ane": 1071,
      "descr": 1072,
      "gest": 1073,
      "ington": 1074,
      "prote": 1075,
      "ages": 1076,
      "aking": 1077,
      "super": 1078,
      "ones": 1079,
      "hor": 1080,
      "cas": 1081,
      "ility": 1082,
      "mas": 1083,
      "gl": 1084,
      "site": 1085,
      "ician": 1086,
      "alth": 1087,
      "formation": 1088,
      "instit": 1089,
      "fre": 1090,
      "hal": 1091,
      "department": 1092,
      "ency": 1093,
      "street": 1094,
      "mich": 1095,
      "ped": 1096,
      "region": 1097,
      "like": 1098,
      "ible": 1099,
      "moth": 1100,
      "cens": 1101,
      "post": 1102,
      "novel": 1103,
      "comple": 1104,
      "life": 1105,
      "common": 1106,
      "fac": 1107,
      "ats": 1108,
      "pur": 1109,
      "hel": 1110,
      "lished": 1111,
      "established": 1112,
      "fa": 1113,
      "issu": 1114,
      "tour": 1115,
      "ene": 1116,
      "often": 1117,
      "just": 1118,
      "shire": 1119,
      "ning": 1120,
      "bert": 1121,
      "adem": 1122,
      "against": 1123,
      "nav": 1124,
      "host": 1125,
      "title": 1126,
      "using": 1127,
      "vict": 1128,
      "ution": 1129,
      "original": 1130,
      "ctr": 1131,
      "hip": 1132,
      "minis": 1133,
      "history": 1134,
      "final": 1135,
      "gar": 1136,
      "short": 1137,
      "network": 1138,
      "uses": 1139,
      "last": 1140,
      "christ": 1141,
      "position": 1142,
      "winn": 1143,
      "took": 1144,
      "originally": 1145,
      "support": 1146,
      "black": 1147,
      "production": 1148,
      "bi": 1149,
      "plays": 1150,
      "around": 1151,
      "sn": 1152,
      "aft": 1153,
      "northern": 1154,
      "gold": 1155,
      "far": 1156,
      "them": 1157,
      "ple": 1158,
      "order": 1159,
      "created": 1160,
      "census": 1161,
      "german": 1162,
      "ments": 1163,
      "person": 1164,
      "him": 1165,
      "round": 1166,
      "video": 1167,
      "organization": 1168,
      "five": 1169,
      "gin": 1170,
      "ville": 1171,
      "howe": 1172,
      "cult": 1173,
      "come": 1174,
      "ster": 1175,
      "lat": 1176,
      "pass": 1177,
      "week": 1178,
      "wil": 1179,
      "grad": 1180,
      "ler": 1181,
      "sea": 1182,
      "industr": 1183,
      "iving": 1184,
      "independ": 1185,
      "william": 1186,
      "dist": 1187,
      "hand": 1188,
      "epis": 1189,
      "term": 1190,
      "ark": 1191,
      "academ": 1192,
      "ground": 1193,
      "sit": 1194,
      "train": 1195,
      "science": 1196,
      "great": 1197,
      "rac": 1198,
      "mount": 1199,
      "late": 1200,
      "however": 1201,
      "ord": 1202,
      "journ": 1203,
      "feder": 1204,
      "mel": 1205,
      "light": 1206,
      "sof": 1207,
      "anch": 1208,
      "received": 1209,
      "rich": 1210,
      "different": 1211,
      "sil": 1212,
      "ench": 1213,
      "hold": 1214,
      "electr": 1215,
      "footballer": 1216,
      "america": 1217,
      "mc": 1218,
      "ga": 1219,
      "brid": 1220,
      "southern": 1221,
      "get": 1222,
      "features": 1223,
      "blo": 1224,
      "ues": 1225,
      "cum": 1226,
      "ering": 1227,
      "refer": 1228,
      "labor": 1229,
      "story": 1230,
      "uch": 1231,
      "summer": 1232,
      "official": 1233,
      "trad": 1234,
      "recorded": 1235,
      "mit": 1236,
      "aff": 1237,
      "railway": 1238,
      "court": 1239,
      "ified": 1240,
      "live": 1241,
      "career": 1242,
      "describ": 1243,
      "nes": 1244,
      "ana": 1245,
      "various": 1246,
      "hill": 1247,
      "asse": 1248,
      "hon": 1249,
      "engine": 1250,
      "began": 1251,
      "quar": 1252,
      "social": 1253,
      "ize": 1254,
      "pho": 1255,
      "atic": 1256,
      "urb": 1257,
      "itor": 1258,
      "cause": 1259,
      "large": 1260,
      "mult": 1261,
      "els": 1262,
      "demo": 1263,
      "stor": 1264,
      "cept": 1265,
      "constit": 1266,
      "ights": 1267,
      "popular": 1268,
      "aim": 1269,
      "tv": 1270,
      "graph": 1271,
      "burg": 1272,
      "inv": 1273,
      "includes": 1274,
      "included": 1275,
      "anim": 1276,
      "level": 1277,
      "power": 1278,
      "singer": 1279,
      "tra": 1280,
      "consid": 1281,
      "market": 1282,
      "journal": 1283,
      "wa": 1284,
      "yle": 1285,
      "although": 1286,
      "broadcast": 1287,
      "base": 1288,
      "developed": 1289,
      "language": 1290,
      "bank": 1291,
      "coach": 1292,
      "umb": 1293,
      "remain": 1294,
      "owned": 1295,
      "mol": 1296,
      "version": 1297,
      "role": 1298,
      "addition": 1299,
      "win": 1300,
      "ants": 1301,
      "civ": 1302,
      "tor": 1303,
      "ond": 1304,
      "due": 1305,
      "ony": 1306,
      "sequ": 1307,
      "ively": 1308,
      "starr": 1309,
      "bc": 1310,
      "sour": 1311,
      "resp": 1312,
      "premi": 1313,
      "less": 1314,
      "office": 1315,
      "crit": 1316,
      "ately": 1317,
      "green": 1318,
      "competition": 1319,
      "ff": 1320,
      "services": 1321,
      "ida": 1322,
      "flow": 1323,
      "ined": 1324,
      "ided": 1325,
      "release": 1326,
      "italian": 1327,
      "read": 1328,
      "process": 1329,
      "european": 1330,
      "fest": 1331,
      "eastern": 1332,
      "character": 1333,
      "white": 1334,
      "voc": 1335,
      "esh": 1336,
      "artist": 1337,
      "awards": 1338,
      "events": 1339,
      "ave": 1340,
      "pen": 1341,
      "loy": 1342,
      "wing": 1343,
      "municip": 1344,
      "mad": 1345,
      "among": 1346,
      "kingdom": 1347,
      "incorpor": 1348,
      "beet": 1349,
      "politician": 1350,
      "ref": 1351,
      "tourn": 1352,
      "free": 1353,
      "french": 1354,
      "di": 1355,
      "sports": 1356,
      "ft": 1357,
      "see": 1358,
      "ences": 1359,
      "ison": 1360,
      "ben": 1361,
      "ka": 1362,
      "stat": 1363,
      "mis": 1364,
      "france": 1365,
      "ime": 1366,
      "priv": 1367,
      "allow": 1368,
      "media": 1369,
      "hall": 1370,
      "mac": 1371,
      "web": 1372,
      "akes": 1373,
      "lake": 1374,
      "aland": 1375,
      "ago": 1376,
      "label": 1377,
      "exper": 1378,
      "royal": 1379,
      "pan": 1380,
      "flor": 1381,
      "cell": 1382,
      "ken": 1383,
      "works": 1384,
      "independent": 1385,
      "ker": 1386,
      "enter": 1387,
      "posed": 1388,
      "township": 1389,
      "itar": 1390,
      "fict": 1391,
      "province": 1392,
      "grand": 1393,
      "test": 1394,
      "model": 1395,
      "jap": 1396,
      "songs": 1397,
      "ting": 1398,
      "sl": 1399,
      "activ": 1400,
      "control": 1401,
      "race": 1402,
      "hot": 1403,
      "chann": 1404,
      "marine": 1405,
      "action": 1406,
      "squ": 1407,
      "mix": 1408,
      "wide": 1409,
      "los": 1410,
      "death": 1411,
      "listed": 1412,
      "sold": 1413,
      "political": 1414,
      "equ": 1415,
      "society": 1416,
      "iod": 1417,
      "comed": 1418,
      "civil": 1419,
      "times": 1420,
      "playing": 1421,
      "dren": 1422,
      "reach": 1423,
      "constru": 1424,
      "rug": 1425,
      "coast": 1426,
      "children": 1427,
      "described": 1428,
      "spr": 1429,
      "africa": 1430,
      "exp": 1431,
      "ays": 1432,
      "gress": 1433,
      "david": 1434,
      "fun": 1435,
      "democr": 1436,
      "invol": 1437,
      "seven": 1438,
      "cture": 1439,
      "james": 1440,
      "placed": 1441,
      "gn": 1442,
      "commission": 1443,
      "championships": 1444,
      "japan": 1445,
      "lu": 1446,
      "ming": 1447,
      "isl": 1448,
      "aud": 1449,
      "teen": 1450,
      "ught": 1451,
      "elected": 1452,
      "type": 1453,
      "hop": 1454,
      "health": 1455,
      "conne": 1456,
      "ross": 1457,
      "chief": 1458,
      "army": 1459,
      "appl": 1460,
      "previously": 1461,
      "batt": 1462,
      "zealand": 1463,
      "sound": 1464,
      "ric": 1465,
      "olympics": 1466,
      "mass": 1467,
      "uter": 1468,
      "students": 1469,
      "scott": 1470,
      "ren": 1471,
      "angel": 1472,
      "color": 1473,
      "typ": 1474,
      "cir": 1475,
      "miss": 1476,
      "ilar": 1477,
      "rest": 1478,
      "moder": 1479,
      "human": 1480,
      "roman": 1481,
      "tar": 1482,
      "comb": 1483,
      "commer": 1484,
      "competed": 1485,
      "forman": 1486,
      "ckey": 1487,
      "designed": 1488,
      "muse": 1489,
      "ipp": 1490,
      "glo": 1491,
      "iven": 1492,
      "key": 1493,
      "gree": 1494,
      "chang": 1495,
      "bay": 1496,
      "actor": 1497,
      "ivid": 1498,
      "largest": 1499,
      "ket": 1500,
      "ient": 1501,
      "ves": 1502,
      "ctive": 1503,
      "appro": 1504,
      "similar": 1505,
      "assemb": 1506,
      "beetle": 1507,
      "anc": 1508,
      "professor": 1509,
      "period": 1510,
      "hard": 1511,
      "wash": 1512,
      "incorporated": 1513,
      "ram": 1514,
      "jer": 1515,
      "parli": 1516,
      "ense": 1517,
      "performan": 1518,
      "wind": 1519,
      "exe": 1520,
      "lands": 1521,
      "kar": 1522,
      "milit": 1523,
      "tournament": 1524,
      "ks": 1525,
      "accord": 1526,
      "bridge": 1527,
      "econ": 1528,
      "ble": 1529,
      "full": 1530,
      "assembly": 1531,
      "minister": 1532,
      "individ": 1533,
      "parliament": 1534,
      "fish": 1535,
      "thom": 1536,
      "icket": 1537,
      "econom": 1538,
      "books": 1539,
      "ya": 1540,
      "import": 1541,
      "flu": 1542,
      "magaz": 1543,
      "museum": 1544,
      "ron": 1545,
      "ese": 1546,
      "box": 1547,
      "young": 1548,
      "anno": 1549,
      "foc": 1550,
      "arts": 1551,
      "active": 1552,
      "million": 1553,
      "films": 1554,
      "texas": 1555,
      "because": 1556,
      "dig": 1557,
      "sett": 1558,
      "tradition": 1559,
      "rugby": 1560,
      "register": 1561,
      "guitar": 1562,
      "init": 1563,
      "george": 1564,
      "pod": 1565,
      "requ": 1566,
      "virgin": 1567,
      "fif": 1568,
      "sex": 1569,
      "cu": 1570,
      "force": 1571,
      "ireland": 1572,
      "ko": 1573,
      "aper": 1574,
      "channel": 1575,
      "ently": 1576,
      "cop": 1577,
      "result": 1578,
      "return": 1579,
      "ough": 1580,
      "yl": 1581,
      "african": 1582,
      "sam": 1583,
      "tle": 1584,
      "sele": 1585,
      "individual": 1586,
      "albums": 1587,
      "ched": 1588,
      "continu": 1589,
      "information": 1590,
      "hockey": 1591,
      "festival": 1592,
      "russ": 1593,
      "did": 1594,
      "astro": 1595,
      "technology": 1596,
      "institute": 1597,
      "cat": 1598,
      "sat": 1599,
      "tries": 1600,
      "dle": 1601,
      "gian": 1602,
      "jud": 1603,
      "theater": 1604,
      "starring": 1605,
      "body": 1606,
      "moved": 1607,
      "review": 1608,
      "ctions": 1609,
      "considered": 1610,
      "bul": 1611,
      "mart": 1612,
      "ode": 1613,
      "project": 1614,
      "avail": 1615,
      "ith": 1616,
      "commit": 1617,
      "imes": 1618,
      "hab": 1619,
      "ellow": 1620,
      "terr": 1621,
      "vari": 1622,
      "ded": 1623,
      "died": 1624,
      "news": 1625,
      "even": 1626,
      "snail": 1627,
      "mur": 1628,
      "left": 1629,
      "according": 1630,
      "manu": 1631,
      "che": 1632,
      "proper": 1633,
      "pot": 1634,
      "represented": 1635,
      "execut": 1636,
      "fort": 1637,
      "direct": 1638,
      "appeared": 1639,
      "ged": 1640,
      "sto": 1641,
      "gradu": 1642,
      "rid": 1643,
      "uck": 1644,
      "those": 1645,
      "ael": 1646,
      "teams": 1647,
      "istan": 1648,
      "systems": 1649,
      "scot": 1650,
      "ula": 1651,
      "big": 1652,
      "producer": 1653,
      "germany": 1654,
      "modern": 1655,
      "washington": 1656,
      "olic": 1657,
      "phys": 1658,
      "cho": 1659,
      "lus": 1660,
      "card": 1661,
      "edition": 1662,
      "dev": 1663,
      "clos": 1664,
      "dut": 1665,
      "effe": 1666,
      "victor": 1667,
      "places": 1668,
      "jack": 1669,
      "ome": 1670,
      "military": 1671,
      "basket": 1672,
      "intro": 1673,
      "ological": 1674,
      "announ": 1675,
      "pain": 1676,
      "distribut": 1677,
      "mary": 1678,
      "self": 1679,
      "related": 1680,
      "icular": 1681,
      "ston": 1682,
      "put": 1683,
      "available": 1684,
      "ai": 1685,
      "another": 1686,
      "adminis": 1687,
      "sey": 1688,
      "concer": 1689,
      "bass": 1690,
      "commercial": 1691,
      "cogn": 1692,
      "penn": 1693,
      "having": 1694,
      "dam": 1695,
      "ances": 1696,
      "featured": 1697,
      "still": 1698,
      "brand": 1699,
      "worked": 1700,
      "stars": 1701,
      "comedy": 1702,
      "ico": 1703,
      "formerly": 1704,
      "fur": 1705,
      "ls": 1706,
      "plat": 1707,
      "row": 1708,
      "secre": 1709,
      "space": 1710,
      "vin": 1711,
      "usually": 1712,
      "ained": 1713,
      "ges": 1714,
      "aceae": 1715,
      "syn": 1716,
      "rap": 1717,
      "opened": 1718,
      "uis": 1719,
      "ius": 1720,
      "introdu": 1721,
      "docum": 1722,
      "drama": 1723,
      "native": 1724,
      "style": 1725,
      "brother": 1726,
      "standard": 1727,
      "administr": 1728,
      "fall": 1729,
      "night": 1730,
      "meth": 1731,
      "singles": 1732,
      "ru": 1733,
      "ris": 1734,
      "medal": 1735,
      "somet": 1736,
      "middle": 1737,
      "senior": 1738,
      "invest": 1739,
      "data": 1740,
      "ja": 1741,
      "wales": 1742,
      "michael": 1743,
      "ena": 1744,
      "good": 1745,
      "syl": 1746,
      "navy": 1747,
      "ran": 1748,
      "ota": 1749,
      "cath": 1750,
      "areas": 1751,
      "retired": 1752,
      "cam": 1753,
      "stone": 1754,
      "nomin": 1755,
      "ians": 1756,
      "face": 1757,
      "xim": 1758,
      "carol": 1759,
      "private": 1760,
      "pract": 1761,
      "magazine": 1762,
      "fly": 1763,
      "started": 1764,
      "fund": 1765,
      "command": 1766,
      "basketball": 1767,
      "fire": 1768,
      "ona": 1769,
      "real": 1770,
      "craft": 1771,
      "archite": 1772,
      "ery": 1773,
      "scre": 1774,
      "tware": 1775,
      "scor": 1776,
      "hen": 1777,
      "software": 1778,
      "make": 1779,
      "laun": 1780,
      "robert": 1781,
      "mater": 1782,
      "ensive": 1783,
      "cd": 1784,
      "rul": 1785,
      "oh": 1786,
      "tur": 1787,
      "ala": 1788,
      "what": 1789,
      "tom": 1790,
      "chair": 1791,
      "teach": 1792,
      "ness": 1793,
      "ald": 1794,
      "manufact": 1795,
      "recent": 1796,
      "republic": 1797,
      "bis": 1798,
      "contribut": 1799,
      "claim": 1800,
      "management": 1801,
      "anal": 1802,
      "total": 1803,
      "tress": 1804,
      "half": 1805,
      "pun": 1806,
      "countries": 1807,
      "ental": 1808,
      "fourth": 1809,
      "hi": 1810,
      "bon": 1811,
      "ping": 1812,
      "right": 1813,
      "municipality": 1814,
      "rank": 1815,
      "medical": 1816,
      "successful": 1817,
      "hit": 1818,
      "sometimes": 1819,
      "ications": 1820,
      "gir": 1821,
      "lad": 1822,
      "academy": 1823,
      "given": 1824,
      "lic": 1825,
      "change": 1826,
      "schools": 1827,
      "hood": 1828,
      "every": 1829,
      "publish": 1830,
      "ially": 1831,
      "incre": 1832,
      "mand": 1833,
      "tee": 1834,
      "arily": 1835,
      "range": 1836,
      "icle": 1837,
      "particular": 1838,
      "computer": 1839,
      "virginia": 1840,
      "cost": 1841,
      "industry": 1842,
      "paul": 1843,
      "much": 1844,
      "ned": 1845,
      "become": 1846,
      "exist": 1847,
      "bs": 1848,
      "case": 1849,
      "making": 1850,
      "pit": 1851,
      "mont": 1852,
      "flo": 1853,
      "recogn": 1854,
      "cand": 1855,
      "mission": 1856,
      "wall": 1857,
      "across": 1858,
      "peter": 1859,
      "christian": 1860,
      "florida": 1861,
      "ny": 1862,
      "iple": 1863,
      "compan": 1864,
      "athlet": 1865,
      "bed": 1866,
      "dro": 1867,
      "gastro": 1868,
      "our": 1869,
      "envir": 1870,
      "iate": 1871,
      "hind": 1872,
      "wat": 1873,
      "environ": 1874,
      "ication": 1875,
      "cred": 1876,
      "anth": 1877,
      "ender": 1878,
      "ara": 1879,
      "appoint": 1880,
      "fem": 1881,
      "valley": 1882,
      "winning": 1883,
      "particip": 1884,
      "cross": 1885,
      "sun": 1886,
      "azz": 1887,
      "aker": 1888,
      "blue": 1889,
      "ply": 1890,
      "mex": 1891,
      "material": 1892,
      "access": 1893,
      "hout": 1894,
      "bow": 1895,
      "forms": 1896,
      "federal": 1897,
      "mollus": 1898,
      "method": 1899,
      "era": 1900,
      "atives": 1901,
      "commonly": 1902,
      "rob": 1903,
      "neigh": 1904,
      "important": 1905,
      "neighbor": 1906,
      "contains": 1907,
      "ability": 1908,
      "shar": 1909,
      "went": 1910,
      "report": 1911,
      "poss": 1912,
      "announced": 1913,
      "lor": 1914,
      "tam": 1915,
      "ends": 1916,
      "fri": 1917,
      "thomas": 1918,
      "working": 1919,
      "metro": 1920,
      "liter": 1921,
      "unincorporated": 1922,
      "lot": 1923,
      "confer": 1924,
      "month": 1925,
      "secret": 1926,
      "va": 1927,
      "consist": 1928,
      "sain": 1929,
      "plan": 1930,
      "aired": 1931,
      "turn": 1932,
      "stage": 1933,
      "word": 1934,
      "bell": 1935,
      "ray": 1936,
      "seat": 1937,
      "ids": 1938,
      "operated": 1939,
      "libr": 1940,
      "ei": 1941,
      "forest": 1942,
      "ali": 1943,
      "actress": 1944,
      "others": 1945,
      "episode": 1946,
      "psy": 1947,
      "trav": 1948,
      "ughout": 1949,
      "throughout": 1950,
      "ox": 1951,
      "secur": 1952,
      "baseball": 1953,
      "heav": 1954,
      "gastropod": 1955,
      "cher": 1956,
      "serves": 1957,
      "catholic": 1958,
      "situ": 1959,
      "china": 1960,
      "hosp": 1961,
      "photo": 1962,
      "atl": 1963,
      "programs": 1964,
      "limited": 1965,
      "document": 1966,
      "via": 1967,
      "onic": 1968,
      "racing": 1969,
      "billboard": 1970,
      "constitu": 1971,
      "democratic": 1972,
      "itz": 1973,
      "tracks": 1974,
      "stad": 1975,
      "ateg": 1976,
      "performance": 1977,
      "separ": 1978,
      "chem": 1979,
      "sis": 1980,
      "ership": 1981,
      "ipt": 1982,
      "micro": 1983,
      "richard": 1984,
      "nex": 1985,
      "ars": 1986,
      "phy": 1987,
      "brown": 1988,
      "employ": 1989,
      "tem": 1990,
      "toge": 1991,
      "screen": 1992,
      "mith": 1993,
      "covered": 1994,
      "cricket": 1995,
      "parish": 1996,
      "headquar": 1997,
      "cing": 1998,
      "interest": 1999,
      "together": 2000,
      "columb": 2001,
      "living": 2002,
      "natural": 2003,
      "hospital": 2004,
      "chic": 2005,
      "vania": 2006,
      "ination": 2007,
      "performed": 2008,
      "ples": 2009,
      "scr": 2010,
      "coming": 2011,
      "louis": 2012,
      "acqu": 2013,
      "ification": 2014,
      "cit": 2015,
      "acy": 2016,
      "log": 2017,
      "front": 2018,
      "auto": 2019,
      "fiction": 2020,
      "ario": 2021,
      "annual": 2022,
      "elections": 2023,
      "kore": 2024,
      "pac": 2025,
      "wis": 2026,
      "legisl": 2027,
      "executive": 2028,
      "cel": 2029,
      "ending": 2030,
      "father": 2031,
      "carolina": 2032,
      "musical": 2033,
      "metal": 2034,
      "capital": 2035,
      "scient": 2036,
      "hib": 2037,
      "beg": 2038,
      "mir": 2039,
      "eight": 2040,
      "editor": 2041,
      "lear": 2042,
      "frank": 2043,
      "kill": 2044,
      "italy": 2045,
      "reser": 2046,
      "py": 2047,
      "ization": 2048,
      "police": 2049,
      "environment": 2050,
      "ample": 2051,
      "battle": 2052,
      "liber": 2053,
      "bio": 2054,
      "whe": 2055,
      "chan": 2056,
      "feature": 2057,
      "sylvania": 2058,
      "iger": 2059,
      "peak": 2060,
      "termin": 2061,
      "protein": 2062,
      "aur": 2063,
      "regular": 2064,
      "primary": 2065,
      "qual": 2066,
      "lie": 2067,
      "influ": 2068,
      "ari": 2069,
      "pennsylvania": 2070,
      "wid": 2071,
      "governor": 2072,
      "ella": 2073,
      "rights": 2074,
      "irish": 2075,
      "assist": 2076,
      "honor": 2077,
      "food": 2078,
      "entertain": 2079,
      "inct": 2080,
      "soc": 2081,
      "players": 2082,
      "few": 2083,
      "primarily": 2084,
      "gon": 2085,
      "ried": 2086,
      "ength": 2087,
      "consists": 2088,
      "wards": 2089,
      "onto": 2090,
      "igan": 2091,
      "columbia": 2092,
      "atlant": 2093,
      "ink": 2094,
      "angeles": 2095,
      "chicago": 2096,
      "little": 2097,
      "prior": 2098,
      "digital": 2099,
      "cul": 2100,
      "lost": 2101,
      "master": 2102,
      "committee": 2103,
      "ener": 2104,
      "bat": 2105,
      "rew": 2106,
      "ificant": 2107,
      "room": 2108,
      "take": 2109,
      "bir": 2110,
      "berg": 2111,
      "anti": 2112,
      "operation": 2113,
      "mountain": 2114,
      "tic": 2115,
      "meet": 2116,
      "serving": 2117,
      "significant": 2118,
      "need": 2119,
      "without": 2120,
      "aken": 2121,
      "love": 2122,
      "relig": 2123,
      "graphy": 2124,
      "ably": 2125,
      "bour": 2126,
      "gene": 2127,
      "transport": 2128,
      "scotland": 2129,
      "fig": 2130,
      "pak": 2131,
      "unit": 2132,
      "icated": 2133,
      "nine": 2134,
      "could": 2135,
      "jects": 2136,
      "charles": 2137,
      "altern": 2138,
      "jazz": 2139,
      "sand": 2140,
      "islands": 2141,
      "ever": 2142,
      "conserv": 2143,
      "candid": 2144,
      "asia": 2145,
      "training": 2146,
      "scottish": 2147,
      "defin": 2148,
      "bird": 2149,
      "ni": 2150,
      "lee": 2151,
      "franc": 2152,
      "airs": 2153,
      "sport": 2154,
      "usa": 2155,
      "recording": 2156,
      "eth": 2157,
      "polic": 2158,
      "provides": 2159,
      "legal": 2160,
      "greg": 2161,
      "atory": 2162,
      "joined": 2163,
      "las": 2164,
      "ature": 2165,
      "ada": 2166,
      "mes": 2167,
      "smith": 2168,
      "boy": 2169,
      "inst": 2170,
      "reached": 2171,
      "days": 2172,
      "gard": 2173,
      "sus": 2174,
      "tery": 2175,
      "compo": 2176,
      "dutch": 2177,
      "lies": 2178,
      "sell": 2179,
      "bit": 2180,
      "study": 2181,
      "sid": 2182,
      "borough": 2183,
      "notable": 2184,
      "gas": 2185,
      "chester": 2186,
      "erous": 2187,
      "movement": 2188,
      "leading": 2189,
      "fan": 2190,
      "haw": 2191,
      "code": 2192,
      "section": 2193,
      "parts": 2194,
      "francis": 2195,
      "rain": 2196,
      "drum": 2197,
      "aircraft": 2198,
      "compil": 2199,
      "stream": 2200,
      "involved": 2201,
      "conference": 2202,
      "emer": 2203,
      "respons": 2204,
      "route": 2205,
      "today": 2206,
      "alex": 2207,
      "print": 2208,
      "generally": 2209,
      "lower": 2210,
      "hap": 2211,
      "ceram": 2212,
      "aven": 2213,
      "regional": 2214,
      "ators": 2215,
      "achie": 2216,
      "studies": 2217,
      "entertainment": 2218,
      "aut": 2219,
      "upon": 2220,
      "resid": 2221,
      "ov": 2222,
      "format": 2223,
      "groups": 2224,
      "cin": 2225,
      "leader": 2226,
      "ohio": 2227,
      "ique": 2228,
      "forces": 2229,
      "ify": 2230,
      "domin": 2231,
      "stadium": 2232,
      "hur": 2233,
      "pred": 2234,
      "jose": 2235,
      "example": 2236,
      "subsequ": 2237,
      "ax": 2238,
      "aged": 2239,
      "ado": 2240,
      "wan": 2241,
      "roles": 2242,
      "dor": 2243,
      "nel": 2244,
      "congress": 2245,
      "philipp": 2246,
      "erson": 2247,
      "mob": 2248,
      "aries": 2249,
      "itive": 2250,
      "suburb": 2251,
      "pict": 2252,
      "ola": 2253,
      "azil": 2254,
      "construction": 2255,
      "library": 2256,
      "next": 2257,
      "bang": 2258,
      "match": 2259,
      "cidae": 2260,
      "tail": 2261,
      "ised": 2262,
      "date": 2263,
      "gia": 2264,
      "issues": 2265,
      "bad": 2266,
      "kil": 2267,
      "nations": 2268,
      "strum": 2269,
      "signed": 2270,
      "text": 2271,
      "soccer": 2272,
      "complex": 2273,
      "harr": 2274,
      "adel": 2275,
      "shows": 2276,
      "ontario": 2277,
      "commune": 2278,
      "appointed": 2279,
      "artists": 2280,
      "span": 2281,
      "treat": 2282,
      "songwriter": 2283,
      "folk": 2284,
      "corporation": 2285,
      "launched": 2286,
      "ns": 2287,
      "movie": 2288,
      "stock": 2289,
      "newsp": 2290,
      "associated": 2291,
      "continued": 2292,
      "ask": 2293,
      "introduced": 2294,
      "whose": 2295,
      "awarded": 2296,
      "theast": 2297,
      "provide": 2298,
      "habit": 2299,
      "attack": 2300,
      "variety": 2301,
      "odes": 2302,
      "fle": 2303,
      "strong": 2304,
      "inal": 2305,
      "running": 2306,
      "mp": 2307,
      "brook": 2308,
      "ways": 2309,
      "you": 2310,
      "replaced": 2311,
      "once": 2312,
      "arg": 2313,
      "provid": 2314,
      "traditional": 2315,
      "further": 2316,
      "referred": 2317,
      "companies": 2318,
      "uel": 2319,
      "rick": 2320,
      "instrum": 2321,
      "isto": 2322,
      "kr": 2323,
      "branch": 2324,
      "fellow": 2325,
      "silver": 2326,
      "trade": 2327,
      "bud": 2328,
      "nis": 2329,
      "pect": 2330,
      "buildings": 2331,
      "ses": 2332,
      "closed": 2333,
      "gal": 2334,
      "past": 2335,
      "arm": 2336,
      "how": 2337,
      "finished": 2338,
      "nd": 2339,
      "tax": 2340,
      "viet": 2341,
      "culture": 2342,
      "security": 2343,
      "kent": 2344,
      "iment": 2345,
      "ilities": 2346,
      "ush": 2347,
      "bron": 2348,
      "dance": 2349,
      "contest": 2350,
      "foundation": 2351,
      "collection": 2352,
      "wel": 2353,
      "oney": 2354,
      "dun": 2355,
      "ll": 2356,
      "pay": 2357,
      "asian": 2358,
      "condu": 2359,
      "aves": 2360,
      "mainly": 2361,
      "fm": 2362,
      "iff": 2363,
      "republ": 2364,
      "tri": 2365,
      "spir": 2366,
      "highest": 2367,
      "burn": 2368,
      "pul": 2369,
      "clar": 2370,
      "bound": 2371,
      "standing": 2372,
      "motor": 2373,
      "inois": 2374,
      "sent": 2375,
      "ints": 2376,
      "block": 2377,
      "pakistan": 2378,
      "fair": 2379,
      "amb": 2380,
      "ets": 2381,
      "products": 2382,
      "cycl": 2383,
      "wy": 2384,
      "illinois": 2385,
      "constituency": 2386,
      "online": 2387,
      "ansas": 2388,
      "either": 2389,
      "ceramby": 2390,
      "brazil": 2391,
      "swed": 2392,
      "aign": 2393,
      "junior": 2394,
      "saint": 2395,
      "specific": 2396,
      "ows": 2397,
      "founder": 2398,
      "approxim": 2399,
      "legislative": 2400,
      "utes": 2401,
      "weight": 2402,
      "ored": 2403,
      "ults": 2404,
      "earth": 2405,
      "creek": 2406,
      "cerambycidae": 2407,
      "ua": 2408,
      "princ": 2409,
      "vert": 2410,
      "winter": 2411,
      "tered": 2412,
      "bury": 2413,
      "ti": 2414,
      "hour": 2415,
      "dest": 2416,
      "express": 2417,
      "minor": 2418,
      "castle": 2419,
      "spring": 2420,
      "fail": 2421,
      "tel": 2422,
      "sure": 2423,
      "mond": 2424,
      "ience": 2425,
      "lyn": 2426,
      "beach": 2427,
      "perform": 2428,
      "fifth": 2429,
      "psych": 2430,
      "saf": 2431,
      "meters": 2432,
      "situated": 2433,
      "ban": 2434,
      "gs": 2435,
      "iana": 2436,
      "contain": 2437,
      "pacific": 2438,
      "republican": 2439,
      "die": 2440,
      "names": 2441,
      "ential": 2442,
      "ira": 2443,
      "lines": 2444,
      "ume": 2445,
      "acts": 2446,
      "pie": 2447,
      "tan": 2448,
      "god": 2449,
      "thr": 2450,
      "thing": 2451,
      "ising": 2452,
      "ende": 2453,
      "expl": 2454,
      "operations": 2455,
      "featuring": 2456,
      "neighborhood": 2457,
      "mach": 2458,
      "historical": 2459,
      "runs": 2460,
      "officer": 2461,
      "taken": 2462,
      "border": 2463,
      "grow": 2464,
      "added": 2465,
      "child": 2466,
      "cab": 2467,
      "length": 2468,
      "ements": 2469,
      "dney": 2470,
      "ano": 2471,
      "indones": 2472,
      "campaign": 2473,
      "jim": 2474,
      "youth": 2475,
      "function": 2476,
      "secretary": 2477,
      "ita": 2478,
      "olf": 2479,
      "woman": 2480,
      "travel": 2481,
      "lives": 2482,
      "colon": 2483,
      "jersey": 2484,
      "icles": 2485,
      "adap": 2486,
      "spo": 2487,
      "inte": 2488,
      "finan": 2489,
      "wild": 2490,
      "sar": 2491,
      "manager": 2492,
      "fc": 2493,
      "agon": 2494,
      "ceed": 2495,
      "promo": 2496,
      "mollusk": 2497,
      "ghan": 2498,
      "must": 2499,
      "seen": 2500,
      "famous": 2501,
      "approximately": 2502,
      "bac": 2503,
      "rev": 2504,
      "surv": 2505,
      "mexico": 2506,
      "energy": 2507,
      "affil": 2508,
      "bol": 2509,
      "amo": 2510,
      "advent": 2511,
      "writing": 2512,
      "musician": 2513,
      "appearance": 2514,
      "engineering": 2515,
      "gun": 2516,
      "degree": 2517,
      "igr": 2518,
      "matches": 2519,
      "baron": 2520,
      "queens": 2521,
      "georgia": 2522,
      "michigan": 2523,
      "fut": 2524,
      "numerous": 2525,
      "stead": 2526,
      "bbc": 2527,
      "jam": 2528,
      "thor": 2529,
      "enc": 2530,
      "least": 2531,
      "organized": 2532,
      "ational": 2533,
      "does": 2534,
      "poly": 2535,
      "issue": 2536,
      "oce": 2537,
      "multiple": 2538,
      "global": 2539,
      "porary": 2540,
      "representatives": 2541,
      "gor": 2542,
      "mean": 2543,
      "academic": 2544,
      "mixed": 2545,
      "female": 2546,
      "twent": 2547,
      "source": 2548,
      "martin": 2549,
      "chap": 2550,
      "promot": 2551,
      "senate": 2552,
      "ky": 2553,
      "mostly": 2554,
      "multi": 2555,
      "dio": 2556,
      "ander": 2557,
      "composed": 2558,
      "phen": 2559,
      "wrest": 2560,
      "trop": 2561,
      "nas": 2562,
      "collabor": 2563,
      "close": 2564,
      "saw": 2565,
      "location": 2566,
      "belong": 2567,
      "nominated": 2568,
      "worth": 2569,
      "olympic": 2570,
      "profit": 2571,
      "solo": 2572,
      "fic": 2573,
      "nick": 2574,
      "vice": 2575,
      "stan": 2576,
      "cape": 2577,
      "subfamily": 2578,
      "seasons": 2579,
      "sir": 2580,
      "structure": 2581,
      "barr": 2582,
      "wealth": 2583,
      "electric": 2584,
      "categ": 2585,
      "sel": 2586,
      "abo": 2587,
      "frequ": 2588,
      "typically": 2589,
      "bishop": 2590,
      "tamil": 2591,
      "cust": 2592,
      "ini": 2593,
      "aver": 2594,
      "pack": 2595,
      "presents": 2596,
      "soft": 2597,
      "empt": 2598,
      "core": 2599,
      "break": 2600,
      "henry": 2601,
      "enced": 2602,
      "icts": 2603,
      "load": 2604,
      "kin": 2605,
      "rome": 2606,
      "attr": 2607,
      "lord": 2608,
      "ull": 2609,
      "sydney": 2610,
      "cert": 2611,
      "britain": 2612,
      "spanish": 2613,
      "niger": 2614,
      "mod": 2615,
      "ties": 2616,
      "entire": 2617,
      "provin": 2618,
      "course": 2619,
      "miles": 2620,
      "defense": 2621,
      "condition": 2622,
      "uz": 2623,
      "thus": 2624,
      "aster": 2625,
      "wife": 2626,
      "regard": 2627,
      "cultural": 2628,
      "cially": 2629,
      "ji": 2630,
      "ving": 2631,
      "vot": 2632,
      "inae": 2633,
      "episodes": 2634,
      "property": 2635,
      "graduate": 2636,
      "fast": 2637,
      "sor": 2638,
      "wro": 2639,
      "achus": 2640,
      "followed": 2641,
      "bourne": 2642,
      "aka": 2643,
      "find": 2644,
      "secondary": 2645,
      "relation": 2646,
      "anda": 2647,
      "never": 2648,
      "maintain": 2649,
      "iel": 2650,
      "lay": 2651,
      "zone": 2652,
      "ati": 2653,
      "malays": 2654,
      "organizations": 2655,
      "japanese": 2656,
      "mr": 2657,
      "nic": 2658,
      "astr": 2659,
      "meas": 2660,
      "etts": 2661,
      "guitarist": 2662,
      "cele": 2663,
      "za": 2664,
      "clin": 2665,
      "avenue": 2666,
      "iated": 2667,
      "path": 2668,
      "ring": 2669,
      "trial": 2670,
      "away": 2671,
      "massachus": 2672,
      "massachusetts": 2673,
      "mine": 2674,
      "zo": 2675,
      "eme": 2676,
      "pap": 2677,
      "connect": 2678,
      "pet": 2679,
      "crim": 2680,
      "ships": 2681,
      "squad": 2682,
      "joseph": 2683,
      "ases": 2684,
      "itch": 2685,
      "selected": 2686,
      "uble": 2687,
      "holds": 2688,
      "dark": 2689,
      "stories": 2690,
      "comic": 2691,
      "drug": 2692,
      "changed": 2693,
      "convent": 2694,
      "goal": 2695,
      "student": 2696,
      "plants": 2697,
      "ami": 2698,
      "neg": 2699,
      "policy": 2700,
      "draft": 2701,
      "occur": 2702,
      "designated": 2703,
      "stop": 2704,
      "veh": 2705,
      "inese": 2706,
      "characters": 2707,
      "exam": 2708,
      "contem": 2709,
      "transfer": 2710,
      "refers": 2711,
      "recognized": 2712,
      "purch": 2713,
      "stev": 2714,
      "wrote": 2715,
      "pil": 2716,
      "sph": 2717,
      "proble": 2718,
      "guard": 2719,
      "politan": 2720,
      "educational": 2721,
      "burgh": 2722,
      "endemic": 2723,
      "worldwide": 2724,
      "certain": 2725,
      "sab": 2726,
      "ato": 2727,
      "promin": 2728,
      "heavy": 2729,
      "tun": 2730,
      "itory": 2731,
      "mother": 2732,
      "inning": 2733,
      "nar": 2734,
      "queen": 2735,
      "broadcasting": 2736,
      "integr": 2737,
      "hu": 2738,
      "staff": 2739,
      "minnes": 2740,
      "igned": 2741,
      "operating": 2742,
      "complete": 2743,
      "warr": 2744,
      "imp": 2745,
      "returned": 2746,
      "chall": 2747,
      "fox": 2748,
      "foreign": 2749,
      "completed": 2750,
      "economic": 2751,
      "minnesota": 2752,
      "camer": 2753,
      "pose": 2754,
      "resour": 2755,
      "compar": 2756,
      "rog": 2757,
      "firm": 2758,
      "daugh": 2759,
      "licens": 2760,
      "concept": 2761,
      "rang": 2762,
      "asing": 2763,
      "mayor": 2764,
      "viol": 2765,
      "rd": 2766,
      "espe": 2767,
      "plann": 2768,
      "vocal": 2769,
      "itself": 2770,
      "justice": 2771,
      "gall": 2772,
      "tree": 2773,
      "sha": 2774,
      "anton": 2775,
      "tennis": 2776,
      "lier": 2777,
      "compilation": 2778,
      "mobile": 2779,
      "oil": 2780,
      "chinese": 2781,
      "hosted": 2782,
      "premier": 2783,
      "comes": 2784,
      "article": 2785,
      "occup": 2786,
      "premiered": 2787,
      "especially": 2788,
      "speed": 2789,
      "financial": 2790,
      "sri": 2791,
      "mouth": 2792,
      "rules": 2793,
      "missour": 2794,
      "urban": 2795,
      "kel": 2796,
      "rose": 2797,
      "izing": 2798,
      "desp": 2799,
      "struct": 2800,
      "industrial": 2801,
      "chairman": 2802,
      "newspaper": 2803,
      "missouri": 2804,
      "defe": 2805,
      "beth": 2806,
      "points": 2807,
      "map": 2808,
      "prize": 2809,
      "pow": 2810,
      "farm": 2811,
      "victoria": 2812,
      "pi": 2813,
      "amed": 2814,
      "prison": 2815,
      "dress": 2816,
      "sixth": 2817,
      "ather": 2818,
      "crime": 2819,
      "majority": 2820,
      "rup": 2821,
      "utions": 2822,
      "oldest": 2823,
      "highway": 2824,
      "personal": 2825,
      "cular": 2826,
      "heart": 2827,
      "izes": 2828,
      "trust": 2829,
      "higher": 2830,
      "railroad": 2831,
      "practice": 2832,
      "lan": 2833,
      "paper": 2834,
      "look": 2835,
      "studios": 2836,
      "thur": 2837,
      "rey": 2838,
      "revol": 2839,
      "airport": 2840,
      "iation": 2841,
      "lect": 2842,
      "acc": 2843,
      "bey": 2844,
      "ania": 2845,
      "agency": 2846,
      "provided": 2847,
      "redu": 2848,
      "humans": 2849,
      "inary": 2850,
      "windows": 2851,
      "platform": 2852,
      "dip": 2853,
      "upper": 2854,
      "nepal": 2855,
      "internet": 2856,
      "suf": 2857,
      "mu": 2858,
      "migr": 2859,
      "surround": 2860,
      "help": 2861,
      "toronto": 2862,
      "particularly": 2863,
      "despite": 2864,
      "dar": 2865,
      "lived": 2866,
      "rat": 2867,
      "edward": 2868,
      "colo": 2869,
      "nether": 2870,
      "communications": 2871,
      "initially": 2872,
      "account": 2873,
      "prad": 2874,
      "graphic": 2875,
      "website": 2876,
      "scientific": 2877,
      "ki": 2878,
      "nfl": 2879,
      "grade": 2880,
      "raj": 2881,
      "product": 2882,
      "alternative": 2883,
      "tropical": 2884,
      "custom": 2885,
      "grant": 2886,
      "schol": 2887,
      "jur": 2888,
      "jay": 2889,
      "spl": 2890,
      "thir": 2891,
      "istic": 2892,
      "fictional": 2893,
      "gam": 2894,
      "oso": 2895,
      "sky": 2896,
      "architect": 2897,
      "slo": 2898,
      "opt": 2899,
      "medic": 2900,
      "campus": 2901,
      "fant": 2902,
      "ador": 2903,
      "outside": 2904,
      "ror": 2905,
      "ips": 2906,
      "indiana": 2907,
      "candidate": 2908,
      "married": 2909,
      "latin": 2910,
      "contemporary": 2911,
      "gi": 2912,
      "better": 2913,
      "captain": 2914,
      "princip": 2915,
      "plement": 2916,
      "square": 2917,
      "ee": 2918,
      "ux": 2919,
      "proved": 2920,
      "progress": 2921,
      "quest": 2922,
      "exhib": 2923,
      "roll": 2924,
      "russian": 2925,
      "aer": 2926,
      "oth": 2927,
      "rio": 2928,
      "bern": 2929,
      "peaked": 2930,
      "mechan": 2931,
      "officially": 2932,
      "friend": 2933,
      "queensland": 2934,
      "units": 2935,
      "deal": 2936,
      "herit": 2937,
      "twenty": 2938,
      "yard": 2939,
      "arab": 2940,
      "cient": 2941,
      "overall": 2942,
      "andrew": 2943,
      "lock": 2944,
      "agre": 2945,
      "supre": 2946,
      "avor": 2947,
      "said": 2948,
      "celebr": 2949,
      "memor": 2950,
      "voice": 2951,
      "contract": 2952,
      "separate": 2953,
      "headquarters": 2954,
      "beginning": 2955,
      "pradesh": 2956,
      "dol": 2957,
      "kal": 2958,
      "shop": 2959,
      "documentary": 2960,
      "temp": 2961,
      "federation": 2962,
      "investig": 2963,
      "netherlands": 2964,
      "hamp": 2965,
      "scal": 2966,
      "wish": 2967,
      "nature": 2968,
      "jul": 2969,
      "disco": 2970,
      "oregon": 2971,
      "territory": 2972,
      "metropolitan": 2973,
      "fight": 2974,
      "enco": 2975,
      "resident": 2976,
      "creation": 2977,
      "rather": 2978,
      "should": 2979,
      "recently": 2980,
      "cinem": 2981,
      "swim": 2982,
      "establish": 2983,
      "hotel": 2984,
      "rural": 2985,
      "vd": 2986,
      "ariz": 2987,
      "ades": 2988,
      "presented": 2989,
      "distributed": 2990,
      "bab": 2991,
      "lam": 2992,
      "houses": 2993,
      "agric": 2994,
      "means": 2995,
      "cry": 2996,
      "joint": 2997,
      "sched": 2998,
      "lank": 2999,
      "page": 3000,
      "stations": 3001,
      "ura": 3002,
      "grass": 3003,
      "content": 3004,
      "aqu": 3005,
      "sant": 3006,
      "ancient": 3007,
      "forward": 3008,
      "appearances": 3009,
      "iii": 3010,
      "cities": 3011,
      "jon": 3012,
      "tu": 3013,
      "asy": 3014,
      "pool": 3015,
      "vey": 3016,
      "belie": 3017,
      "representing": 3018,
      "dioces": 3019,
      "atlantic": 3020,
      "urer": 3021,
      "bot": 3022,
      "geo": 3023,
      "elect": 3024,
      "elector": 3025,
      "guest": 3026,
      "issued": 3027,
      "additional": 3028,
      "philippines": 3029,
      "pian": 3030,
      "iron": 3031,
      "mous": 3032,
      "spons": 3033,
      "subsequently": 3034,
      "bob": 3035,
      "acquired": 3036,
      "boston": 3037,
      "arizona": 3038,
      "ware": 3039,
      "tool": 3040,
      "advan": 3041,
      "olution": 3042,
      "boys": 3043,
      "sher": 3044,
      "status": 3045,
      "bronze": 3046,
      "almost": 3047,
      "ider": 3048,
      "ging": 3049,
      "ros": 3050,
      "except": 3051,
      "know": 3052,
      "authority": 3053,
      "agricult": 3054,
      "yer": 3055,
      "ining": 3056,
      "communities": 3057,
      "winner": 3058,
      "dedicated": 3059,
      "iers": 3060,
      "ani": 3061,
      "ises": 3062,
      "coal": 3063,
      "intended": 3064,
      "iting": 3065,
      "loss": 3066,
      "earlier": 3067,
      "double": 3068,
      "religious": 3069,
      "jones": 3070,
      "sav": 3071,
      "corn": 3072,
      "melbourne": 3073,
      "remains": 3074,
      "settle": 3075,
      "responsible": 3076,
      "fres": 3077,
      "programming": 3078,
      "horse": 3079,
      "widely": 3080,
      "cus": 3081,
      "reason": 3082,
      "activities": 3083,
      "constructed": 3084,
      "ump": 3085,
      "oph": 3086,
      "paral": 3087,
      "dale": 3088,
      "ensis": 3089,
      "rael": 3090,
      "critics": 3091,
      "occurr": 3092,
      "types": 3093,
      "bil": 3094,
      "dead": 3095,
      "opera": 3096,
      "link": 3097,
      "effect": 3098,
      "encies": 3099,
      "finish": 3100,
      "empire": 3101,
      "copies": 3102,
      "ocean": 3103,
      "temple": 3104,
      "fred": 3105,
      "offers": 3106,
      "greater": 3107,
      "administration": 3108,
      "pu": 3109,
      "instead": 3110,
      "israel": 3111,
      "store": 3112,
      "extinct": 3113,
      "distance": 3114,
      "quality": 3115,
      "ministry": 3116,
      "install": 3117,
      "nad": 3118,
      "ost": 3119,
      "astern": 3120,
      "create": 3121,
      "transl": 3122,
      "jackson": 3123,
      "spent": 3124,
      "subject": 3125,
      "eventually": 3126,
      "reviews": 3127,
      "supreme": 3128,
      "takes": 3129,
      "anne": 3130,
      "eds": 3131,
      "elements": 3132,
      "municipal": 3133,
      "lis": 3134,
      "usion": 3135,
      "regul": 3136,
      "girl": 3137,
      "daughter": 3138,
      "hus": 3139,
      "nuc": 3140,
      "ione": 3141,
      "larger": 3142,
      "golden": 3143,
      "changes": 3144,
      "excl": 3145,
      "serve": 3146,
      "languages": 3147,
      "hun": 3148,
      "rub": 3149,
      "adam": 3150,
      "comics": 3151,
      "consin": 3152,
      "titles": 3153,
      "wisconsin": 3154,
      "bach": 3155,
      "dur": 3156,
      "rh": 3157,
      "sund": 3158,
      "yan": 3159,
      "preser": 3160,
      "claimed": 3161,
      "korea": 3162,
      "yellow": 3163,
      "theastern": 3164,
      "cases": 3165,
      "remained": 3166,
      "dre": 3167,
      "tennes": 3168,
      "versions": 3169,
      "expand": 3170,
      "jr": 3171,
      "aging": 3172,
      "actions": 3173,
      "draw": 3174,
      "kee": 3175,
      "snails": 3176,
      "argent": 3177,
      "future": 3178,
      "heritage": 3179,
      "nal": 3180,
      "terms": 3181,
      "noted": 3182,
      "theory": 3183,
      "reported": 3184,
      "francisco": 3185,
      "tennessee": 3186,
      "iary": 3187,
      "represents": 3188,
      "agent": 3189,
      "partn": 3190,
      "frame": 3191,
      "owner": 3192,
      "titled": 3193,
      "journalist": 3194,
      "greek": 3195,
      "alo": 3196,
      "stra": 3197,
      "cos": 3198,
      "conf": 3199,
      "boat": 3200,
      "commonwealth": 3201,
      "ec": 3202,
      "electronic": 3203,
      "blood": 3204,
      "composer": 3205,
      "pas": 3206,
      "covers": 3207,
      "respect": 3208,
      "colum": 3209,
      "spain": 3210,
      "occas": 3211,
      "fal": 3212,
      "money": 3213,
      "prime": 3214,
      "liberal": 3215,
      "size": 3216,
      "capt": 3217,
      "weeks": 3218,
      "defeated": 3219,
      "clim": 3220,
      "results": 3221,
      "quarter": 3222,
      "provincial": 3223,
      "licensed": 3224,
      "ingu": 3225,
      "marsh": 3226,
      "ysis": 3227,
      "prominent": 3228,
      "fill": 3229,
      "atr": 3230,
      "prince": 3231,
      "sug": 3232,
      "kind": 3233,
      "tay": 3234,
      "becoming": 3235,
      "affe": 3236,
      "decision": 3237,
      "nearby": 3238,
      "clear": 3239,
      "oid": 3240,
      "zy": 3241,
      "atively": 3242,
      "earned": 3243,
      "stein": 3244,
      "sister": 3245,
      "estate": 3246,
      "coll": 3247,
      "mathe": 3248,
      "attempt": 3249,
      "fielder": 3250,
      "purpose": 3251,
      "cuss": 3252,
      "kir": 3253,
      "indo": 3254,
      "surface": 3255,
      "hydro": 3256,
      "vocals": 3257,
      "fame": 3258,
      "here": 3259,
      "oak": 3260,
      "gray": 3261,
      "carr": 3262,
      "ski": 3263,
      "philoso": 3264,
      "ients": 3265,
      "proto": 3266,
      "iverse": 3267,
      "effects": 3268,
      "months": 3269,
      "indonesia": 3270,
      "bes": 3271,
      "iidae": 3272,
      "nan": 3273,
      "cric": 3274,
      "sciences": 3275,
      "daily": 3276,
      "chemical": 3277,
      "gate": 3278,
      "kh": 3279,
      "uit": 3280,
      "bod": 3281,
      "door": 3282,
      "russia": 3283,
      "ose": 3284,
      "anna": 3285,
      "representative": 3286,
      "medicine": 3287,
      "cav": 3288,
      "lind": 3289,
      "sess": 3290,
      "step": 3291,
      "cham": 3292,
      "ention": 3293,
      "regiment": 3294,
      "architecture": 3295,
      "amount": 3296,
      "hunt": 3297,
      "si": 3298,
      "charts": 3299,
      "sites": 3300,
      "equip": 3301,
      "citiz": 3302,
      "wrestling": 3303,
      "diocese": 3304,
      "taking": 3305,
      "cook": 3306,
      "ette": 3307,
      "male": 3308,
      "colorado": 3309,
      "physical": 3310,
      "possible": 3311,
      "malaysia": 3312,
      "eigh": 3313,
      "adv": 3314,
      "cycle": 3315,
      "operates": 3316,
      "junction": 3317,
      "competit": 3318,
      "opening": 3319,
      "focus": 3320,
      "credited": 3321,
      "tas": 3322,
      "ites": 3323,
      "tower": 3324,
      "istics": 3325,
      "butter": 3326,
      "attended": 3327,
      "classic": 3328,
      "dvd": 3329,
      "aska": 3330,
      "tric": 3331,
      "compl": 3332,
      "complet": 3333,
      "counties": 3334,
      "affairs": 3335,
      "distribution": 3336,
      "din": 3337,
      "aria": 3338,
      "iance": 3339,
      "discovered": 3340,
      "intell": 3341,
      "const": 3342,
      "prevent": 3343,
      "edge": 3344,
      "williams": 3345,
      "renamed": 3346,
      "literature": 3347,
      "user": 3348,
      "dete": 3349,
      "iza": 3350,
      "venue": 3351,
      "reserve": 3352,
      "favor": 3353,
      "orient": 3354,
      "keep": 3355,
      "target": 3356,
      "peace": 3357,
      "flag": 3358,
      "districts": 3359,
      "chris": 3360,
      "weekly": 3361,
      "ws": 3362,
      "object": 3363,
      "pictures": 3364,
      "acting": 3365,
      "hero": 3366,
      "consum": 3367,
      "matic": 3368,
      "deliver": 3369,
      "steel": 3370,
      "memorial": 3371,
      "intellig": 3372,
      "ono": 3373,
      "rovers": 3374,
      "suggest": 3375,
      "compr": 3376,
      "mole": 3377,
      "doctor": 3378,
      "compon": 3379,
      "attle": 3380,
      "clubs": 3381,
      "managed": 3382,
      "critic": 3383,
      "analysis": 3384,
      "gil": 3385,
      "passeng": 3386,
      "environmental": 3387,
      "rot": 3388,
      "ils": 3389,
      "behav": 3390,
      "doug": 3391,
      "hills": 3392,
      "commissioned": 3393,
      "providing": 3394,
      "founding": 3395,
      "johnson": 3396,
      "sexual": 3397,
      "dc": 3398,
      "ees": 3399,
      "pse": 3400,
      "table": 3401,
      "wick": 3402,
      "onom": 3403,
      "deep": 3404,
      "brad": 3405,
      "pher": 3406,
      "electoral": 3407,
      "ems": 3408,
      "phia": 3409,
      "positive": 3410,
      "extended": 3411,
      "starting": 3412,
      "administrative": 3413,
      "assistant": 3414,
      "cricke": 3415,
      "aust": 3416,
      "mut": 3417,
      "ole": 3418,
      "soviet": 3419,
      "appears": 3420,
      "restaur": 3421,
      "selling": 3422,
      "alan": 3423,
      "atus": 3424,
      "eston": 3425,
      "ension": 3426,
      "jeff": 3427,
      "animated": 3428,
      "principal": 3429,
      "hund": 3430,
      "implement": 3431,
      "brig": 3432,
      "bands": 3433,
      "donald": 3434,
      "seventh": 3435,
      "ranked": 3436,
      "diplo": 3437,
      "dict": 3438,
      "omin": 3439,
      "thre": 3440,
      "amate": 3441,
      "cou": 3442,
      "afted": 3443,
      "phone": 3444,
      "arrang": 3445,
      "brothers": 3446,
      "beat": 3447,
      "idence": 3448,
      "famil": 3449,
      "succeed": 3450,
      "fresh": 3451,
      "rand": 3452,
      "prop": 3453,
      "shot": 3454,
      "fields": 3455,
      "southeast": 3456,
      "distingu": 3457,
      "meaning": 3458,
      "cement": 3459,
      "rod": 3460,
      "cha": 3461,
      "cars": 3462,
      "offices": 3463,
      "ucky": 3464,
      "kim": 3465,
      "ibility": 3466,
      "below": 3467,
      "capac": 3468,
      "visual": 3469,
      "ayed": 3470,
      "projects": 3471,
      "girls": 3472,
      "ladesh": 3473,
      "swedish": 3474,
      "pick": 3475,
      "bomb": 3476,
      "caa": 3477,
      "bangladesh": 3478,
      "egy": 3479,
      "alam": 3480,
      "secut": 3481,
      "drive": 3482,
      "fix": 3483,
      "judge": 3484,
      "ease": 3485,
      "sail": 3486,
      "orches": 3487,
      "ava": 3488,
      "require": 3489,
      "hundred": 3490,
      "ez": 3491,
      "infan": 3492,
      "repr": 3493,
      "dean": 3494,
      "northwest": 3495,
      "birth": 3496,
      "bacter": 3497,
      "cricketer": 3498,
      "cc": 3499,
      "ding": 3500,
      "gary": 3501,
      "kins": 3502,
      "paris": 3503,
      "shown": 3504,
      "sales": 3505,
      "naval": 3506,
      "chain": 3507,
      "regions": 3508,
      "moving": 3509,
      "korean": 3510,
      "got": 3511,
      "detail": 3512,
      "geome": 3513,
      "buck": 3514,
      "nearly": 3515,
      "facility": 3516,
      "audio": 3517,
      "kentucky": 3518,
      "resources": 3519,
      "lack": 3520,
      "singap": 3521,
      "deput": 3522,
      "concert": 3523,
      "ule": 3524,
      "whom": 3525,
      "follows": 3526,
      "beng": 3527,
      "hl": 3528,
      "adult": 3529,
      "prin": 3530,
      "exchange": 3531,
      "latter": 3532,
      "hong": 3533,
      "kong": 3534,
      "eric": 3535,
      "users": 3536,
      "advis": 3537,
      "vote": 3538,
      "productions": 3539,
      "circu": 3540,
      "cabin": 3541,
      "above": 3542,
      "tell": 3543,
      "ila": 3544,
      "deb": 3545,
      "ultim": 3546,
      "lists": 3547,
      "presidential": 3548,
      "islam": 3549,
      "teenth": 3550,
      "singapore": 3551,
      "philadel": 3552,
      "supported": 3553,
      "itzer": 3554,
      "egypt": 3555,
      "fung": 3556,
      "jes": 3557,
      "sac": 3558,
      "traff": 3559,
      "peer": 3560,
      "brun": 3561,
      "killed": 3562,
      "encoded": 3563,
      "hat": 3564,
      "pin": 3565,
      "alab": 3566,
      "behind": 3567,
      "trib": 3568,
      "trail": 3569,
      "itors": 3570,
      "advert": 3571,
      "franch": 3572,
      "allows": 3573,
      "wed": 3574,
      "estim": 3575,
      "athletic": 3576,
      "baronet": 3577,
      "fantasy": 3578,
      "ncaa": 3579,
      "wise": 3580,
      "itation": 3581,
      "mike": 3582,
      "applied": 3583,
      "publishing": 3584,
      "steve": 3585,
      "kansas": 3586,
      "mess": 3587,
      "pic": 3588,
      "seats": 3589,
      "agar": 3590,
      "shi": 3591,
      "illa": 3592,
      "individuals": 3593,
      "category": 3594,
      "philadelphia": 3595,
      "lyr": 3596,
      "housing": 3597,
      "flight": 3598,
      "merged": 3599,
      "oxford": 3600,
      "garden": 3601,
      "mathemat": 3602,
      "amateur": 3603,
      "bra": 3604,
      "infantry": 3605,
      "dub": 3606,
      "critical": 3607,
      "acted": 3608,
      "ologist": 3609,
      "technical": 3610,
      "approach": 3611,
      "performances": 3612,
      "iqu": 3613,
      "rhy": 3614,
      "entered": 3615,
      "accept": 3616,
      "constitution": 3617,
      "maryland": 3618,
      "punk": 3619,
      "gang": 3620,
      "advoc": 3621,
      "iran": 3622,
      "prob": 3623,
      "perman": 3624,
      "simply": 3625,
      "downtown": 3626,
      "lanka": 3627,
      "vation": 3628,
      "workers": 3629,
      "highly": 3630,
      "consult": 3631,
      "malay": 3632,
      "sax": 3633,
      "moths": 3634,
      "swe": 3635,
      "vard": 3636,
      "alph": 3637,
      "smaller": 3638,
      "alongside": 3639,
      "domest": 3640,
      "arena": 3641,
      "ionally": 3642,
      "portr": 3643,
      "blues": 3644,
      "daniel": 3645,
      "jar": 3646,
      "sens": 3647,
      "vess": 3648,
      "homa": 3649,
      "wegian": 3650,
      "medals": 3651,
      "supporting": 3652,
      "illustr": 3653,
      "produce": 3654,
      "crown": 3655,
      "application": 3656,
      "rem": 3657,
      "unique": 3658,
      "ption": 3659,
      "volume": 3660,
      "victory": 3661,
      "containing": 3662,
      "adop": 3663,
      "bee": 3664,
      "cript": 3665,
      "norwegian": 3666,
      "wright": 3667,
      "subsid": 3668,
      "ledge": 3669,
      "freed": 3670,
      "cs": 3671,
      "hay": 3672,
      "ria": 3673,
      "bear": 3674,
      "sole": 3675,
      "ots": 3676,
      "awa": 3677,
      "scul": 3678,
      "required": 3679,
      "capacity": 3680,
      "golf": 3681,
      "dog": 3682,
      "joe": 3683,
      "classical": 3684,
      "respond": 3685,
      "ready": 3686,
      "ou": 3687,
      "alber": 3688,
      "leaf": 3689,
      "lywood": 3690,
      "akers": 3691,
      "okla": 3692,
      "lik": 3693,
      "flowering": 3694,
      "affiliated": 3695,
      "dream": 3696,
      "nast": 3697,
      "sed": 3698,
      "semi": 3699,
      "disease": 3700,
      "headquartered": 3701,
      "treatment": 3702,
      "destroy": 3703,
      "split": 3704,
      "tribut": 3705,
      "eman": 3706,
      "image": 3707,
      "mann": 3708,
      "max": 3709,
      "raised": 3710,
      "applications": 3711,
      "directly": 3712,
      "aco": 3713,
      "rivers": 3714,
      "shap": 3715,
      "element": 3716,
      "kilome": 3717,
      "taylor": 3718,
      "bh": 3719,
      "share": 3720,
      "cancer": 3721,
      "portion": 3722,
      "jewish": 3723,
      "obtain": 3724,
      "oklahoma": 3725,
      "true": 3726,
      "brian": 3727,
      "corps": 3728,
      "ulty": 3729,
      "brought": 3730,
      "schedul": 3731,
      "settlement": 3732,
      "onse": 3733,
      "towards": 3734,
      "activity": 3735,
      "murder": 3736,
      "cad": 3737,
      "dim": 3738,
      "insp": 3739,
      "cting": 3740,
      "conver": 3741,
      "studied": 3742,
      "courts": 3743,
      "longer": 3744,
      "patrick": 3745,
      "athletics": 3746,
      "inj": 3747,
      "orch": 3748,
      "athan": 3749,
      "champions": 3750,
      "score": 3751,
      "dat": 3752,
      "cot": 3753,
      "ously": 3754,
      "arche": 3755,
      "positions": 3756,
      "standards": 3757,
      "move": 3758,
      "apol": 3759,
      "ops": 3760,
      "towns": 3761,
      "improv": 3762,
      "abc": 3763,
      "ugu": 3764,
      "midfielder": 3765,
      "experience": 3766,
      "revolution": 3767,
      "behavior": 3768,
      "vic": 3769,
      "entry": 3770,
      "soul": 3771,
      "cerem": 3772,
      "robin": 3773,
      "conservative": 3774,
      "failed": 3775,
      "growth": 3776,
      "lt": 3777,
      "whit": 3778,
      "passed": 3779,
      "santa": 3780,
      "gay": 3781,
      "kn": 3782,
      "ora": 3783,
      "etic": 3784,
      "centers": 3785,
      "joy": 3786,
      "caused": 3787,
      "recordings": 3788,
      "decided": 3789,
      "greatest": 3790,
      "dal": 3791,
      "rab": 3792,
      "eliza": 3793,
      "search": 3794,
      "medium": 3795,
      "counter": 3796,
      "grapher": 3797,
      "properties": 3798,
      "ilton": 3799,
      "brief": 3800,
      "duo": 3801,
      "larg": 3802,
      "scene": 3803,
      "himself": 3804,
      "allowed": 3805,
      "rho": 3806,
      "arian": 3807,
      "too": 3808,
      "soon": 3809,
      "ables": 3810,
      "domain": 3811,
      "writers": 3812,
      "materials": 3813,
      "occurred": 3814,
      "hits": 3815,
      "rit": 3816,
      "pra": 3817,
      "generation": 3818,
      "cells": 3819,
      "scale": 3820,
      "tes": 3821,
      "inside": 3822,
      "fully": 3823,
      "laws": 3824,
      "teacher": 3825,
      "drummer": 3826,
      "alexander": 3827,
      "alabama": 3828,
      "ories": 3829,
      "idea": 3830,
      "residents": 3831,
      "average": 3832,
      "manchester": 3833,
      "poe": 3834,
      "divided": 3835,
      "levels": 3836,
      "falls": 3837,
      "consisting": 3838,
      "hours": 3839,
      "piece": 3840,
      "pione": 3841,
      "corner": 3842,
      "older": 3843,
      "cros": 3844,
      "silent": 3845,
      "benef": 3846,
      "ert": 3847,
      "demon": 3848,
      "aving": 3849,
      "guine": 3850,
      "wheel": 3851,
      "criminal": 3852,
      "gul": 3853,
      "invent": 3854,
      "arct": 3855,
      "icted": 3856,
      "mississ": 3857,
      "circuit": 3858,
      "hart": 3859,
      "nin": 3860,
      "remaining": 3861,
      "experim": 3862,
      "analy": 3863,
      "pine": 3864,
      "scar": 3865,
      "acid": 3866,
      "brick": 3867,
      "porter": 3868,
      "protection": 3869,
      "glass": 3870,
      "reference": 3871,
      "animal": 3872,
      "response": 3873,
      "literary": 3874,
      "scholar": 3875,
      "equipment": 3876,
      "deputy": 3877,
      "sin": 3878,
      "sty": 3879,
      "chi": 3880,
      "inner": 3881,
      "ghana": 3882,
      "revival": 3883,
      "relationship": 3884,
      "fit": 3885,
      "gained": 3886,
      "bush": 3887,
      "catal": 3888,
      "friends": 3889,
      "awn": 3890,
      "atom": 3891,
      "astic": 3892,
      "restr": 3893,
      "sym": 3894,
      "evidence": 3895,
      "mountains": 3896,
      "combined": 3897,
      "learning": 3898,
      "pseud": 3899,
      "kenn": 3900,
      "mam": 3901,
      "iowa": 3902,
      "flies": 3903,
      "signal": 3904,
      "spirit": 3905,
      "performing": 3906,
      "say": 3907,
      "ero": 3908,
      "shell": 3909,
      "ieval": 3910,
      "going": 3911,
      "finn": 3912,
      "thought": 3913,
      "facilities": 3914,
      "anthony": 3915,
      "meeting": 3916,
      "safety": 3917,
      "rupt": 3918,
      "inspired": 3919,
      "bag": 3920,
      "iter": 3921,
      "address": 3922,
      "communication": 3923,
      "victorian": 3924,
      "franchise": 3925,
      "fash": 3926,
      "jab": 3927,
      "replac": 3928,
      "urance": 3929,
      "ifically": 3930,
      "tai": 3931,
      "davis": 3932,
      "scen": 3933,
      "novels": 3934,
      "frequently": 3935,
      "residential": 3936,
      "sul": 3937,
      "unknown": 3938,
      "uston": 3939,
      "portug": 3940,
      "southwest": 3941,
      "stephen": 3942,
      "defined": 3943,
      "arthur": 3944,
      "virt": 3945,
      "ku": 3946,
      "partner": 3947,
      "feet": 3948,
      "prepar": 3949,
      "sons": 3950,
      "synthe": 3951,
      "scored": 3952,
      "increase": 3953,
      "intelligence": 3954,
      "pair": 3955,
      "tin": 3956,
      "bec": 3957,
      "politics": 3958,
      "consider": 3959,
      "focused": 3960,
      "louisiana": 3961,
      "liver": 3962,
      "entr": 3963,
      "convention": 3964,
      "problems": 3965,
      "surrounding": 3966,
      "lp": 3967,
      "pier": 3968,
      "derived": 3969,
      "riage": 3970,
      "participated": 3971,
      "rate": 3972,
      "tall": 3973,
      "declar": 3974,
      "bran": 3975,
      "basic": 3976,
      "views": 3977,
      "advanced": 3978,
      "mississipp": 3979,
      "fab": 3980,
      "phas": 3981,
      "iga": 3982,
      "switzer": 3983,
      "largely": 3984,
      "fel": 3985,
      "uce": 3986,
      "formula": 3987,
      "disk": 3988,
      "attor": 3989,
      "horror": 3990,
      "purchased": 3991,
      "adopted": 3992,
      "fashion": 3993,
      "dial": 3994,
      "len": 3995,
      "luc": 3996,
      "defeat": 3997,
      "articles": 3998,
      "poet": 3999,
      "northeast": 4000,
      "driver": 4001,
      "drafted": 4002,
      "penins": 4003,
      "achieved": 4004,
      "cub": 4005,
      "reality": 4006,
      "lewis": 4007,
      "percent": 4008,
      "cru": 4009,
      "discuss": 4010,
      "ordin": 4011,
      "exclus": 4012,
      "switzerland": 4013,
      "kum": 4014,
      "plate": 4015,
      "growing": 4016,
      "classified": 4017,
      "done": 4018,
      "eg": 4019,
      "wit": 4020,
      "theme": 4021,
      "normal": 4022,
      "dry": 4023,
      "buff": 4024,
      "flat": 4025,
      "direction": 4026,
      "certified": 4027,
      "domestic": 4028,
      "ceme": 4029,
      "jac": 4030,
      "lap": 4031,
      "inde": 4032,
      "eleven": 4033,
      "carry": 4034,
      "hosts": 4035,
      "families": 4036,
      "orchestra": 4037,
      "dj": 4038,
      "eag": 4039,
      "disci": 4040,
      "parent": 4041,
      "cers": 4042,
      "cip": 4043,
      "ml": 4044,
      "mall": 4045,
      "pel": 4046,
      "pad": 4047,
      "xy": 4048,
      "arms": 4049,
      "bean": 4050,
      "gency": 4051,
      "controvers": 4052,
      "rule": 4053,
      "floor": 4054,
      "words": 4055,
      "bah": 4056,
      "mind": 4057,
      "ctors": 4058,
      "phal": 4059,
      "institution": 4060,
      "promote": 4061,
      "squadron": 4062,
      "impact": 4063,
      "expanded": 4064,
      "lyrics": 4065,
      "elizabeth": 4066,
      "lete": 4067,
      "poor": 4068,
      "quick": 4069,
      "publications": 4070,
      "retail": 4071,
      "satell": 4072,
      "graduated": 4073,
      "microsoft": 4074,
      "fleet": 4075,
      "vocalist": 4076,
      "bond": 4077,
      "kes": 4078,
      "beaut": 4079,
      "concl": 4080,
      "proposed": 4081,
      "indic": 4082,
      "your": 4083,
      "races": 4084,
      "methods": 4085,
      "figure": 4086,
      "machine": 4087,
      "nu": 4088,
      "rare": 4089,
      "istry": 4090,
      "detro": 4091,
      "pected": 4092,
      "shor": 4093,
      "covering": 4094,
      "combat": 4095,
      "belonging": 4096,
      "nadu": 4097,
      "indoor": 4098,
      "sculpt": 4099,
      "alleg": 4100,
      "repe": 4101,
      "feed": 4102,
      "mail": 4103,
      "publication": 4104,
      "relations": 4105,
      "eneur": 4106,
      "wilson": 4107,
      "animals": 4108,
      "experi": 4109,
      "respectively": 4110,
      "freedom": 4111,
      "detroit": 4112,
      "orange": 4113,
      "entrepr": 4114,
      "ceo": 4115,
      "disney": 4116,
      "universal": 4117,
      "electron": 4118,
      "flowers": 4119,
      "scheduled": 4120,
      "entrepreneur": 4121,
      "ders": 4122,
      "ech": 4123,
      "smo": 4124,
      "inum": 4125,
      "unte": 4126,
      "forts": 4127,
      "uts": 4128,
      "ested": 4129,
      "corre": 4130,
      "comput": 4131,
      "symb": 4132,
      "starred": 4133,
      "explor": 4134,
      "mississippi": 4135,
      "gab": 4136,
      "gym": 4137,
      "isol": 4138,
      "apart": 4139,
      "suit": 4140,
      "parties": 4141,
      "coln": 4142,
      "calend": 4143,
      "skill": 4144,
      "bai": 4145,
      "independence": 4146,
      "soundtrack": 4147,
      "satur": 4148,
      "risk": 4149,
      "tribe": 4150,
      "kilometers": 4151,
      "gain": 4152,
      "pc": 4153,
      "pir": 4154,
      "trum": 4155,
      "belgian": 4156,
      "lincoln": 4157,
      "poetry": 4158,
      "sr": 4159,
      "volunte": 4160,
      "focuses": 4161,
      "synd": 4162,
      "rapid": 4163,
      "cabinet": 4164,
      "gill": 4165,
      "ias": 4166,
      "apt": 4167,
      "specifically": 4168,
      "myster": 4169,
      "eye": 4170,
      "marketing": 4171,
      "consisted": 4172,
      "temper": 4173,
      "atlanta": 4174,
      "conditions": 4175,
      "believed": 4176,
      "knowledge": 4177,
      "threat": 4178,
      "gle": 4179,
      "determin": 4180,
      "moon": 4181,
      "clay": 4182,
      "medieval": 4183,
      "diffic": 4184,
      "arkansas": 4185,
      "license": 4186,
      "occurs": 4187,
      "eu": 4188,
      "ophy": 4189,
      "ogy": 4190,
      "steam": 4191,
      "aled": 4192,
      "verse": 4193,
      "spell": 4194,
      "subst": 4195,
      "nova": 4196,
      "engineer": 4197,
      "stores": 4198,
      "nigeria": 4199,
      "traffic": 4200,
      "permanent": 4201,
      "narr": 4202,
      "icut": 4203,
      "trin": 4204,
      "indu": 4205,
      "locations": 4206,
      "attach": 4207,
      "mile": 4208,
      "thouse": 4209,
      "chron": 4210,
      "basis": 4211,
      "debuted": 4212,
      "registered": 4213,
      "teaching": 4214,
      "lady": 4215,
      "eighth": 4216,
      "gave": 4217,
      "ike": 4218,
      "pon": 4219,
      "leaves": 4220,
      "seattle": 4221,
      "clark": 4222,
      "carto": 4223,
      "legis": 4224,
      "competing": 4225,
      "graphical": 4226,
      "banks": 4227,
      "closely": 4228,
      "iors": 4229,
      "khan": 4230,
      "makes": 4231,
      "edin": 4232,
      "abad": 4233,
      "maxim": 4234,
      "tony": 4235,
      "cathe": 4236,
      "veter": 4237,
      "developing": 4238,
      "leadership": 4239,
      "incumb": 4240,
      "whether": 4241,
      "legislat": 4242,
      "ras": 4243,
      "houston": 4244,
      "nev": 4245,
      "earl": 4246,
      "actors": 4247,
      "harbor": 4248,
      "pattern": 4249,
      "adventure": 4250,
      "vehicle": 4251,
      "nuclear": 4252,
      "pter": 4253,
      "stain": 4254,
      "elves": 4255,
      "comment": 4256,
      "aga": 4257,
      "neuro": 4258,
      "assigned": 4259,
      "kenya": 4260,
      "challeng": 4261,
      "might": 4262,
      "reports": 4263,
      "iday": 4264,
      "iller": 4265,
      "ift": 4266,
      "hamilton": 4267,
      "succeeded": 4268,
      "ds": 4269,
      "figh": 4270,
      "kol": 4271,
      "wart": 4272,
      "protest": 4273,
      "abol": 4274,
      "meg": 4275,
      "compete": 4276,
      "ukrain": 4277,
      "holy": 4278,
      "caster": 4279,
      "distinct": 4280,
      "discipl": 4281,
      "rise": 4282,
      "howard": 4283,
      "immed": 4284,
      "immigr": 4285,
      "akh": 4286,
      "itions": 4287,
      "value": 4288,
      "connected": 4289,
      "commander": 4290,
      "dall": 4291,
      "iop": 4292,
      "onia": 4293,
      "leon": 4294,
      "shad": 4295,
      "antic": 4296,
      "margin": 4297,
      "carried": 4298,
      "initial": 4299,
      "welsh": 4300,
      "adapt": 4301,
      "guinea": 4302,
      "lac": 4303,
      "ern": 4304,
      "rough": 4305,
      "une": 4306,
      "uten": 4307,
      "foss": 4308,
      "bring": 4309,
      "bright": 4310,
      "afghan": 4311,
      "ologies": 4312,
      "grew": 4313,
      "faculty": 4314,
      "coastal": 4315,
      "functions": 4316,
      "pto": 4317,
      "decor": 4318,
      "nett": 4319,
      "creating": 4320,
      "offered": 4321,
      "musicians": 4322,
      "matthe": 4323,
      "memory": 4324,
      "continues": 4325,
      "reading": 4326,
      "iraq": 4327,
      "connecticut": 4328,
      "compared": 4329,
      "cemetery": 4330,
      "calendar": 4331,
      "dak": 4332,
      "ij": 4333,
      "yn": 4334,
      "infe": 4335,
      "mahar": 4336,
      "twice": 4337,
      "christmas": 4338,
      "adapted": 4339,
      "och": 4340,
      "rim": 4341,
      "tag": 4342,
      "want": 4343,
      "berk": 4344,
      "strateg": 4345,
      "producing": 4346,
      "therefore": 4347,
      "institutions": 4348,
      "increasing": 4349,
      "contested": 4350,
      "colonial": 4351,
      "aid": 4352,
      "chos": 4353,
      "weather": 4354,
      "retire": 4355,
      "runner": 4356,
      "talk": 4357,
      "models": 4358,
      "conducted": 4359,
      "structures": 4360,
      "dd": 4361,
      "pup": 4362,
      "tank": 4363,
      "thems": 4364,
      "unlike": 4365,
      "ires": 4366,
      "igen": 4367,
      "meter": 4368,
      "spin": 4369,
      "presence": 4370,
      "dynam": 4371,
      "trophy": 4372,
      "habitat": 4373,
      "agreement": 4374,
      "gium": 4375,
      "app": 4376,
      "brain": 4377,
      "numbers": 4378,
      "businessman": 4379,
      "device": 4380,
      "transferred": 4381,
      "alberta": 4382,
      "lets": 4383,
      "necess": 4384,
      "alliance": 4385,
      "udi": 4386,
      "weap": 4387,
      "cester": 4388,
      "jean": 4389,
      "danish": 4390,
      "defender": 4391,
      "cambridge": 4392,
      "increased": 4393,
      "bic": 4394,
      "snow": 4395,
      "confl": 4396,
      "ott": 4397,
      "oty": 4398,
      "aware": 4399,
      "ody": 4400,
      "carl": 4401,
      "observ": 4402,
      "networks": 4403,
      "nur": 4404,
      "rene": 4405,
      "wich": 4406,
      "armed": 4407,
      "shore": 4408,
      "strip": 4409,
      "popul": 4410,
      "relatively": 4411,
      "yorkshire": 4412,
      "mitted": 4413,
      "competitions": 4414,
      "drop": 4415,
      "waters": 4416,
      "hampshire": 4417,
      "peninsula": 4418,
      "frog": 4419,
      "kat": 4420,
      "kid": 4421,
      "congo": 4422,
      "etc": 4423,
      "austria": 4424,
      "poses": 4425,
      "charge": 4426,
      "membership": 4427,
      "planet": 4428,
      "ifying": 4429,
      "isa": 4430,
      "mans": 4431,
      "gow": 4432,
      "notably": 4433,
      "muslim": 4434,
      "copy": 4435,
      "geometr": 4436,
      "subsidiary": 4437,
      "attorney": 4438,
      "themselves": 4439,
      "bia": 4440,
      "dates": 4441,
      "ien": 4442,
      "kan": 4443,
      "nap": 4444,
      "pm": 4445,
      "chel": 4446,
      "plus": 4447,
      "minutes": 4448,
      "strate": 4449,
      "northwestern": 4450,
      "marked": 4451,
      "senator": 4452,
      "efforts": 4453,
      "flower": 4454,
      "parliamentary": 4455,
      "sunday": 4456,
      "lane": 4457,
      "nbc": 4458,
      "yet": 4459,
      "anthro": 4460,
      "endo": 4461,
      "mexican": 4462,
      "butterfly": 4463,
      "distinguished": 4464,
      "mers": 4465,
      "nich": 4466,
      "cooper": 4467,
      "price": 4468,
      "thous": 4469,
      "fighting": 4470,
      "douglas": 4471,
      "cia": 4472,
      "zen": 4473,
      "download": 4474,
      "manufacturer": 4475,
      "cinema": 4476,
      "sides": 4477,
      "ito": 4478,
      "agu": 4479,
      "berlin": 4480,
      "afl": 4481,
      "cks": 4482,
      "norway": 4483,
      "crew": 4484,
      "finals": 4485,
      "identified": 4486,
      "associate": 4487,
      "officers": 4488,
      "birds": 4489,
      "sweden": 4490,
      "incumbent": 4491,
      "nevada": 4492,
      "thousand": 4493,
      "neo": 4494,
      "cles": 4495,
      "shel": 4496,
      "mention": 4497,
      "universities": 4498,
      "philip": 4499,
      "factor": 4500,
      "billion": 4501,
      "pression": 4502,
      "manufacturing": 4503,
      "finnish": 4504,
      "cathedr": 4505,
      "fine": 4506,
      "file": 4507,
      "hair": 4508,
      "iet": 4509,
      "lav": 4510,
      "tip": 4511,
      "leaving": 4512,
      "ching": 4513,
      "elic": 4514,
      "decl": 4515,
      "pects": 4516,
      "apple": 4517,
      "serial": 4518,
      "whole": 4519,
      "cano": 4520,
      "offer": 4521,
      "colleg": 4522,
      "swiss": 4523,
      "lawr": 4524,
      "churches": 4525,
      "enterpr": 4526,
      "lun": 4527,
      "vac": 4528,
      "infr": 4529,
      "enge": 4530,
      "iles": 4531,
      "prix": 4532,
      "pson": 4533,
      "stro": 4534,
      "veland": 4535,
      "budget": 4536,
      "husband": 4537,
      "hung": 4538,
      "rus": 4539,
      "wear": 4540,
      "stated": 4541,
      "adjac": 4542,
      "semin": 4543,
      "estyle": 4544,
      "shoot": 4545,
      "annually": 4546,
      "miami": 4547,
      "belgium": 4548,
      "motion": 4549,
      "resulting": 4550,
      "conservation": 4551,
      "compound": 4552,
      "cable": 4553,
      "gh": 4554,
      "iro": 4555,
      "tis": 4556,
      "forced": 4557,
      "iders": 4558,
      "iant": 4559,
      "christo": 4560,
      "morning": 4561,
      "ridge": 4562,
      "brazilian": 4563,
      "oon": 4564,
      "lev": 4565,
      "elim": 4566,
      "ios": 4567,
      "server": 4568,
      "marriage": 4569,
      "simon": 4570,
      "ika": 4571,
      "shortly": 4572,
      "biology": 4573,
      "sources": 4574,
      "kerala": 4575,
      "influence": 4576,
      "ltd": 4577,
      "bin": 4578,
      "bone": 4579,
      "vas": 4580,
      "already": 4581,
      "rober": 4582,
      "cole": 4583,
      "interpre": 4584,
      "internationally": 4585,
      "painter": 4586,
      "contributions": 4587,
      "existence": 4588,
      "measure": 4589,
      "discovery": 4590,
      "legislature": 4591,
      "collegiate": 4592,
      "adjacent": 4593,
      "nash": 4594,
      "iva": 4595,
      "imper": 4596,
      "kevin": 4597,
      "austrian": 4598,
      "videos": 4599,
      "storage": 4600,
      "territor": 4601,
      "religion": 4602,
      "bapt": 4603,
      "dick": 4604,
      "give": 4605,
      "aya": 4606,
      "duke": 4607,
      "classes": 4608,
      "legend": 4609,
      "suppl": 4610,
      "lawyer": 4611,
      "subsequent": 4612,
      "istol": 4613,
      "lawrence": 4614,
      "hugh": 4615,
      "maker": 4616,
      "innov": 4617,
      "nebr": 4618,
      "carbon": 4619,
      "contained": 4620,
      "athlete": 4621,
      "designer": 4622,
      "marks": 4623,
      "bowl": 4624,
      "script": 4625,
      "juris": 4626,
      "estimated": 4627,
      "fat": 4628,
      "pent": 4629,
      "reve": 4630,
      "iest": 4631,
      "formal": 4632,
      "indie": 4633,
      "outstanding": 4634,
      "montre": 4635,
      "arry": 4636,
      "courses": 4637,
      "simple": 4638,
      "recept": 4639,
      "miller": 4640,
      "dave": 4641,
      "potential": 4642,
      "harris": 4643,
      "planning": 4644,
      "spot": 4645,
      "wave": 4646,
      "ye": 4647,
      "noct": 4648,
      "cla": 4649,
      "marath": 4650,
      "portun": 4651,
      "attention": 4652,
      "supply": 4653,
      "grounds": 4654,
      "pitts": 4655,
      "transportation": 4656,
      "picture": 4657,
      "votes": 4658,
      "satellite": 4659,
      "bid": 4660,
      "emy": 4661,
      "comot": 4662,
      "plans": 4663,
      "resist": 4664,
      "centur": 4665,
      "ublin": 4666,
      "inaug": 4667,
      "cleveland": 4668,
      "devices": 4669,
      "harry": 4670,
      "paralymp": 4671,
      "passenger": 4672,
      "restaurant": 4673,
      "orchid": 4674,
      "sask": 4675,
      "tap": 4676,
      "wet": 4677,
      "xi": 4678,
      "always": 4679,
      "locomot": 4680,
      "minute": 4681,
      "parents": 4682,
      "internal": 4683,
      "singh": 4684,
      "parks": 4685,
      "breed": 4686,
      "investment": 4687,
      "gers": 4688,
      "kick": 4689,
      "matt": 4690,
      "tha": 4691,
      "iring": 4692,
      "opportun": 4693,
      "releases": 4694,
      "polish": 4695,
      "heads": 4696,
      "factory": 4697,
      "glas": 4698,
      "publisher": 4699,
      "challenge": 4700,
      "sponsored": 4701,
      "keeper": 4702,
      "likely": 4703,
      "datab": 4704,
      "cathedral": 4705,
      "bing": 4706,
      "eco": 4707,
      "gender": 4708,
      "statist": 4709,
      "flying": 4710,
      "gallery": 4711,
      "experimental": 4712,
      "dublin": 4713,
      "hag": 4714,
      "jama": 4715,
      "pus": 4716,
      "rig": 4717,
      "inse": 4718,
      "anderson": 4719,
      "ument": 4720,
      "proced": 4721,
      "genre": 4722,
      "charter": 4723,
      "insurance": 4724,
      "southeastern": 4725,
      "lieuten": 4726,
      "alis": 4727,
      "adi": 4728,
      "ivals": 4729,
      "mos": 4730,
      "peru": 4731,
      "denmark": 4732,
      "economics": 4733,
      "bassist": 4734,
      "planned": 4735,
      "progressive": 4736,
      "probably": 4737,
      "mud": 4738,
      "aine": 4739,
      "forming": 4740,
      "mining": 4741,
      "southwestern": 4742,
      "rapper": 4743,
      "punjab": 4744,
      "instrument": 4745,
      "ape": 4746,
      "kings": 4747,
      "nit": 4748,
      "instru": 4749,
      "chand": 4750,
      "ille": 4751,
      "concentr": 4752,
      "grav": 4753,
      "correspond": 4754,
      "norm": 4755,
      "canal": 4756,
      "crow": 4757,
      "corporate": 4758,
      "helped": 4759,
      "distin": 4760,
      "credit": 4761,
      "dallas": 4762,
      "zim": 4763,
      "universe": 4764,
      "hope": 4765,
      "opposition": 4766,
      "uge": 4767,
      "speaker": 4768,
      "taught": 4769,
      "contrast": 4770,
      "sequel": 4771,
      "forests": 4772,
      "spoken": 4773,
      "citizens": 4774,
      "cott": 4775,
      "demand": 4776,
      "utional": 4777,
      "interior": 4778,
      "salt": 4779,
      "brooklyn": 4780,
      "vehicles": 4781,
      "roof": 4782,
      "note": 4783,
      "romantic": 4784,
      "cler": 4785,
      "shaw": 4786,
      "gran": 4787,
      "phill": 4788,
      "creative": 4789,
      "maine": 4790,
      "wars": 4791,
      "volley": 4792,
      "controlled": 4793,
      "examples": 4794,
      "gol": 4795,
      "iat": 4796,
      "inger": 4797,
      "cow": 4798,
      "elle": 4799,
      "fought": 4800,
      "extr": 4801,
      "fruit": 4802,
      "ethnic": 4803,
      "promotion": 4804,
      "beyond": 4805,
      "argentina": 4806,
      "iques": 4807,
      "nebraska": 4808,
      "nik": 4809,
      "umed": 4810,
      "bris": 4811,
      "joining": 4812,
      "filmed": 4813,
      "liqu": 4814,
      "finally": 4815,
      "defensive": 4816,
      "richmond": 4817,
      "sequence": 4818,
      "diego": 4819,
      "shaped": 4820,
      "geometridae": 4821,
      "hd": 4822,
      "morgan": 4823,
      "sle": 4824,
      "ales": 4825,
      "stal": 4826,
      "eland": 4827,
      "ignation": 4828,
      "plain": 4829,
      "ett": 4830,
      "delhi": 4831,
      "leaders": 4832,
      "walter": 4833,
      "extensive": 4834,
      "baltim": 4835,
      "instrumental": 4836,
      "negative": 4837,
      "austin": 4838,
      "lieutenant": 4839,
      "bind": 4840,
      "cbs": 4841,
      "slight": 4842,
      "istr": 4843,
      "seek": 4844,
      "beck": 4845,
      "utah": 4846,
      "allen": 4847,
      "display": 4848,
      "angl": 4849,
      "evolution": 4850,
      "transit": 4851,
      "vancou": 4852,
      "malayalam": 4853,
      "converted": 4854,
      "difficult": 4855,
      "vancouver": 4856,
      "bug": 4857,
      "bath": 4858,
      "hs": 4859,
      "ibe": 4860,
      "kaz": 4861,
      "nell": 4862,
      "naz": 4863,
      "edited": 4864,
      "touch": 4865,
      "aments": 4866,
      "sec": 4867,
      "cra": 4868,
      "resolution": 4869,
      "broadway": 4870,
      "animation": 4871,
      "markets": 4872,
      "springs": 4873,
      "shape": 4874,
      "suffer": 4875,
      "dakota": 4876,
      "hang": 4877,
      "kur": 4878,
      "cock": 4879,
      "quant": 4880,
      "uster": 4881,
      "reaching": 4882,
      "audience": 4883,
      "combination": 4884,
      "agriculture": 4885,
      "philosophy": 4886,
      "saturday": 4887,
      "nichol": 4888,
      "montreal": 4889,
      "mum": 4890,
      "wol": 4891,
      "zz": 4892,
      "recomm": 4893,
      "unger": 4894,
      "coordin": 4895,
      "ela": 4896,
      "elor": 4897,
      "elve": 4898,
      "approved": 4899,
      "laid": 4900,
      "harvard": 4901,
      "roads": 4902,
      "holding": 4903,
      "battal": 4904,
      "selection": 4905,
      "possess": 4906,
      "retirement": 4907,
      "centuries": 4908,
      "bie": 4909,
      "jenn": 4910,
      "kam": 4911,
      "plot": 4912,
      "homes": 4913,
      "compass": 4914,
      "dram": 4915,
      "carib": 4916,
      "grammy": 4917,
      "vised": 4918,
      "trained": 4919,
      "painting": 4920,
      "existing": 4921,
      "liest": 4922,
      "protocol": 4923,
      "glasgow": 4924,
      "volleyball": 4925,
      "baltimore": 4926,
      "pale": 4927,
      "vement": 4928,
      "alu": 4929,
      "arc": 4930,
      "tru": 4931,
      "congreg": 4932,
      "moore": 4933,
      "freder": 4934,
      "otherwise": 4935,
      "guy": 4936,
      "guil": 4937,
      "appearing": 4938,
      "baby": 4939,
      "electrical": 4940,
      "expans": 4941,
      "initi": 4942,
      "jaco": 4943,
      "employed": 4944,
      "qualified": 4945,
      "tools": 4946,
      "agricultural": 4947,
      "bodies": 4948,
      "hr": 4949,
      "pig": 4950,
      "vid": 4951,
      "itled": 4952,
      "antly": 4953,
      "ennial": 4954,
      "walk": 4955,
      "paint": 4956,
      "colomb": 4957,
      "bann": 4958,
      "mort": 4959,
      "wings": 4960,
      "iso": 4961,
      "iced": 4962,
      "icul": 4963,
      "letter": 4964,
      "twelve": 4965,
      "processing": 4966,
      "setting": 4967,
      "bull": 4968,
      "buffalo": 4969,
      "thin": 4970,
      "ened": 4971,
      "touring": 4972,
      "tral": 4973,
      "uded": 4974,
      "therap": 4975,
      "horn": 4976,
      "vietnam": 4977,
      "gordon": 4978,
      "edinburgh": 4979,
      "matthew": 4980,
      "giving": 4981,
      "hra": 4982,
      "rice": 4983,
      "aspects": 4984,
      "reh": 4985,
      "chell": 4986,
      "seg": 4987,
      "ivity": 4988,
      "soap": 4989,
      "ima": 4990,
      "consecut": 4991,
      "ista": 4992,
      "derby": 4993,
      "warner": 4994,
      "survey": 4995,
      "supports": 4996,
      "quebec": 4997,
      "walker": 4998,
      "orders": 4999,
      "loyd": 5000,
      "athletes": 5001,
      "uters": 5002,
      "vit": 5003,
      "peg": 5004,
      "formally": 5005,
      "cancel": 5006,
      "spel": 5007,
      "movies": 5008,
      "brevi": 5009,
      "effic": 5010,
      "reviewed": 5011,
      "shared": 5012,
      "partnership": 5013,
      "dul": 5014,
      "lum": 5015,
      "mack": 5016,
      "seas": 5017,
      "trains": 5018,
      "berry": 5019,
      "outdoor": 5020,
      "delaware": 5021,
      "economy": 5022,
      "flood": 5023,
      "candidates": 5024,
      "clinical": 5025,
      "nie": 5026,
      "enough": 5027,
      "ambass": 5028,
      "colors": 5029,
      "pressure": 5030,
      "underground": 5031,
      "promoted": 5032,
      "regarded": 5033,
      "pilot": 5034,
      "brigade": 5035,
      "ceremony": 5036,
      "chosen": 5037,
      "christopher": 5038,
      "caribbean": 5039,
      "nba": 5040,
      "rian": 5041,
      "tab": 5042,
      "ivan": 5043,
      "trian": 5044,
      "heim": 5045,
      "spect": 5046,
      "cold": 5047,
      "genes": 5048,
      "genetic": 5049,
      "historian": 5050,
      "businesses": 5051,
      "flows": 5052,
      "diag": 5053,
      "turned": 5054,
      "tanz": 5055,
      "index": 5056,
      "symbol": 5057,
      "jurisdict": 5058,
      "fare": 5059,
      "lakes": 5060,
      "ng": 5061,
      "wins": 5062,
      "thail": 5063,
      "ortho": 5064,
      "disband": 5065,
      "fran": 5066,
      "americans": 5067,
      "portland": 5068,
      "divisions": 5069,
      "allowing": 5070,
      "keyboard": 5071,
      "employees": 5072,
      "collaboration": 5073,
      "chamber": 5074,
      "hud": 5075,
      "pes": 5076,
      "surn": 5077,
      "sale": 5078,
      "thy": 5079,
      "encour": 5080,
      "removed": 5081,
      "eline": 5082,
      "oles": 5083,
      "heat": 5084,
      "cramb": 5085,
      "goals": 5086,
      "myth": 5087,
      "winners": 5088,
      "terror": 5089,
      "sabha": 5090,
      "session": 5091,
      "freshwater": 5092,
      "thailand": 5093,
      "trip": 5094,
      "aband": 5095,
      "sustain": 5096,
      "posite": 5097,
      "villages": 5098,
      "harmon": 5099,
      "oba": 5100,
      "faces": 5101,
      "biggest": 5102,
      "existed": 5103,
      "shopping": 5104,
      "bachelor": 5105,
      "wolf": 5106,
      "enz": 5107,
      "drag": 5108,
      "iker": 5109,
      "specializing": 5110,
      "trees": 5111,
      "biological": 5112,
      "activist": 5113,
      "philippine": 5114,
      "piano": 5115,
      "bengal": 5116,
      "apolis": 5117,
      "branches": 5118,
      "isolated": 5119,
      "ault": 5120,
      "bart": 5121,
      "fas": 5122,
      "sang": 5123,
      "vary": 5124,
      "uni": 5125,
      "assess": 5126,
      "join": 5127,
      "ibly": 5128,
      "produces": 5129,
      "younger": 5130,
      "crambidae": 5131,
      "aide": 5132,
      "bure": 5133,
      "gib": 5134,
      "hend": 5135,
      "rav": 5136,
      "alum": 5137,
      "aces": 5138,
      "commod": 5139,
      "uttar": 5140,
      "abilities": 5141,
      "drawn": 5142,
      "finland": 5143,
      "wayne": 5144,
      "technologies": 5145,
      "specialized": 5146,
      "glen": 5147,
      "expert": 5148,
      "lux": 5149,
      "choice": 5150,
      "contributing": 5151,
      "influenced": 5152,
      "gardens": 5153,
      "maintained": 5154,
      "problem": 5155,
      "swimming": 5156,
      "fans": 5157,
      "km": 5158,
      "aran": 5159,
      "aren": 5160,
      "andy": 5161,
      "sets": 5162,
      "sector": 5163,
      "lying": 5164,
      "ceased": 5165,
      "plane": 5166,
      "marit": 5167,
      "minim": 5168,
      "poland": 5169,
      "shops": 5170,
      "ashtra": 5171,
      "techniques": 5172,
      "solar": 5173,
      "refle": 5174,
      "goods": 5175,
      "diam": 5176,
      "iaceae": 5177,
      "kit": 5178,
      "albert": 5179,
      "andre": 5180,
      "hem": 5181,
      "abbrevi": 5182,
      "bristol": 5183,
      "afford": 5184,
      "spread": 5185,
      "veget": 5186,
      "rooms": 5187,
      "thriller": 5188,
      "cartoon": 5189,
      "pittsburgh": 5190,
      "mul": 5191,
      "tox": 5192,
      "truck": 5193,
      "pective": 5194,
      "cris": 5195,
      "guide": 5196,
      "describes": 5197,
      "hindi": 5198,
      "completely": 5199,
      "rhyth": 5200,
      "declared": 5201,
      "mate": 5202,
      "una": 5203,
      "unes": 5204,
      "agan": 5205,
      "margar": 5206,
      "skin": 5207,
      "industries": 5208,
      "artistic": 5209,
      "physics": 5210,
      "emergency": 5211,
      "indonesian": 5212,
      "fold": 5213,
      "mck": 5214,
      "tend": 5215,
      "andro": 5216,
      "entitled": 5217,
      "aviation": 5218,
      "extra": 5219,
      "designs": 5220,
      "funding": 5221,
      "chemistry": 5222,
      "advertising": 5223,
      "surname": 5224,
      "rif": 5225,
      "tum": 5226,
      "isms": 5227,
      "degre": 5228,
      "prove": 5229,
      "doubl": 5230,
      "mini": 5231,
      "objects": 5232,
      "figures": 5233,
      "printed": 5234,
      "entirely": 5235,
      "phase": 5236,
      "stu": 5237,
      "bruce": 5238,
      "aki": 5239,
      "intel": 5240,
      "charity": 5241,
      "decades": 5242,
      "nataka": 5243,
      "mingham": 5244,
      "missions": 5245,
      "turk": 5246,
      "pianist": 5247,
      "virtual": 5248,
      "consecutive": 5249,
      "bt": 5250,
      "dish": 5251,
      "dated": 5252,
      "hes": 5253,
      "lions": 5254,
      "enfor": 5255,
      "chin": 5256,
      "chile": 5257,
      "resem": 5258,
      "filip": 5259,
      "compreh": 5260,
      "desc": 5261,
      "communist": 5262,
      "owners": 5263,
      "jordan": 5264,
      "emphas": 5265,
      "processes": 5266,
      "karnataka": 5267,
      "recognition": 5268,
      "instruments": 5269,
      "degrees": 5270,
      "jason": 5271,
      "arn": 5272,
      "uganda": 5273,
      "playstation": 5274,
      "decade": 5275,
      "transmit": 5276,
      "clean": 5277,
      "laboratory": 5278,
      "storm": 5279,
      "prede": 5280,
      "nelson": 5281,
      "cycling": 5282,
      "kelly": 5283,
      "hunter": 5284,
      "molecular": 5285,
      "bidae": 5286,
      "gala": 5287,
      "raf": 5288,
      "pope": 5289,
      "ifer": 5290,
      "expected": 5291,
      "newly": 5292,
      "colleges": 5293,
      "mills": 5294,
      "magic": 5295,
      "personnel": 5296,
      "franklin": 5297,
      "birmingham": 5298,
      "sweet": 5299,
      "ninth": 5300,
      "afghanistan": 5301,
      "fu": 5302,
      "oned": 5303,
      "cool": 5304,
      "seed": 5305,
      "bom": 5306,
      "excell": 5307,
      "preced": 5308,
      "provision": 5309,
      "launch": 5310,
      "cdp": 5311,
      "manufactured": 5312,
      "camera": 5313,
      "reasons": 5314,
      "component": 5315,
      "alpha": 5316,
      "cass": 5317,
      "drew": 5318,
      "lers": 5319,
      "thal": 5320,
      "inhabit": 5321,
      "plas": 5322,
      "aber": 5323,
      "mania": 5324,
      "aham": 5325,
      "continental": 5326,
      "masters": 5327,
      "platinum": 5328,
      "contributed": 5329,
      "regularly": 5330,
      "needs": 5331,
      "vessel": 5332,
      "statistical": 5333,
      "ambassador": 5334,
      "cze": 5335,
      "kath": 5336,
      "wine": 5337,
      "remix": 5338,
      "amaz": 5339,
      "util": 5340,
      "conce": 5341,
      "actually": 5342,
      "paras": 5343,
      "receive": 5344,
      "campbell": 5345,
      "drums": 5346,
      "occupied": 5347,
      "kirk": 5348,
      "jum": 5349,
      "icon": 5350,
      "deleg": 5351,
      "somer": 5352,
      "erebidae": 5353,
      "eley": 5354,
      "enna": 5355,
      "extens": 5356,
      "purposes": 5357,
      "scotia": 5358,
      "bonus": 5359,
      "warren": 5360,
      "thirty": 5361,
      "obtained": 5362,
      "demonstr": 5363,
      "imperial": 5364,
      "cn": 5365,
      "haz": 5366,
      "pp": 5367,
      "uan": 5368,
      "determ": 5369,
      "allies": 5370,
      "bos": 5371,
      "maur": 5372,
      "descent": 5373,
      "letters": 5374,
      "broadcasts": 5375,
      "pieces": 5376,
      "portugues": 5377,
      "mentioned": 5378,
      "noctu": 5379,
      "determine": 5380,
      "gio": 5381,
      "tier": 5382,
      "von": 5383,
      "iding": 5384,
      "convict": 5385,
      "modif": 5386,
      "opposed": 5387,
      "grown": 5388,
      "genera": 5389,
      "effort": 5390,
      "educated": 5391,
      "solid": 5392,
      "turkey": 5393,
      "screenplay": 5394,
      "scientist": 5395,
      "nigerian": 5396,
      "narrow": 5397,
      "maharashtra": 5398,
      "portuguese": 5399,
      "gent": 5400,
      "orph": 5401,
      "edy": 5402,
      "eties": 5403,
      "maria": 5404,
      "broken": 5405,
      "attend": 5406,
      "ennis": 5407,
      "proteins": 5408,
      "honors": 5409,
      "tournaments": 5410,
      "effective": 5411,
      "astronom": 5412,
      "hell": 5413,
      "sno": 5414,
      "tus": 5415,
      "eries": 5416,
      "ilit": 5417,
      "agues": 5418,
      "earliest": 5419,
      "dox": 5420,
      "files": 5421,
      "anger": 5422,
      "laur": 5423,
      "rell": 5424,
      "persons": 5425,
      "hollywood": 5426,
      "murray": 5427,
      "introduction": 5428,
      "saints": 5429,
      "violence": 5430,
      "portrayed": 5431,
      "conflict": 5432,
      "aar": 5433,
      "bane": 5434,
      "bats": 5435,
      "lip": 5436,
      "wides": 5437,
      "usual": 5438,
      "neu": 5439,
      "fee": 5440,
      "northeastern": 5441,
      "faith": 5442,
      "happen": 5443,
      "residence": 5444,
      "puer": 5445,
      "advant": 5446,
      "dating": 5447,
      "iately": 5448,
      "income": 5449,
      "atche": 5450,
      "reform": 5451,
      "recip": 5452,
      "emper": 5453,
      "agencies": 5454,
      "immun": 5455,
      "apers": 5456,
      "shrub": 5457,
      "ellidae": 5458,
      "job": 5459,
      "singing": 5460,
      "ryan": 5461,
      "classification": 5462,
      "croat": 5463,
      "continue": 5464,
      "personality": 5465,
      "resulted": 5466,
      "employment": 5467,
      "establishment": 5468,
      "components": 5469,
      "taiwan": 5470,
      "database": 5471,
      "slightly": 5472,
      "battalion": 5473,
      "expansion": 5474,
      "diamond": 5475,
      "aa": 5476,
      "fro": 5477,
      "hatt": 5478,
      "lag": 5479,
      "sier": 5480,
      "tok": 5481,
      "chor": 5482,
      "worn": 5483,
      "serious": 5484,
      "dissol": 5485,
      "dogs": 5486,
      "hyper": 5487,
      "aux": 5488,
      "damage": 5489,
      "photography": 5490,
      "powered": 5491,
      "climate": 5492,
      "islamic": 5493,
      "maximum": 5494,
      "normally": 5495,
      "maritime": 5496,
      "noctuidae": 5497,
      "raw": 5498,
      "acres": 5499,
      "indigen": 5500,
      "speaking": 5501,
      "crete": 5502,
      "popularity": 5503,
      "commissioner": 5504,
      "claims": 5505,
      "terminal": 5506,
      "granted": 5507,
      "finishing": 5508,
      "comprises": 5509,
      "accepted": 5510,
      "baptist": 5511,
      "saskatche": 5512,
      "saskatchewan": 5513,
      "furn": 5514,
      "hil": 5515,
      "forum": 5516,
      "spider": 5517,
      "monitor": 5518,
      "receiving": 5519,
      "invas": 5520,
      "typical": 5521,
      "russell": 5522,
      "devon": 5523,
      "lotte": 5524,
      "definition": 5525,
      "adelaide": 5526,
      "psychology": 5527,
      "jimmy": 5528,
      "attribut": 5529,
      "nag": 5530,
      "nhl": 5531,
      "rum": 5532,
      "estone": 5533,
      "etime": 5534,
      "bought": 5535,
      "enson": 5536,
      "grove": 5537,
      "pread": 5538,
      "finance": 5539,
      "jane": 5540,
      "sense": 5541,
      "rolling": 5542,
      "extrem": 5543,
      "motors": 5544,
      "gather": 5545,
      "stood": 5546,
      "heavily": 5547,
      "pyram": 5548,
      "billy": 5549,
      "jesus": 5550,
      "injury": 5551,
      "widespread": 5552,
      "fitz": 5553,
      "hans": 5554,
      "hors": 5555,
      "mtv": 5556,
      "slow": 5557,
      "tig": 5558,
      "sem": 5559,
      "graham": 5560,
      "intermed": 5561,
      "interface": 5562,
      "lah": 5563,
      "historically": 5564,
      "lington": 5565,
      "democrat": 5566,
      "circle": 5567,
      "appropr": 5568,
      "chapel": 5569,
      "barry": 5570,
      "fixed": 5571,
      "fungi": 5572,
      "fell": 5573,
      "pip": 5574,
      "sized": 5575,
      "tul": 5576,
      "ulo": 5577,
      "aters": 5578,
      "else": 5579,
      "sections": 5580,
      "hear": 5581,
      "shah": 5582,
      "miner": 5583,
      "prefer": 5584,
      "producers": 5585,
      "operate": 5586,
      "identity": 5587,
      "morris": 5588,
      "streets": 5589,
      "holder": 5590,
      "possibly": 5591,
      "integrated": 5592,
      "accident": 5593,
      "elementary": 5594,
      "strategy": 5595,
      "comprehensive": 5596,
      "puerto": 5597,
      "indigenous": 5598,
      "theor": 5599,
      "ento": 5600,
      "demol": 5601,
      "images": 5602,
      "crater": 5603,
      "marvel": 5604,
      "gospel": 5605,
      "sony": 5606,
      "patients": 5607,
      "extension": 5608,
      "involving": 5609,
      "interests": 5610,
      "bernard": 5611,
      "jonathan": 5612,
      "dna": 5613,
      "gur": 5614,
      "java": 5615,
      "til": 5616,
      "tact": 5617,
      "wers": 5618,
      "enix": 5619,
      "amend": 5620,
      "copal": 5621,
      "peaking": 5622,
      "moham": 5623,
      "bred": 5624,
      "johnny": 5625,
      "governing": 5626,
      "longest": 5627,
      "successor": 5628,
      "connection": 5629,
      "funds": 5630,
      "monthly": 5631,
      "marshall": 5632,
      "pioneer": 5633,
      "gulf": 5634,
      "nashville": 5635,
      "cart": 5636,
      "gel": 5637,
      "nand": 5638,
      "oy": 5639,
      "encompass": 5640,
      "asi": 5641,
      "items": 5642,
      "trio": 5643,
      "som": 5644,
      "abs": 5645,
      "elder": 5646,
      "issance": 5647,
      "valent": 5648,
      "describe": 5649,
      "directors": 5650,
      "funded": 5651,
      "destroyed": 5652,
      "tanzania": 5653,
      "disbanded": 5654,
      "oz": 5655,
      "pav": 5656,
      "rend": 5657,
      "task": 5658,
      "amy": 5659,
      "administer": 5660,
      "composition": 5661,
      "prec": 5662,
      "evol": 5663,
      "topics": 5664,
      "technique": 5665,
      "soldiers": 5666,
      "commerce": 5667,
      "bulgar": 5668,
      "riding": 5669,
      "adventures": 5670,
      "reduced": 5671,
      "advance": 5672,
      "mathematics": 5673,
      "electronics": 5674,
      "bureau": 5675,
      "cash": 5676,
      "oter": 5677,
      "rib": 5678,
      "vine": 5679,
      "chess": 5680,
      "dee": 5681,
      "crash": 5682,
      "talent": 5683,
      "coverage": 5684,
      "pleas": 5685,
      "handed": 5686,
      "cyclist": 5687,
      "baker": 5688,
      "acon": 5689,
      "uted": 5690,
      "nomine": 5691,
      "clip": 5692,
      "commons": 5693,
      "strug": 5694,
      "osa": 5695,
      "belt": 5696,
      "dynast": 5697,
      "stands": 5698,
      "palace": 5699,
      "competes": 5700,
      "grades": 5701,
      "greece": 5702,
      "giant": 5703,
      "ranking": 5704,
      "successfully": 5705,
      "publishes": 5706,
      "architectural": 5707,
      "confused": 5708,
      "attached": 5709,
      "fighter": 5710,
      "bian": 5711,
      "cinc": 5712,
      "dir": 5713,
      "lig": 5714,
      "rated": 5715,
      "tong": 5716,
      "bears": 5717,
      "losing": 5718,
      "imag": 5719,
      "abbey": 5720,
      "sugar": 5721,
      "oted": 5722,
      "dock": 5723,
      "ache": 5724,
      "cannot": 5725,
      "mono": 5726,
      "collected": 5727,
      "myr": 5728,
      "bara": 5729,
      "simul": 5730,
      "denomin": 5731,
      "fishing": 5732,
      "martial": 5733,
      "astru": 5734,
      "sierra": 5735,
      "rar": 5736,
      "zam": 5737,
      "somal": 5738,
      "ims": 5739,
      "suff": 5740,
      "mental": 5741,
      "speech": 5742,
      "ampton": 5743,
      "mah": 5744,
      "gery": 5745,
      "households": 5746,
      "appeal": 5747,
      "switch": 5748,
      "cloud": 5749,
      "background": 5750,
      "powerful": 5751,
      "magazines": 5752,
      "physician": 5753,
      "cards": 5754,
      "wildlife": 5755,
      "immediately": 5756,
      "necessary": 5757,
      "enterprise": 5758,
      "zimbab": 5759,
      "brisbane": 5760,
      "diagno": 5761,
      "enforcement": 5762,
      "predecess": 5763,
      "iac": 5764,
      "kon": 5765,
      "sah": 5766,
      "alone": 5767,
      "coup": 5768,
      "acre": 5769,
      "sevent": 5770,
      "soil": 5771,
      "goes": 5772,
      "engines": 5773,
      "interactive": 5774,
      "collect": 5775,
      "stewart": 5776,
      "treas": 5777,
      "trading": 5778,
      "equival": 5779,
      "powers": 5780,
      "column": 5781,
      "crossing": 5782,
      "elimin": 5783,
      "zimbabwe": 5784,
      "fuel": 5785,
      "kap": 5786,
      "steven": 5787,
      "toy": 5788,
      "mead": 5789,
      "feel": 5790,
      "goth": 5791,
      "flash": 5792,
      "collections": 5793,
      "charlotte": 5794,
      "organic": 5795,
      "venues": 5796,
      "authors": 5797,
      "sprint": 5798,
      "hardware": 5799,
      "thompson": 5800,
      "paralle": 5801,
      "frederick": 5802,
      "cincinn": 5803,
      "sie": 5804,
      "sung": 5805,
      "olia": 5806,
      "tram": 5807,
      "iot": 5808,
      "phr": 5809,
      "computers": 5810,
      "genres": 5811,
      "governments": 5812,
      "patrol": 5813,
      "troops": 5814,
      "protected": 5815,
      "characterized": 5816,
      "channels": 5817,
      "regarding": 5818,
      "looking": 5819,
      "scenes": 5820,
      "entrance": 5821,
      "infrastru": 5822,
      "roberts": 5823,
      "cincinnati": 5824,
      "fib": 5825,
      "iy": 5826,
      "chen": 5827,
      "loan": 5828,
      "iah": 5829,
      "causes": 5830,
      "consul": 5831,
      "jected": 5832,
      "basin": 5833,
      "specializes": 5834,
      "episcopal": 5835,
      "mitchell": 5836,
      "testing": 5837,
      "involves": 5838,
      "colored": 5839,
      "hindu": 5840,
      "newspapers": 5841,
      "straight": 5842,
      "robinson": 5843,
      "computing": 5844,
      "craig": 5845,
      "ogen": 5846,
      "things": 5847,
      "encing": 5848,
      "enzy": 5849,
      "hod": 5850,
      "logy": 5851,
      "norman": 5852,
      "scheme": 5853,
      "pursu": 5854,
      "passing": 5855,
      "premiership": 5856,
      "nomination": 5857,
      "boundary": 5858,
      "question": 5859,
      "consumer": 5860,
      "quickly": 5861,
      "anglican": 5862,
      "canceled": 5863,
      "orthodox": 5864,
      "jav": 5865,
      "kor": 5866,
      "mak": 5867,
      "roots": 5868,
      "adults": 5869,
      "triple": 5870,
      "lou": 5871,
      "context": 5872,
      "shut": 5873,
      "manit": 5874,
      "ustic": 5875,
      "restrial": 5876,
      "mines": 5877,
      "notes": 5878,
      "poll": 5879,
      "broke": 5880,
      "virus": 5881,
      "authorities": 5882,
      "descript": 5883,
      "platforms": 5884,
      "inus": 5885,
      "andhra": 5886,
      "amph": 5887,
      "unk": 5888,
      "tril": 5889,
      "umes": 5890,
      "clif": 5891,
      "fried": 5892,
      "kept": 5893,
      "offensive": 5894,
      "annivers": 5895,
      "paid": 5896,
      "equal": 5897,
      "rico": 5898,
      "practices": 5899,
      "logical": 5900,
      "citizen": 5901,
      "weapons": 5902,
      "ori": 5903,
      "armor": 5904,
      "iti": 5905,
      "aman": 5906,
      "terior": 5907,
      "priest": 5908,
      "exped": 5909,
      "carter": 5910,
      "evalu": 5911,
      "ogle": 5912,
      "headed": 5913,
      "protect": 5914,
      "socialist": 5915,
      "predomin": 5916,
      "tributary": 5917,
      "skills": 5918,
      "margaret": 5919,
      "diverse": 5920,
      "lg": 5921,
      "lil": 5922,
      "itus": 5923,
      "roger": 5924,
      "ingham": 5925,
      "tos": 5926,
      "admir": 5927,
      "decre": 5928,
      "sover": 5929,
      "igation": 5930,
      "improve": 5931,
      "illery": 5932,
      "actual": 5933,
      "oke": 5934,
      "mainstream": 5935,
      "bled": 5936,
      "beetles": 5937,
      "ensemb": 5938,
      "fifa": 5939,
      "neighboring": 5940,
      "oxy": 5941,
      "photographer": 5942,
      "autono": 5943,
      "liverpool": 5944,
      "somerset": 5945,
      "infrastructure": 5946,
      "hed": 5947,
      "hub": 5948,
      "nut": 5949,
      "wre": 5950,
      "wig": 5951,
      "remo": 5952,
      "reign": 5953,
      "revenue": 5954,
      "hole": 5955,
      "pear": 5956,
      "confir": 5957,
      "opter": 5958,
      "perth": 5959,
      "colony": 5960,
      "centered": 5961,
      "intersection": 5962,
      "keith": 5963,
      "originated": 5964,
      "venez": 5965,
      "twin": 5966,
      "hai": 5967,
      "graphics": 5968,
      "romania": 5969,
      "boxer": 5970,
      "safe": 5971,
      "yards": 5972,
      "installed": 5973,
      "competitive": 5974,
      "liquid": 5975,
      "filipino": 5976,
      "anniversary": 5977,
      "aj": 5978,
      "hull": 5979,
      "mason": 5980,
      "phis": 5981,
      "erc": 5982,
      "icient": 5983,
      "chant": 5984,
      "entially": 5985,
      "clan": 5986,
      "ards": 5987,
      "quad": 5988,
      "vegas": 5989,
      "ternal": 5990,
      "tape": 5991,
      "milk": 5992,
      "documents": 5993,
      "photograph": 5994,
      "screenwriter": 5995,
      "partners": 5996,
      "sessions": 5997,
      "ultimately": 5998,
      "symph": 5999,
      "mystery": 6000,
      "abandoned": 6001,
      "emperor": 6002,
      "caf": 6003,
      "yon": 6004,
      "orle": 6005,
      "isle": 6006,
      "atra": 6007,
      "rop": 6008,
      "emor": 6009,
      "resigned": 6010,
      "frag": 6011,
      "omon": 6012,
      "understanding": 6013,
      "ologic": 6014,
      "panel": 6015,
      "hawa": 6016,
      "sponsor": 6017,
      "egyptian": 6018,
      "spiritual": 6019,
      "ottawa": 6020,
      "manitoba": 6021,
      "rush": 6022,
      "zon": 6023,
      "stamp": 6024,
      "stones": 6025,
      "opin": 6026,
      "otto": 6027,
      "phar": 6028,
      "driving": 6029,
      "knock": 6030,
      "locality": 6031,
      "professionals": 6032,
      "atorial": 6033,
      "incident": 6034,
      "renov": 6035,
      "needed": 6036,
      "haps": 6037,
      "adams": 6038,
      "jefferson": 6039,
      "details": 6040,
      "kumar": 6041,
      "shooting": 6042,
      "autonomous": 6043,
      "divers": 6044,
      "ea": 6045,
      "fers": 6046,
      "gap": 6047,
      "kann": 6048,
      "ture": 6049,
      "alaska": 6050,
      "replace": 6051,
      "uma": 6052,
      "mosco": 6053,
      "borders": 6054,
      "tons": 6055,
      "overseas": 6056,
      "charged": 6057,
      "chronic": 6058,
      "visitors": 6059,
      "festivals": 6060,
      "boxing": 6061,
      "shares": 6062,
      "canton": 6063,
      "mm": 6064,
      "mund": 6065,
      "obl": 6066,
      "ube": 6067,
      "vfl": 6068,
      "rear": 6069,
      "lex": 6070,
      "olo": 6071,
      "interview": 6072,
      "iley": 6073,
      "wells": 6074,
      "developer": 6075,
      "venture": 6076,
      "factors": 6077,
      "railways": 6078,
      "constitutional": 6079,
      "onymous": 6080,
      "traditionally": 6081,
      "treaty": 6082,
      "pakistani": 6083,
      "surviving": 6084,
      "layer": 6085,
      "goalkeeper": 6086,
      "exclusively": 6087,
      "bible": 6088,
      "iner": 6089,
      "perhaps": 6090,
      "string": 6091,
      "calgary": 6092,
      "owns": 6093,
      "swick": 6094,
      "lingu": 6095,
      "engineers": 6096,
      "select": 6097,
      "failure": 6098,
      "telugu": 6099,
      "captured": 6100,
      "mumbai": 6101,
      "gives": 6102,
      "pts": 6103,
      "tir": 6104,
      "chry": 6105,
      "terry": 6106,
      "ayan": 6107,
      "worship": 6108,
      "norfolk": 6109,
      "anga": 6110,
      "subjects": 6111,
      "belief": 6112,
      "gaelic": 6113,
      "phoenix": 6114,
      "explo": 6115,
      "costa": 6116,
      "hurling": 6117,
      "habitats": 6118,
      "belongs": 6119,
      "voted": 6120,
      "occasionally": 6121,
      "colombia": 6122,
      "therapy": 6123,
      "intermediate": 6124,
      "dynasty": 6125,
      "orleans": 6126,
      "dic": 6127,
      "lak": 6128,
      "pink": 6129,
      "wag": 6130,
      "yar": 6131,
      "inhib": 6132,
      "ening": 6133,
      "lod": 6134,
      "emen": 6135,
      "foster": 6136,
      "dragon": 6137,
      "evans": 6138,
      "facilit": 6139,
      "expression": 6140,
      "papers": 6141,
      "purchase": 6142,
      "reduce": 6143,
      "swimmer": 6144,
      "electro": 6145,
      "volunteer": 6146,
      "strategic": 6147,
      "territories": 6148,
      "enzyme": 6149,
      "pn": 6150,
      "ride": 6151,
      "sap": 6152,
      "aly": 6153,
      "eno": 6154,
      "stay": 6155,
      "lett": 6156,
      "elong": 6157,
      "ivor": 6158,
      "agas": 6159,
      "ulu": 6160,
      "jour": 6161,
      "driven": 6162,
      "buy": 6163,
      "tenth": 6164,
      "gerald": 6165,
      "courthouse": 6166,
      "denver": 6167,
      "hands": 6168,
      "watch": 6169,
      "llc": 6170,
      "categories": 6171,
      "constant": 6172,
      "oriented": 6173,
      "adaptation": 6174,
      "receptor": 6175,
      "inaugural": 6176,
      "abbreviated": 6177,
      "inhabitants": 6178,
      "equivalent": 6179,
      "moscow": 6180,
      "wicket": 6181,
      "inals": 6182,
      "stick": 6183,
      "oliver": 6184,
      "becomes": 6185,
      "trap": 6186,
      "avoid": 6187,
      "strike": 6188,
      "guid": 6189,
      "charlie": 6190,
      "moroc": 6191,
      "solutions": 6192,
      "depending": 6193,
      "voy": 6194,
      "tourism": 6195,
      "comedian": 6196,
      "nominations": 6197,
      "measures": 6198,
      "brunswick": 6199,
      "shield": 6200,
      "czech": 6201,
      "dles": 6202,
      "eup": 6203,
      "lanc": 6204,
      "vet": 6205,
      "routes": 6206,
      "toured": 6207,
      "neil": 6208,
      "bott": 6209,
      "marie": 6210,
      "izz": 6211,
      "monument": 6212,
      "cypr": 6213,
      "movements": 6214,
      "taluk": 6215,
      "themes": 6216,
      "blog": 6217,
      "importance": 6218,
      "participate": 6219,
      "agonist": 6220,
      "wanted": 6221,
      "bb": 6222,
      "bak": 6223,
      "knight": 6224,
      "phe": 6225,
      "leave": 6226,
      "leban": 6227,
      "unct": 6228,
      "utical": 6229,
      "plastic": 6230,
      "berland": 6231,
      "vermont": 6232,
      "maj": 6233,
      "woods": 6234,
      "extre": 6235,
      "circum": 6236,
      "restor": 6237,
      "samuel": 6238,
      "vincent": 6239,
      "chapter": 6240,
      "option": 6241,
      "preserved": 6242,
      "ais": 6243,
      "athen": 6244,
      "gus": 6245,
      "hid": 6246,
      "rican": 6247,
      "vul": 6248,
      "prest": 6249,
      "mode": 6250,
      "iction": 6251,
      "josh": 6252,
      "presid": 6253,
      "herb": 6254,
      "desert": 6255,
      "oming": 6256,
      "matter": 6257,
      "barn": 6258,
      "hypo": 6259,
      "rocks": 6260,
      "frey": 6261,
      "judic": 6262,
      "teachers": 6263,
      "attacks": 6264,
      "nascar": 6265,
      "archeological": 6266,
      "briefly": 6267,
      "beauty": 6268,
      "resistance": 6269,
      "doubles": 6270,
      "fusion": 6271,
      "iber": 6272,
      "iency": 6273,
      "ligh": 6274,
      "vest": 6275,
      "theatr": 6276,
      "orn": 6277,
      "alco": 6278,
      "terrestrial": 6279,
      "heard": 6280,
      "agents": 6281,
      "allied": 6282,
      "opposite": 6283,
      "exists": 6284,
      "cork": 6285,
      "tenance": 6286,
      "lith": 6287,
      "maintenance": 6288,
      "presenter": 6289,
      "defend": 6290,
      "freestyle": 6291,
      "novelist": 6292,
      "statistics": 6293,
      "concerts": 6294,
      "femin": 6295,
      "assistance": 6296,
      "susp": 6297,
      "affiliate": 6298,
      "investigation": 6299,
      "horses": 6300,
      "bm": 6301,
      "dh": 6302,
      "dwell": 6303,
      "gaz": 6304,
      "hers": 6305,
      "pub": 6306,
      "pure": 6307,
      "edia": 6308,
      "essex": 6309,
      "leagues": 6310,
      "accur": 6311,
      "bever": 6312,
      "trig": 6313,
      "resol": 6314,
      "submarine": 6315,
      "merger": 6316,
      "restored": 6317,
      "concerns": 6318,
      "montana": 6319,
      "mechanical": 6320,
      "linked": 6321,
      "framework": 6322,
      "arranged": 6323,
      "requirements": 6324,
      "replacing": 6325,
      "alleged": 6326,
      "parallel": 6327,
      "hawaii": 6328,
      "bun": 6329,
      "cof": 6330,
      "een": 6331,
      "ghost": 6332,
      "rs": 6333,
      "xx": 6334,
      "itv": 6335,
      "told": 6336,
      "chick": 6337,
      "emmy": 6338,
      "artific": 6339,
      "fect": 6340,
      "centime": 6341,
      "portions": 6342,
      "bros": 6343,
      "attemp": 6344,
      "gujar": 6345,
      "transition": 6346,
      "surgery": 6347,
      "tours": 6348,
      "focusing": 6349,
      "ethiop": 6350,
      "clinton": 6351,
      "exhibition": 6352,
      "substant": 6353,
      "attempts": 6354,
      "gone": 6355,
      "pond": 6356,
      "sut": 6357,
      "tub": 6358,
      "vor": 6359,
      "inspe": 6360,
      "inations": 6361,
      "thet": 6362,
      "enhan": 6363,
      "rowing": 6364,
      "stakes": 6365,
      "chlor": 6366,
      "elig": 6367,
      "igo": 6368,
      "botan": 6369,
      "locally": 6370,
      "airing": 6371,
      "evil": 6372,
      "anny": 6373,
      "bark": 6374,
      "capit": 6375,
      "links": 6376,
      "valid": 6377,
      "patient": 6378,
      "pitcher": 6379,
      "influential": 6380,
      "thorough": 6381,
      "nucle": 6382,
      "collins": 6383,
      "venezuel": 6384,
      "cant": 6385,
      "cue": 6386,
      "fear": 6387,
      "lloyd": 6388,
      "rival": 6389,
      "tz": 6390,
      "wau": 6391,
      "alpine": 6392,
      "argu": 6393,
      "chase": 6394,
      "ivia": 6395,
      "lok": 6396,
      "proceed": 6397,
      "dod": 6398,
      "sche": 6399,
      "evangel": 6400,
      "hamlet": 6401,
      "observed": 6402,
      "breast": 6403,
      "patent": 6404,
      "voters": 6405,
      "eases": 6406,
      "anean": 6407,
      "ordered": 6408,
      "handball": 6409,
      "privately": 6410,
      "boundaries": 6411,
      "grows": 6412,
      "drugs": 6413,
      "customers": 6414,
      "bacterium": 6415,
      "kennedy": 6416,
      "determined": 6417,
      "crisis": 6418,
      "confirmed": 6419,
      "iinae": 6420,
      "lights": 6421,
      "err": 6422,
      "stages": 6423,
      "lem": 6424,
      "amal": 6425,
      "cox": 6426,
      "olid": 6427,
      "height": 6428,
      "shir": 6429,
      "marc": 6430,
      "commemor": 6431,
      "ampa": 6432,
      "undergraduate": 6433,
      "educator": 6434,
      "managing": 6435,
      "snake": 6436,
      "coached": 6437,
      "premiere": 6438,
      "ruled": 6439,
      "malaysian": 6440,
      "resource": 6441,
      "antonio": 6442,
      "dollar": 6443,
      "coalition": 6444,
      "catalog": 6445,
      "ukraine": 6446,
      "roughly": 6447,
      "populations": 6448,
      "marathon": 6449,
      "modified": 6450,
      "iar": 6451,
      "jet": 6452,
      "outer": 6453,
      "pis": 6454,
      "rein": 6455,
      "recru": 6456,
      "stret": 6457,
      "neck": 6458,
      "optim": 6459,
      "sudan": 6460,
      "manus": 6461,
      "gren": 6462,
      "diseases": 6463,
      "google": 6464,
      "drivers": 6465,
      "membr": 6466,
      "voir": 6467,
      "sitcom": 6468,
      "marketed": 6469,
      "amongst": 6470,
      "editions": 6471,
      "scoring": 6472,
      "krish": 6473,
      "motorcycle": 6474,
      "thorn": 6475,
      "heavyweight": 6476,
      "passengers": 6477,
      "vessels": 6478,
      "defeating": 6479,
      "extremely": 6480,
      "hms": 6481,
      "vs": 6482,
      "oral": 6483,
      "reporter": 6484,
      "leigh": 6485,
      "ello": 6486,
      "apply": 6487,
      "grace": 6488,
      "output": 6489,
      "offering": 6490,
      "ifications": 6491,
      "breath": 6492,
      "visible": 6493,
      "ordinary": 6494,
      "benjam": 6495,
      "explos": 6496,
      "policies": 6497,
      "wyn": 6498,
      "tells": 6499,
      "correct": 6500,
      "berkeley": 6501,
      "ao": 6502,
      "gae": 6503,
      "hut": 6504,
      "iast": 6505,
      "lib": 6506,
      "tang": 6507,
      "ticket": 6508,
      "tissue": 6509,
      "yam": 6510,
      "atp": 6511,
      "robot": 6512,
      "ipur": 6513,
      "exact": 6514,
      "assumed": 6515,
      "fron": 6516,
      "creator": 6517,
      "rah": 6518,
      "carp": 6519,
      "blind": 6520,
      "something": 6521,
      "retained": 6522,
      "cultiv": 6523,
      "latest": 6524,
      "madagas": 6525,
      "returning": 6526,
      "significantly": 6527,
      "voting": 6528,
      "translated": 6529,
      "acoustic": 6530,
      "replacement": 6531,
      "cence": 6532,
      "ucester": 6533,
      "vik": 6534,
      "zamb": 6535,
      "enjoy": 6536,
      "icate": 6537,
      "stable": 6538,
      "illegal": 6539,
      "waste": 6540,
      "sham": 6541,
      "geologic": 6542,
      "ongo": 6543,
      "minster": 6544,
      "airline": 6545,
      "strength": 6546,
      "matters": 6547,
      "linux": 6548,
      "limit": 6549,
      "easy": 6550,
      "dancer": 6551,
      "gloucester": 6552,
      "vinyl": 6553,
      "sarah": 6554,
      "sufficient": 6555,
      "predecessor": 6556,
      "kash": 6557,
      "lion": 6558,
      "rud": 6559,
      "oft": 6560,
      "mosph": 6561,
      "ophor": 6562,
      "write": 6563,
      "monte": 6564,
      "counsel": 6565,
      "bling": 6566,
      "generated": 6567,
      "johann": 6568,
      "easily": 6569,
      "madison": 6570,
      "requires": 6571,
      "figur": 6572,
      "translation": 6573,
      "controversial": 6574,
      "concluded": 6575,
      "rhythm": 6576,
      "tigers": 6577,
      "administered": 6578,
      "bib": 6579,
      "cis": 6580,
      "fs": 6581,
      "gm": 6582,
      "gly": 6583,
      "nus": 6584,
      "overs": 6585,
      "rag": 6586,
      "tiger": 6587,
      "itis": 6588,
      "devil": 6589,
      "hom": 6590,
      "hect": 6591,
      "confeder": 6592,
      "nee": 6593,
      "external": 6594,
      "portra": 6595,
      "otic": 6596,
      "ckland": 6597,
      "cargo": 6598,
      "striker": 6599,
      "brow": 6600,
      "collective": 6601,
      "leads": 6602,
      "deploy": 6603,
      "rocky": 6604,
      "icester": 6605,
      "specialist": 6606,
      "charted": 6607,
      "superior": 6608,
      "officials": 6609,
      "settled": 6610,
      "affected": 6611,
      "implementation": 6612,
      "styles": 6613,
      "paralympics": 6614,
      "jamaica": 6615,
      "descend": 6616,
      "remote": 6617,
      "extreme": 6618,
      "bhar": 6619,
      "dum": 6620,
      "dart": 6621,
      "kay": 6622,
      "nun": 6623,
      "sad": 6624,
      "ili": 6625,
      "bots": 6626,
      "pole": 6627,
      "iful": 6628,
      "speak": 6629,
      "gros": 6630,
      "notting": 6631,
      "monarch": 6632,
      "relief": 6633,
      "osaur": 6634,
      "values": 6635,
      "aims": 6636,
      "legislation": 6637,
      "operational": 6638,
      "emeritus": 6639,
      "eagles": 6640,
      "canoe": 6641,
      "jacob": 6642,
      "couple": 6643,
      "artificial": 6644,
      "madagascar": 6645,
      "fus": 6646,
      "ffield": 6647,
      "larry": 6648,
      "nab": 6649,
      "ww": 6650,
      "atmosph": 6651,
      "elite": 6652,
      "acle": 6653,
      "playoff": 6654,
      "landmark": 6655,
      "ologists": 6656,
      "professionally": 6657,
      "relating": 6658,
      "representation": 6659,
      "viewers": 6660,
      "panama": 6661,
      "duty": 6662,
      "appointment": 6663,
      "responsibility": 6664,
      "achieve": 6665,
      "provinces": 6666,
      "julian": 6667,
      "nancy": 6668,
      "advocate": 6669,
      "gymnast": 6670,
      "ensemble": 6671,
      "gem": 6672,
      "kids": 6673,
      "liz": 6674,
      "pairs": 6675,
      "rip": 6676,
      "icide": 6677,
      "hook": 6678,
      "peters": 6679,
      "petro": 6680,
      "cliff": 6681,
      "cluster": 6682,
      "essential": 6683,
      "manor": 6684,
      "grif": 6685,
      "doing": 6686,
      "newcastle": 6687,
      "ogue": 6688,
      "flav": 6689,
      "subdivision": 6690,
      "wooden": 6691,
      "morph": 6692,
      "rena": 6693,
      "check": 6694,
      "reservoir": 6695,
      "qualification": 6696,
      "susan": 6697,
      "suburbs": 6698,
      "provider": 6699,
      "functional": 6700,
      "electricity": 6701,
      "frequency": 6702,
      "delivery": 6703,
      "princess": 6704,
      "consultant": 6705,
      "gothic": 6706,
      "dens": 6707,
      "fis": 6708,
      "iya": 6709,
      "makers": 6710,
      "nest": 6711,
      "thes": 6712,
      "oro": 6713,
      "aling": 6714,
      "roe": 6715,
      "ads": 6716,
      "housed": 6717,
      "heights": 6718,
      "ophon": 6719,
      "disorder": 6720,
      "parad": 6721,
      "symp": 6722,
      "maid": 6723,
      "omy": 6724,
      "subspecies": 6725,
      "blu": 6726,
      "calls": 6727,
      "eyes": 6728,
      "purple": 6729,
      "additionally": 6730,
      "continuing": 6731,
      "anthology": 6732,
      "methodist": 6733,
      "sisters": 6734,
      "speedway": 6735,
      "favorite": 6736,
      "cb": 6737,
      "eug": 6738,
      "edwards": 6739,
      "alger": 6740,
      "leicester": 6741,
      "cous": 6742,
      "grid": 6743,
      "export": 6744,
      "discontinued": 6745,
      "spiders": 6746,
      "mona": 6747,
      "auckland": 6748,
      "magnet": 6749,
      "ministers": 6750,
      "aimed": 6751,
      "reflect": 6752,
      "duties": 6753,
      "reporting": 6754,
      "ariidae": 6755,
      "hawk": 6756,
      "israeli": 6757,
      "argentine": 6758,
      "intellect": 6759,
      "benjamin": 6760,
      "cats": 6761,
      "dell": 6762,
      "daw": 6763,
      "jak": 6764,
      "nagar": 6765,
      "aser": 6766,
      "leeds": 6767,
      "boats": 6768,
      "perry": 6769,
      "aceous": 6770,
      "mediter": 6771,
      "telephone": 6772,
      "smart": 6773,
      "defunct": 6774,
      "phosph": 6775,
      "luck": 6776,
      "painted": 6777,
      "budd": 6778,
      "maintains": 6779,
      "ophyll": 6780,
      "thousands": 6781,
      "extensively": 6782,
      "mediterr": 6783,
      "dent": 6784,
      "dess": 6785,
      "gins": 6786,
      "ipeg": 6787,
      "kab": 6788,
      "ners": 6789,
      "sters": 6790,
      "amster": 6791,
      "loop": 6792,
      "abdul": 6793,
      "tees": 6794,
      "manner": 6795,
      "manhatt": 6796,
      "quin": 6797,
      "exerc": 6798,
      "ferry": 6799,
      "shooter": 6800,
      "mery": 6801,
      "humor": 6802,
      "scand": 6803,
      "winnipeg": 6804,
      "evening": 6805,
      "branded": 6806,
      "mollusks": 6807,
      "asked": 6808,
      "conduct": 6809,
      "phenom": 6810,
      "rogers": 6811,
      "ranging": 6812,
      "arctic": 6813,
      "fossil": 6814,
      "bicy": 6815,
      "interpret": 6816,
      "bam": 6817,
      "eat": 6818,
      "mist": 6819,
      "oa": 6820,
      "oo": 6821,
      "rna": 6822,
      "turb": 6823,
      "inver": 6824,
      "infl": 6825,
      "algor": 6826,
      "encer": 6827,
      "enemy": 6828,
      "chal": 6829,
      "codes": 6830,
      "sean": 6831,
      "behalf": 6832,
      "appar": 6833,
      "iano": 6834,
      "shr": 6835,
      "afts": 6836,
      "craw": 6837,
      "resort": 6838,
      "enses": 6839,
      "stress": 6840,
      "azer": 6841,
      "identify": 6842,
      "transmission": 6843,
      "variant": 6844,
      "delta": 6845,
      "closure": 6846,
      "brew": 6847,
      "faced": 6848,
      "weekend": 6849,
      "journals": 6850,
      "soldier": 6851,
      "influences": 6852,
      "machines": 6853,
      "preservation": 6854,
      "bacteria": 6855,
      "temperature": 6856,
      "nicholas": 6857,
      "batsman": 6858,
      "bulgaria": 6859,
      "amsterdam": 6860,
      "manhattan": 6861,
      "hence": 6862,
      "kas": 6863,
      "lud": 6864,
      "ral": 6865,
      "rach": 6866,
      "org": 6867,
      "alty": 6868,
      "icit": 6869,
      "ilst": 6870,
      "accompan": 6871,
      "det": 6872,
      "impl": 6873,
      "moist": 6874,
      "whilst": 6875,
      "iang": 6876,
      "vern": 6877,
      "isha": 6878,
      "formats": 6879,
      "wool": 6880,
      "ieth": 6881,
      "phan": 6882,
      "ideas": 6883,
      "carn": 6884,
      "shipping": 6885,
      "brewer": 6886,
      "journalism": 6887,
      "idaho": 6888,
      "luther": 6889,
      "bisho": 6890,
      "situation": 6891,
      "biography": 6892,
      "thirteen": 6893,
      "bottom": 6894,
      "oakland": 6895,
      "controversy": 6896,
      "experienced": 6897,
      "membrane": 6898,
      "mediterranean": 6899,
      "bent": 6900,
      "bally": 6901,
      "bles": 6902,
      "mn": 6903,
      "atar": 6904,
      "ensure": 6905,
      "lein": 6906,
      "chro": 6907,
      "iled": 6908,
      "urally": 6909,
      "prohib": 6910,
      "allan": 6911,
      "artillery": 6912,
      "useful": 6913,
      "interviews": 6914,
      "math": 6915,
      "keys": 6916,
      "ibm": 6917,
      "relative": 6918,
      "parker": 6919,
      "researchers": 6920,
      "analog": 6921,
      "begins": 6922,
      "stanley": 6923,
      "othy": 6924,
      "celebrated": 6925,
      "hampton": 6926,
      "sheriff": 6927,
      "capture": 6928,
      "dimens": 6929,
      "rhode": 6930,
      "initiative": 6931,
      "jurisdiction": 6932,
      "transmitter": 6933,
      "demolished": 6934,
      "expedition": 6935,
      "bund": 6936,
      "dies": 6937,
      "pd": 6938,
      "save": 6939,
      "tack": 6940,
      "vak": 6941,
      "armen": 6942,
      "reaction": 6943,
      "usage": 6944,
      "accompl": 6945,
      "ema": 6946,
      "mouse": 6947,
      "wound": 6948,
      "awaren": 6949,
      "phd": 6950,
      "sheffield": 6951,
      "writes": 6952,
      "epic": 6953,
      "grammar": 6954,
      "hybrid": 6955,
      "palm": 6956,
      "halif": 6957,
      "assets": 6958,
      "connects": 6959,
      "request": 6960,
      "brands": 6961,
      "sporting": 6962,
      "scholars": 6963,
      "pageant": 6964,
      "carrier": 6965,
      "suggested": 6966,
      "revolutionary": 6967,
      "carrying": 6968,
      "shadow": 6969,
      "dropped": 6970,
      "predominantly": 6971,
      "nottingham": 6972,
      "algorith": 6973,
      "accompanied": 6974,
      "awareness": 6975,
      "cave": 6976,
      "dennis": 6977,
      "gt": 6978,
      "mong": 6979,
      "oma": 6980,
      "spar": 6981,
      "vant": 6982,
      "yi": 6983,
      "thick": 6984,
      "ares": 6985,
      "unusual": 6986,
      "urers": 6987,
      "accredited": 6988,
      "propos": 6989,
      "ardo": 6990,
      "rescue": 6991,
      "friday": 6992,
      "designation": 6993,
      "ultane": 6994,
      "causing": 6995,
      "barbara": 6996,
      "males": 6997,
      "simultane": 6998,
      "vale": 6999,
      "milwau": 7000,
      "governmental": 7001,
      "holiday": 7002,
      "helic": 7003,
      "justin": 7004,
      "assem": 7005,
      "deaths": 7006,
      "costs": 7007,
      "participating": 7008,
      "participants": 7009,
      "qualifying": 7010,
      "flex": 7011,
      "conventional": 7012,
      "princi": 7013,
      "experiences": 7014,
      "syndrome": 7015,
      "hudson": 7016,
      "symphony": 7017,
      "gart": 7018,
      "oul": 7019,
      "pist": 7020,
      "pens": 7021,
      "pont": 7022,
      "tampa": 7023,
      "zer": 7024,
      "rett": 7025,
      "hey": 7026,
      "sud": 7027,
      "shark": 7028,
      "bry": 7029,
      "borne": 7030,
      "dos": 7031,
      "angered": 7032,
      "cide": 7033,
      "destru": 7034,
      "strict": 7035,
      "subtropical": 7036,
      "scout": 7037,
      "tests": 7038,
      "wallace": 7039,
      "separated": 7040,
      "negot": 7041,
      "cology": 7042,
      "occasions": 7043,
      "tasmania": 7044,
      "delivered": 7045,
      "cotton": 7046,
      "restricted": 7047,
      "exclusive": 7048,
      "threatened": 7049,
      "suffered": 7050,
      "congregation": 7051,
      "advantage": 7052,
      "tokyo": 7053,
      "invasion": 7054,
      "appropriate": 7055,
      "dil": 7056,
      "ancy": 7057,
      "stown": 7058,
      "todd": 7059,
      "chip": 7060,
      "beij": 7061,
      "improved": 7062,
      "pray": 7063,
      "prom": 7064,
      "expo": 7065,
      "compat": 7066,
      "gov": 7067,
      "contact": 7068,
      "monday": 7069,
      "swan": 7070,
      "boards": 7071,
      "departure": 7072,
      "changing": 7073,
      "fisher": 7074,
      "fifteen": 7075,
      "rising": 7076,
      "harrison": 7077,
      "promoting": 7078,
      "stanford": 7079,
      "relationships": 7080,
      "structural": 7081,
      "filled": 7082,
      "beautiful": 7083,
      "inducted": 7084,
      "stuart": 7085,
      "happened": 7086,
      "amendment": 7087,
      "beijing": 7088,
      "ecu": 7089,
      "pand": 7090,
      "alfred": 7091,
      "reput": 7092,
      "sten": 7093,
      "tol": 7094,
      "chat": 7095,
      "coat": 7096,
      "oli": 7097,
      "heath": 7098,
      "idge": 7099,
      "spectrum": 7100,
      "spann": 7101,
      "cylind": 7102,
      "somewhat": 7103,
      "hydr": 7104,
      "innings": 7105,
      "ashire": 7106,
      "tales": 7107,
      "window": 7108,
      "montgo": 7109,
      "sharing": 7110,
      "turner": 7111,
      "suburban": 7112,
      "competitors": 7113,
      "restaurants": 7114,
      "eagle": 7115,
      "stroke": 7116,
      "revealed": 7117,
      "binding": 7118,
      "recipient": 7119,
      "nominee": 7120,
      "journey": 7121,
      "lancashire": 7122,
      "lich": 7123,
      "nr": 7124,
      "sig": 7125,
      "till": 7126,
      "think": 7127,
      "illo": 7128,
      "usal": 7129,
      "idad": 7130,
      "emot": 7131,
      "moor": 7132,
      "brah": 7133,
      "perennial": 7134,
      "haven": 7135,
      "autom": 7136,
      "texts": 7137,
      "keeping": 7138,
      "renaissance": 7139,
      "principles": 7140,
      "montgomery": 7141,
      "dia": 7142,
      "fon": 7143,
      "ranch": 7144,
      "sic": 7145,
      "tc": 7146,
      "abil": 7147,
      "thers": 7148,
      "worm": 7149,
      "boro": 7150,
      "ellation": 7151,
      "buried": 7152,
      "clock": 7153,
      "clothing": 7154,
      "summit": 7155,
      "salv": 7156,
      "departments": 7157,
      "anchor": 7158,
      "walls": 7159,
      "acquis": 7160,
      "meetings": 7161,
      "childhood": 7162,
      "bollywood": 7163,
      "cinemato": 7164,
      "diplomatic": 7165,
      "debate": 7166,
      "sleep": 7167,
      "dragons": 7168,
      "capitol": 7169,
      "intellectual": 7170,
      "kot": 7171,
      "rie": 7172,
      "rix": 7173,
      "xbox": 7174,
      "inch": 7175,
      "onym": 7176,
      "itude": 7177,
      "reli": 7178,
      "stall": 7179,
      "toms": 7180,
      "loos": 7181,
      "heter": 7182,
      "concrete": 7183,
      "ulated": 7184,
      "romance": 7185,
      "tet": 7186,
      "therine": 7187,
      "newfound": 7188,
      "phyl": 7189,
      "releasing": 7190,
      "portal": 7191,
      "merchant": 7192,
      "arrived": 7193,
      "calling": 7194,
      "tortric": 7195,
      "modeling": 7196,
      "globe": 7197,
      "bowler": 7198,
      "logic": 7199,
      "chancell": 7200,
      "principle": 7201,
      "sloven": 7202,
      "schedule": 7203,
      "random": 7204,
      "sailing": 7205,
      "hundreds": 7206,
      "dubbed": 7207,
      "diale": 7208,
      "sculpture": 7209,
      "hungary": 7210,
      "athens": 7211,
      "alcohol": 7212,
      "cly": 7213,
      "cited": 7214,
      "culation": 7215,
      "dong": 7216,
      "feld": 7217,
      "jump": 7218,
      "pages": 7219,
      "rates": 7220,
      "infer": 7221,
      "anian": 7222,
      "stic": 7223,
      "cope": 7224,
      "depos": 7225,
      "nei": 7226,
      "landing": 7227,
      "eller": 7228,
      "icting": 7229,
      "oka": 7230,
      "strat": 7231,
      "origins": 7232,
      "roller": 7233,
      "visit": 7234,
      "solution": 7235,
      "landscape": 7236,
      "ranks": 7237,
      "gregory": 7238,
      "cameroon": 7239,
      "tribes": 7240,
      "mlb": 7241,
      "sustainable": 7242,
      "evolved": 7243,
      "milwaukee": 7244,
      "ecuador": 7245,
      "hired": 7246,
      "pall": 7247,
      "panch": 7248,
      "ries": 7249,
      "sau": 7250,
      "sik": 7251,
      "alter": 7252,
      "asa": 7253,
      "uri": 7254,
      "deck": 7255,
      "prot": 7256,
      "prosecut": 7257,
      "porters": 7258,
      "performer": 7259,
      "elli": 7260,
      "doors": 7261,
      "specim": 7262,
      "cret": 7263,
      "olds": 7264,
      "operator": 7265,
      "fiji": 7266,
      "juan": 7267,
      "boarding": 7268,
      "lasted": 7269,
      "passes": 7270,
      "bloom": 7271,
      "digit": 7272,
      "libraries": 7273,
      "sussex": 7274,
      "congressional": 7275,
      "minority": 7276,
      "certific": 7277,
      "friendly": 7278,
      "benefit": 7279,
      "pyramid": 7280,
      "theatrical": 7281,
      "bav": 7282,
      "bend": 7283,
      "cm": 7284,
      "kitch": 7285,
      "ui": 7286,
      "vig": 7287,
      "inidae": 7288,
      "oria": 7289,
      "iser": 7290,
      "rower": 7291,
      "chef": 7292,
      "homo": 7293,
      "pled": 7294,
      "meant": 7295,
      "earning": 7296,
      "muscle": 7297,
      "naming": 7298,
      "kingston": 7299,
      "hammer": 7300,
      "valu": 7301,
      "macy": 7302,
      "reserves": 7303,
      "suffolk": 7304,
      "hunting": 7305,
      "cription": 7306,
      "pupils": 7307,
      "restoration": 7308,
      "kad": 7309,
      "mates": 7310,
      "none": 7311,
      "zi": 7312,
      "thunder": 7313,
      "inspir": 7314,
      "atures": 7315,
      "reed": 7316,
      "leone": 7317,
      "pete": 7318,
      "cone": 7319,
      "absor": 7320,
      "clients": 7321,
      "bral": 7322,
      "partially": 7323,
      "dual": 7324,
      "presby": 7325,
      "regulation": 7326,
      "whereas": 7327,
      "skating": 7328,
      "walking": 7329,
      "tourist": 7330,
      "hardcore": 7331,
      "judges": 7332,
      "psychological": 7333,
      "trials": 7334,
      "rangers": 7335,
      "muham": 7336,
      "diplomat": 7337,
      "distinguish": 7338,
      "portray": 7339,
      "illustrated": 7340,
      "synthesis": 7341,
      "procedure": 7342,
      "phillips": 7343,
      "paintings": 7344,
      "toxic": 7345,
      "prestig": 7346,
      "breathing": 7347,
      "newfoundland": 7348,
      "dang": 7349,
      "jess": 7350,
      "lia": 7351,
      "liga": 7352,
      "sper": 7353,
      "wang": 7354,
      "stere": 7355,
      "cooperation": 7356,
      "acter": 7357,
      "noble": 7358,
      "boot": 7359,
      "cruis": 7360,
      "mars": 7361,
      "seconds": 7362,
      "ownership": 7363,
      "indians": 7364,
      "rounds": 7365,
      "macro": 7366,
      "civilian": 7367,
      "luke": 7368,
      "youngest": 7369,
      "administrator": 7370,
      "pitch": 7371,
      "qualify": 7372,
      "colonel": 7373,
      "mechanism": 7374,
      "insects": 7375,
      "nazi": 7376,
      "galaxy": 7377,
      "seventeen": 7378,
      "centimeters": 7379,
      "gujarat": 7380,
      "ophyllum": 7381,
      "nint": 7382,
      "eria": 7383,
      "itable": 7384,
      "stim": 7385,
      "styl": 7386,
      "amin": 7387,
      "iri": 7388,
      "performs": 7389,
      "ictions": 7390,
      "synon": 7391,
      "airlines": 7392,
      "ocy": 7393,
      "highland": 7394,
      "wellington": 7395,
      "wonder": 7396,
      "namib": 7397,
      "burma": 7398,
      "swit": 7399,
      "linear": 7400,
      "moral": 7401,
      "nonprofit": 7402,
      "pressed": 7403,
      "townships": 7404,
      "democracy": 7405,
      "jerry": 7406,
      "murphy": 7407,
      "honorary": 7408,
      "bourg": 7409,
      "alexand": 7410,
      "achievement": 7411,
      "wyoming": 7412,
      "papua": 7413,
      "warriors": 7414,
      "geographic": 7415,
      "durham": 7416,
      "locomotives": 7417,
      "distinctive": 7418,
      "lgbt": 7419,
      "kashmir": 7420,
      "md": 7421,
      "mare": 7422,
      "oples": 7423,
      "remember": 7424,
      "forty": 7425,
      "acclaimed": 7426,
      "aba": 7427,
      "teh": 7428,
      "boom": 7429,
      "udes": 7430,
      "quite": 7431,
      "corrupt": 7432,
      "otes": 7433,
      "discrim": 7434,
      "gos": 7435,
      "nationally": 7436,
      "drill": 7437,
      "gross": 7438,
      "rao": 7439,
      "founders": 7440,
      "issa": 7441,
      "warwick": 7442,
      "surge": 7443,
      "indianapolis": 7444,
      "breaking": 7445,
      "differences": 7446,
      "helen": 7447,
      "experiment": 7448,
      "bulb": 7449,
      "constituencies": 7450,
      "wrestler": 7451,
      "gaming": 7452,
      "aquatic": 7453,
      "bobby": 7454,
      "comprising": 7455,
      "veteran": 7456,
      "ukrainian": 7457,
      "croatia": 7458,
      "morocco": 7459,
      "gage": 7460,
      "tone": 7461,
      "vae": 7462,
      "input": 7463,
      "icing": 7464,
      "rebel": 7465,
      "coin": 7466,
      "emed": 7467,
      "pept": 7468,
      "arta": 7469,
      "ifies": 7470,
      "meat": 7471,
      "indies": 7472,
      "izer": 7473,
      "izon": 7474,
      "acks": 7475,
      "raising": 7476,
      "philanthro": 7477,
      "authored": 7478,
      "missing": 7479,
      "strongly": 7480,
      "finding": 7481,
      "accounts": 7482,
      "trinity": 7483,
      "abolished": 7484,
      "nintendo": 7485,
      "nig": 7486,
      "yout": 7487,
      "rook": 7488,
      "emir": 7489,
      "promis": 7490,
      "aph": 7491,
      "avo": 7492,
      "uda": 7493,
      "playwright": 7494,
      "weed": 7495,
      "cane": 7496,
      "timber": 7497,
      "tyr": 7498,
      "mercur": 7499,
      "charges": 7500,
      "defending": 7501,
      "banking": 7502,
      "coaches": 7503,
      "catch": 7504,
      "committed": 7505,
      "concerning": 7506,
      "raymond": 7507,
      "tempor": 7508,
      "automobile": 7509,
      "automatic": 7510,
      "mrs": 7511,
      "connecting": 7512,
      "attempted": 7513,
      "constellation": 7514,
      "praised": 7515,
      "amazon": 7516,
      "bast": 7517,
      "dix": 7518,
      "push": 7519,
      "sull": 7520,
      "yr": 7521,
      "rout": 7522,
      "eli": 7523,
      "sought": 7524,
      "oppon": 7525,
      "grac": 7526,
      "marin": 7527,
      "minton": 7528,
      "engaged": 7529,
      "publicly": 7530,
      "fourteen": 7531,
      "severe": 7532,
      "freight": 7533,
      "activated": 7534,
      "chose": 7535,
      "cardiff": 7536,
      "wheat": 7537,
      "wider": 7538,
      "nineteenth": 7539,
      "uzz": 7540,
      "customer": 7541,
      "believe": 7542,
      "cornwall": 7543,
      "decisions": 7544,
      "saxophon": 7545,
      "witness": 7546,
      "opportunity": 7547,
      "kannada": 7548,
      "jag": 7549,
      "tent": 7550,
      "wake": 7551,
      "inian": 7552,
      "asthan": 7553,
      "repl": 7554,
      "urugu": 7555,
      "deen": 7556,
      "peoples": 7557,
      "gear": 7558,
      "marqu": 7559,
      "butler": 7560,
      "consolid": 7561,
      "listing": 7562,
      "hya": 7563,
      "memphis": 7564,
      "capable": 7565,
      "fordshire": 7566,
      "starts": 7567,
      "facing": 7568,
      "funk": 7569,
      "tommy": 7570,
      "teaches": 7571,
      "hospitals": 7572,
      "pulmon": 7573,
      "earthqu": 7574,
      "maps": 7575,
      "baronetage": 7576,
      "ceremon": 7577,
      "portugal": 7578,
      "bringing": 7579,
      "secure": 7580,
      "chancellor": 7581,
      "muhammad": 7582,
      "cbc": 7583,
      "fed": 7584,
      "finger": 7585,
      "hul": 7586,
      "honey": 7587,
      "jacqu": 7588,
      "kah": 7589,
      "mim": 7590,
      "vian": 7591,
      "inity": 7592,
      "inqu": 7593,
      "erie": 7594,
      "urg": 7595,
      "dem": 7596,
      "tron": 7597,
      "trac": 7598,
      "ulate": 7599,
      "manage": 7600,
      "resides": 7601,
      "anglo": 7602,
      "arrested": 7603,
      "labels": 7604,
      "ikes": 7605,
      "solomon": 7606,
      "limits": 7607,
      "cultures": 7608,
      "gets": 7609,
      "slug": 7610,
      "democrats": 7611,
      "audi": 7612,
      "rider": 7613,
      "liberty": 7614,
      "streams": 7615,
      "badminton": 7616,
      "asteroid": 7617,
      "rosse": 7618,
      "columbus": 7619,
      "detective": 7620,
      "prepared": 7621,
      "opportunities": 7622,
      "kazakh": 7623,
      "trilogy": 7624,
      "venezuela": 7625,
      "acquisition": 7626,
      "presbyter": 7627,
      "cere": 7628,
      "eign": 7629,
      "hf": 7630,
      "kl": 7631,
      "mish": 7632,
      "muk": 7633,
      "rating": 7634,
      "sla": 7635,
      "inher": 7636,
      "alt": 7637,
      "icas": 7638,
      "ams": 7639,
      "olly": 7640,
      "truth": 7641,
      "conven": 7642,
      "abled": 7643,
      "client": 7644,
      "boo": 7645,
      "bout": 7646,
      "poem": 7647,
      "worcester": 7648,
      "endum": 7649,
      "frances": 7650,
      "singers": 7651,
      "eva": 7652,
      "shock": 7653,
      "listings": 7654,
      "larvae": 7655,
      "showed": 7656,
      "swing": 7657,
      "coaching": 7658,
      "winger": 7659,
      "itarian": 7660,
      "continuous": 7661,
      "surrounded": 7662,
      "crystal": 7663,
      "exception": 7664,
      "carries": 7665,
      "decline": 7666,
      "guild": 7667,
      "tortricidae": 7668,
      "sullivan": 7669,
      "nak": 7670,
      "viv": 7671,
      "anes": 7672,
      "arus": 7673,
      "iture": 7674,
      "root": 7675,
      "tomb": 7676,
      "cht": 7677,
      "uncle": 7678,
      "deals": 7679,
      "idi": 7680,
      "enda": 7681,
      "endangered": 7682,
      "newport": 7683,
      "aea": 7684,
      "aceutical": 7685,
      "herbert": 7686,
      "jef": 7687,
      "throw": 7688,
      "harvey": 7689,
      "broadcaster": 7690,
      "difference": 7691,
      "rams": 7692,
      "publishers": 7693,
      "taxonom": 7694,
      "survived": 7695,
      "losses": 7696,
      "drawing": 7697,
      "benefits": 7698,
      "kenny": 7699,
      "felt": 7700,
      "iculum": 7701,
      "sovereign": 7702,
      "eligible": 7703,
      "saxophonist": 7704,
      "hir": 7705,
      "rut": 7706,
      "uct": 7707,
      "theaters": 7708,
      "alle": 7709,
      "ester": 7710,
      "recurr": 7711,
      "aca": 7712,
      "shan": 7713,
      "quer": 7714,
      "compact": 7715,
      "raise": 7716,
      "ibed": 7717,
      "carab": 7718,
      "polo": 7719,
      "profile": 7720,
      "surrey": 7721,
      "steep": 7722,
      "depth": 7723,
      "patrio": 7724,
      "sixteen": 7725,
      "dancing": 7726,
      "civic": 7727,
      "ronald": 7728,
      "manufacturers": 7729,
      "conferences": 7730,
      "guns": 7731,
      "integration": 7732,
      "advisor": 7733,
      "arctiinae": 7734,
      "repeated": 7735,
      "locomotive": 7736,
      "turkish": 7737,
      "convicted": 7738,
      "judicial": 7739,
      "coffee": 7740,
      "ethiopia": 7741,
      "halifax": 7742,
      "youtube": 7743,
      "mercury": 7744,
      "jen": 7745,
      "oct": 7746,
      "pill": 7747,
      "ralph": 7748,
      "wen": 7749,
      "iny": 7750,
      "orland": 7751,
      "orbit": 7752,
      "atics": 7753,
      "itt": 7754,
      "chad": 7755,
      "coc": 7756,
      "elo": 7757,
      "fork": 7758,
      "beer": 7759,
      "begin": 7760,
      "tran": 7761,
      "trent": 7762,
      "loch": 7763,
      "emi": 7764,
      "tea": 7765,
      "shif": 7766,
      "assic": 7767,
      "canon": 7768,
      "eve": 7769,
      "charl": 7770,
      "showing": 7771,
      "glac": 7772,
      "hosting": 7773,
      "mounted": 7774,
      "getting": 7775,
      "independently": 7776,
      "museums": 7777,
      "concerned": 7778,
      "commercially": 7779,
      "fundament": 7780,
      "alien": 7781,
      "cules": 7782,
      "hurst": 7783,
      "bounded": 7784,
      "traveling": 7785,
      "pathogen": 7786,
      "regulations": 7787,
      "implemented": 7788,
      "considerable": 7789,
      "trinidad": 7790,
      "patterns": 7791,
      "gand": 7792,
      "garr": 7793,
      "mend": 7794,
      "mick": 7795,
      "pace": 7796,
      "sult": 7797,
      "uv": 7798,
      "inhab": 7799,
      "eda": 7800,
      "rever": 7801,
      "recre": 7802,
      "tot": 7803,
      "toward": 7804,
      "unreleased": 7805,
      "unable": 7806,
      "acclaim": 7807,
      "hou": 7808,
      "pep": 7809,
      "eta": 7810,
      "coron": 7811,
      "partly": 7812,
      "nationwide": 7813,
      "achy": 7814,
      "registr": 7815,
      "ocer": 7816,
      "monoty": 7817,
      "atta": 7818,
      "arrival": 7819,
      "anks": 7820,
      "fiber": 7821,
      "ahl": 7822,
      "volumes": 7823,
      "scope": 7824,
      "visited": 7825,
      "trainer": 7826,
      "readers": 7827,
      "expensive": 7828,
      "circulation": 7829,
      "periods": 7830,
      "copper": 7831,
      "choir": 7832,
      "concern": 7833,
      "temporary": 7834,
      "battery": 7835,
      "printing": 7836,
      "rajasthan": 7837,
      "aero": 7838,
      "lisa": 7839,
      "quarterback": 7840,
      "besides": 7841,
      "advisory": 7842,
      "fungus": 7843,
      "cuba": 7844,
      "immigration": 7845,
      "lacrosse": 7846,
      "anthropol": 7847,
      "genesis": 7848,
      "aaron": 7849,
      "cic": 7850,
      "eclip": 7851,
      "lal": 7852,
      "oni": 7853,
      "enidae": 7854,
      "itic": 7855,
      "recreation": 7856,
      "stafford": 7857,
      "amar": 7858,
      "conversion": 7859,
      "neth": 7860,
      "tebr": 7861,
      "artwork": 7862,
      "pover": 7863,
      "upcoming": 7864,
      "parade": 7865,
      "filmmaker": 7866,
      "relevant": 7867,
      "calcul": 7868,
      "telecommunications": 7869,
      "rocket": 7870,
      "woodland": 7871,
      "saudi": 7872,
      "plantation": 7873,
      "holland": 7874,
      "referendum": 7875,
      "wait": 7876,
      "karl": 7877,
      "terminus": 7878,
      "honored": 7879,
      "ethics": 7880,
      "dominant": 7881,
      "fellowship": 7882,
      "ranges": 7883,
      "celebrity": 7884,
      "caval": 7885,
      "analyz": 7886,
      "challenges": 7887,
      "efficient": 7888,
      "emphasis": 7889,
      "dissolved": 7890,
      "strugg": 7891,
      "denomination": 7892,
      "phrase": 7893,
      "johannes": 7894,
      "loosely": 7895,
      "hack": 7896,
      "kok": 7897,
      "nem": 7898,
      "anmar": 7899,
      "reformed": 7900,
      "repair": 7901,
      "entering": 7902,
      "wiz": 7903,
      "proof": 7904,
      "abuse": 7905,
      "suicide": 7906,
      "ifican": 7907,
      "interaction": 7908,
      "curling": 7909,
      "sheet": 7910,
      "westminster": 7911,
      "lax": 7912,
      "myanmar": 7913,
      "mala": 7914,
      "enny": 7915,
      "vijay": 7916,
      "limestone": 7917,
      "holm": 7918,
      "bridges": 7919,
      "lesser": 7920,
      "seeking": 7921,
      "healthcare": 7922,
      "sounds": 7923,
      "windsor": 7924,
      "environments": 7925,
      "expressed": 7926,
      "lords": 7927,
      "lecturer": 7928,
      "agreed": 7929,
      "philosoph": 7930,
      "eleventh": 7931,
      "megach": 7932,
      "declined": 7933,
      "hughes": 7934,
      "uniform": 7935,
      "rifle": 7936,
      "excellence": 7937,
      "lodge": 7938,
      "simultaneously": 7939,
      "ificance": 7940,
      "das": 7941,
      "pid": 7942,
      "ruth": 7943,
      "zero": 7944,
      "incar": 7945,
      "thel": 7946,
      "retr": 7947,
      "homel": 7948,
      "geoff": 7949,
      "sert": 7950,
      "partial": 7951,
      "doctr": 7952,
      "pharm": 7953,
      "angola": 7954,
      "elevation": 7955,
      "strand": 7956,
      "ucing": 7957,
      "caps": 7958,
      "harold": 7959,
      "sene": 7960,
      "milan": 7961,
      "crops": 7962,
      "receiver": 7963,
      "signals": 7964,
      "lifetime": 7965,
      "palest": 7966,
      "authorized": 7967,
      "riders": 7968,
      "ruling": 7969,
      "contribution": 7970,
      "watson": 7971,
      "collaborated": 7972,
      "geographical": 7973,
      "steps": 7974,
      "suggests": 7975,
      "iranian": 7976,
      "volunteers": 7977,
      "distinction": 7978,
      "opinion": 7979,
      "confederate": 7980,
      "bulbophyllum": 7981,
      "bub": 7982,
      "nant": 7983,
      "tight": 7984,
      "heir": 7985,
      "boss": 7986,
      "percuss": 7987,
      "disaster": 7988,
      "respective": 7989,
      "filed": 7990,
      "drin": 7991,
      "spy": 7992,
      "spending": 7993,
      "monton": 7994,
      "lineup": 7995,
      "significance": 7996,
      "lift": 7997,
      "magn": 7998,
      "natal": 7999,
      "sequences": 8000,
      "involvement": 8001,
      "credits": 8002,
      "participation": 8003,
      "happy": 8004,
      "hurrican": 8005,
      "traveled": 8006,
      "violin": 8007,
      "installation": 8008,
      "completion": 8009,
      "criticized": 8010,
      "spelled": 8011,
      "dynamic": 8012,
      "segment": 8013,
      "wreck": 8014,
      "bold": 8015,
      "dust": 8016,
      "kate": 8017,
      "mt": 8018,
      "mere": 8019,
      "nights": 8020,
      "spor": 8021,
      "sink": 8022,
      "uco": 8023,
      "uci": 8024,
      "wwe": 8025,
      "alice": 8026,
      "atin": 8027,
      "stap": 8028,
      "leton": 8029,
      "towers": 8030,
      "logo": 8031,
      "configur": 8032,
      "ulder": 8033,
      "abra": 8034,
      "apur": 8035,
      "uba": 8036,
      "duck": 8037,
      "assam": 8038,
      "creates": 8039,
      "aza": 8040,
      "jection": 8041,
      "simpl": 8042,
      "closing": 8043,
      "managers": 8044,
      "florence": 8045,
      "renowned": 8046,
      "cule": 8047,
      "rows": 8048,
      "practical": 8049,
      "ladies": 8050,
      "killing": 8051,
      "meets": 8052,
      "emerging": 8053,
      "dominated": 8054,
      "frequent": 8055,
      "attracted": 8056,
      "heroes": 8057,
      "gabri": 8058,
      "rapidly": 8059,
      "recommend": 8060,
      "mineral": 8061,
      "cyprus": 8062,
      "ahead": 8063,
      "aids": 8064,
      "danny": 8065,
      "eur": 8066,
      "hn": 8067,
      "huge": 8068,
      "nathan": 8069,
      "sv": 8070,
      "unions": 8071,
      "terbury": 8072,
      "deacon": 8073,
      "noise": 8074,
      "boe": 8075,
      "uding": 8076,
      "dow": 8077,
      "colin": 8078,
      "drain": 8079,
      "spur": 8080,
      "libert": 8081,
      "mush": 8082,
      "intent": 8083,
      "jewel": 8084,
      "societies": 8085,
      "laure": 8086,
      "burton": 8087,
      "perspective": 8088,
      "treated": 8089,
      "bankrupt": 8090,
      "refere": 8091,
      "mixture": 8092,
      "giants": 8093,
      "alternate": 8094,
      "destination": 8095,
      "colonies": 8096,
      "twentieth": 8097,
      "objective": 8098,
      "criticism": 8099,
      "detailed": 8100,
      "message": 8101,
      "copyright": 8102,
      "hagen": 8103,
      "insect": 8104,
      "instruction": 8105,
      "dramatic": 8106,
      "rarely": 8107,
      "chromo": 8108,
      "neither": 8109,
      "diver": 8110,
      "fid": 8111,
      "gated": 8112,
      "padd": 8113,
      "pga": 8114,
      "tender": 8115,
      "anatom": 8116,
      "eddie": 8117,
      "edmonton": 8118,
      "enroll": 8119,
      "itunes": 8120,
      "entity": 8121,
      "seal": 8122,
      "depression": 8123,
      "trim": 8124,
      "het": 8125,
      "hein": 8126,
      "idents": 8127,
      "nothing": 8128,
      "serbia": 8129,
      "metr": 8130,
      "enders": 8131,
      "speakers": 8132,
      "normand": 8133,
      "angels": 8134,
      "cream": 8135,
      "buc": 8136,
      "northampton": 8137,
      "rede": 8138,
      "ahmed": 8139,
      "milton": 8140,
      "patron": 8141,
      "casual": 8142,
      "holders": 8143,
      "critically": 8144,
      "controls": 8145,
      "massive": 8146,
      "devoted": 8147,
      "accessible": 8148,
      "mollusc": 8149,
      "instance": 8150,
      "clarke": 8151,
      "blocks": 8152,
      "occupation": 8153,
      "mathematical": 8154,
      "advocacy": 8155,
      "injured": 8156,
      "narrative": 8157,
      "recommended": 8158,
      "android": 8159,
      "eliminated": 8160,
      "admiral": 8161,
      "orlando": 8162,
      "sultan": 8163,
      "monotypic": 8164,
      "cw": 8165,
      "nc": 8166,
      "vast": 8167,
      "orth": 8168,
      "editing": 8169,
      "alom": 8170,
      "escape": 8171,
      "icus": 8172,
      "rect": 8173,
      "remake": 8174,
      "sta": 8175,
      "chance": 8176,
      "unsuccessful": 8177,
      "bek": 8178,
      "embass": 8179,
      "ager": 8180,
      "ugo": 8181,
      "iott": 8182,
      "americas": 8183,
      "fraud": 8184,
      "worker": 8185,
      "carroll": 8186,
      "leslie": 8187,
      "deriv": 8188,
      "icks": 8189,
      "athy": 8190,
      "warfare": 8191,
      "malta": 8192,
      "supplement": 8193,
      "backing": 8194,
      "signing": 8195,
      "motive": 8196,
      "sanct": 8197,
      "garage": 8198,
      "passage": 8199,
      "graded": 8200,
      "melod": 8201,
      "characteristics": 8202,
      "statement": 8203,
      "flores": 8204,
      "equity": 8205,
      "physi": 8206,
      "cambod": 8207,
      "scientists": 8208,
      "campaigns": 8209,
      "cameron": 8210,
      "questions": 8211,
      "discography": 8212,
      "rhin": 8213,
      "invented": 8214,
      "baijan": 8215,
      "aberdeen": 8216,
      "zambia": 8217,
      "symptoms": 8218,
      "azerbaijan": 8219,
      "aul": 8220,
      "bby": 8221,
      "fing": 8222,
      "jas": 8223,
      "lung": 8224,
      "pest": 8225,
      "rent": 8226,
      "tie": 8227,
      "thi": 8228,
      "ayette": 8229,
      "pets": 8230,
      "pri": 8231,
      "prair": 8232,
      "cephal": 8233,
      "abu": 8234,
      "aboriginal": 8235,
      "geck": 8236,
      "cruz": 8237,
      "crafts": 8238,
      "parking": 8239,
      "interstate": 8240,
      "spaces": 8241,
      "elev": 8242,
      "polar": 8243,
      "highlight": 8244,
      "mainland": 8245,
      "trying": 8246,
      "retiring": 8247,
      "radical": 8248,
      "rolled": 8249,
      "walt": 8250,
      "michel": 8251,
      "helping": 8252,
      "websites": 8253,
      "interested": 8254,
      "celtic": 8255,
      "studying": 8256,
      "brooks": 8257,
      "lankan": 8258,
      "sacred": 8259,
      "analyst": 8260,
      "commentator": 8261,
      "oxygen": 8262,
      "lighthouse": 8263,
      "thoroughbred": 8264,
      "phenomen": 8265,
      "presbyterian": 8266,
      "athe": 8267,
      "bard": 8268,
      "bench": 8269,
      "dhar": 8270,
      "gp": 8271,
      "gad": 8272,
      "hann": 8273,
      "kom": 8274,
      "kiss": 8275,
      "kata": 8276,
      "sd": 8277,
      "yu": 8278,
      "rosen": 8279,
      "rochester": 8280,
      "tobac": 8281,
      "ampl": 8282,
      "chit": 8283,
      "adjust": 8284,
      "embr": 8285,
      "utility": 8286,
      "ishment": 8287,
      "erected": 8288,
      "ameter": 8289,
      "assass": 8290,
      "carlos": 8291,
      "prehistoric": 8292,
      "tenure": 8293,
      "oga": 8294,
      "cyto": 8295,
      "curriculum": 8296,
      "mature": 8297,
      "archive": 8298,
      "archbishop": 8299,
      "twelf": 8300,
      "davies": 8301,
      "ballet": 8302,
      "dependent": 8303,
      "downs": 8304,
      "bihar": 8305,
      "farmer": 8306,
      "remainder": 8307,
      "springfield": 8308,
      "nasa": 8309,
      "collaborative": 8310,
      "guardian": 8311,
      "dealing": 8312,
      "consulting": 8313,
      "tiny": 8314,
      "pierre": 8315,
      "smooth": 8316,
      "supplies": 8317,
      "theoret": 8318,
      "ongoing": 8319,
      "twelfth": 8320,
      "aus": 8321,
      "brom": 8322,
      "fy": 8323,
      "oval": 8324,
      "zip": 8325,
      "icol": 8326,
      "rebell": 8327,
      "urus": 8328,
      "forth": 8329,
      "sev": 8330,
      "ipts": 8331,
      "ellen": 8332,
      "resignation": 8333,
      "acht": 8334,
      "cket": 8335,
      "genet": 8336,
      "canterbury": 8337,
      "desk": 8338,
      "monas": 8339,
      "monroe": 8340,
      "substit": 8341,
      "cyclo": 8342,
      "understand": 8343,
      "varian": 8344,
      "middles": 8345,
      "visiting": 8346,
      "scat": 8347,
      "variations": 8348,
      "krist": 8349,
      "jamie": 8350,
      "columns": 8351,
      "tribute": 8352,
      "knights": 8353,
      "suitable": 8354,
      "compounds": 8355,
      "arcade": 8356,
      "banner": 8357,
      "assessment": 8358,
      "elsewhere": 8359,
      "recruited": 8360,
      "bicycle": 8361,
      "bishops": 8362,
      "destruction": 8363,
      "recurring": 8364,
      "pharmaceutical": 8365,
      "eb": 8366,
      "jail": 8367,
      "oto": 8368,
      "rin": 8369,
      "swi": 8370,
      "sak": 8371,
      "sib": 8372,
      "tuck": 8373,
      "isan": 8374,
      "reverse": 8375,
      "olph": 8376,
      "lots": 8377,
      "abstr": 8378,
      "abroad": 8379,
      "mant": 8380,
      "manila": 8381,
      "excess": 8382,
      "antine": 8383,
      "mario": 8384,
      "mons": 8385,
      "eponymous": 8386,
      "legs": 8387,
      "basil": 8388,
      "extent": 8389,
      "continent": 8390,
      "posts": 8391,
      "grandson": 8392,
      "chiefs": 8393,
      "jeremy": 8394,
      "economist": 8395,
      "architects": 8396,
      "automat": 8397,
      "foods": 8398,
      "neighborhoods": 8399,
      "nickname": 8400,
      "nicknamed": 8401,
      "optical": 8402,
      "collap": 8403,
      "fabric": 8404,
      "innovation": 8405,
      "mosque": 8406,
      "jennifer": 8407,
      "arnold": 8408,
      "description": 8409,
      "lebanon": 8410,
      "corruption": 8411,
      "recreational": 8412,
      "aire": 8413,
      "dwar": 8414,
      "ked": 8415,
      "kun": 8416,
      "kie": 8417,
      "nt": 8418,
      "nass": 8419,
      "oor": 8420,
      "yug": 8421,
      "seoul": 8422,
      "agh": 8423,
      "shakes": 8424,
      "dismiss": 8425,
      "phones": 8426,
      "joan": 8427,
      "paramount": 8428,
      "albany": 8429,
      "intervent": 8430,
      "oda": 8431,
      "prevalent": 8432,
      "derives": 8433,
      "icking": 8434,
      "gubern": 8435,
      "developers": 8436,
      "identical": 8437,
      "villa": 8438,
      "lined": 8439,
      "supposed": 8440,
      "diving": 8441,
      "radiation": 8442,
      "bills": 8443,
      "stored": 8444,
      "bennett": 8445,
      "kenneth": 8446,
      "manufacture": 8447,
      "mandal": 8448,
      "begun": 8449,
      "biographical": 8450,
      "dominican": 8451,
      "false": 8452,
      "prevention": 8453,
      "birthday": 8454,
      "indicate": 8455,
      "fighters": 8456,
      "gibson": 8457,
      "concepts": 8458,
      "diversity": 8459,
      "bibl": 8460,
      "diesel": 8461,
      "percussion": 8462,
      "jury": 8463,
      "kane": 8464,
      "ois": 8465,
      "tale": 8466,
      "wim": 8467,
      "thread": 8468,
      "ante": 8469,
      "enh": 8470,
      "recon": 8471,
      "reissued": 8472,
      "leo": 8473,
      "illy": 8474,
      "seeds": 8475,
      "teries": 8476,
      "sox": 8477,
      "uli": 8478,
      "apped": 8479,
      "essa": 8480,
      "boule": 8481,
      "bras": 8482,
      "mete": 8483,
      "perfect": 8484,
      "assign": 8485,
      "achi": 8486,
      "tyler": 8487,
      "beta": 8488,
      "arrest": 8489,
      "jee": 8490,
      "auer": 8491,
      "depicted": 8492,
      "bread": 8493,
      "patri": 8494,
      "dawn": 8495,
      "helps": 8496,
      "madhya": 8497,
      "diet": 8498,
      "fifty": 8499,
      "synchron": 8500,
      "bowling": 8501,
      "editorial": 8502,
      "compiled": 8503,
      "bordered": 8504,
      "survival": 8505,
      "establishing": 8506,
      "effectively": 8507,
      "picked": 8508,
      "advertis": 8509,
      "riverside": 8510,
      "improvement": 8511,
      "dialog": 8512,
      "immigrants": 8513,
      "ernest": 8514,
      "tactical": 8515,
      "encompasses": 8516,
      "circumst": 8517,
      "eugene": 8518,
      "poverty": 8519,
      "kre": 8520,
      "laf": 8521,
      "nico": 8522,
      "ober": 8523,
      "tut": 8524,
      "wana": 8525,
      "yang": 8526,
      "enne": 8527,
      "espn": 8528,
      "remov": 8529,
      "rode": 8530,
      "chim": 8531,
      "chore": 8532,
      "chev": 8533,
      "ido": 8534,
      "imaging": 8535,
      "wire": 8536,
      "wirel": 8537,
      "abel": 8538,
      "berra": 8539,
      "grain": 8540,
      "earn": 8541,
      "ups": 8542,
      "interim": 8543,
      "spencer": 8544,
      "portfol": 8545,
      "footage": 8546,
      "reducing": 8547,
      "lateral": 8548,
      "backs": 8549,
      "viewed": 8550,
      "motiv": 8551,
      "garn": 8552,
      "networking": 8553,
      "romanian": 8554,
      "promotes": 8555,
      "nickel": 8556,
      "stopped": 8557,
      "farmers": 8558,
      "prisoners": 8559,
      "gilbert": 8560,
      "bradford": 8561,
      "disciplinary": 8562,
      "weapon": 8563,
      "procedures": 8564,
      "jumping": 8565,
      "reputation": 8566,
      "namibia": 8567,
      "cavalry": 8568,
      "gubernatorial": 8569,
      "wireless": 8570,
      "cun": 8571,
      "hiv": 8572,
      "rt": 8573,
      "tak": 8574,
      "onian": 8575,
      "orb": 8576,
      "relocated": 8577,
      "stol": 8578,
      "staged": 8579,
      "chy": 8580,
      "advice": 8581,
      "embed": 8582,
      "iph": 8583,
      "grants": 8584,
      "grave": 8585,
      "pert": 8586,
      "updated": 8587,
      "marion": 8588,
      "disorders": 8589,
      "assault": 8590,
      "workshops": 8591,
      "attending": 8592,
      "ahmad": 8593,
      "thereafter": 8594,
      "volunt": 8595,
      "surpr": 8596,
      "surve": 8597,
      "iki": 8598,
      "lifestyle": 8599,
      "nerve": 8600,
      "vienna": 8601,
      "extends": 8602,
      "owen": 8603,
      "salem": 8604,
      "references": 8605,
      "falling": 8606,
      "heaven": 8607,
      "separately": 8608,
      "sandy": 8609,
      "cycles": 8610,
      "psychiat": 8611,
      "certification": 8612,
      "tunnel": 8613,
      "tube": 8614,
      "municipalities": 8615,
      "ultimate": 8616,
      "tribal": 8617,
      "crowned": 8618,
      "rabbi": 8619,
      "cataly": 8620,
      "veterans": 8621,
      "fossils": 8622,
      "infection": 8623,
      "increasingly": 8624,
      "dynamics": 8625,
      "banned": 8626,
      "pleasant": 8627,
      "switched": 8628,
      "prairie": 8629,
      "tobacco": 8630,
      "kers": 8631,
      "mast": 8632,
      "scan": 8633,
      "yuk": 8634,
      "yemen": 8635,
      "themed": 8636,
      "isation": 8637,
      "estrian": 8638,
      "reco": 8639,
      "ivory": 8640,
      "depot": 8641,
      "igate": 8642,
      "idol": 8643,
      "iman": 8644,
      "pride": 8645,
      "abor": 8646,
      "apo": 8647,
      "shang": 8648,
      "pound": 8649,
      "newton": 8650,
      "nord": 8651,
      "engag": 8652,
      "intention": 8653,
      "cyber": 8654,
      "donated": 8655,
      "baro": 8656,
      "barcel": 8657,
      "archives": 8658,
      "archdiocese": 8659,
      "skir": 8660,
      "sket": 8661,
      "adding": 8662,
      "bases": 8663,
      "topped": 8664,
      "postal": 8665,
      "invited": 8666,
      "hotels": 8667,
      "screened": 8668,
      "citation": 8669,
      "celer": 8670,
      "stevens": 8671,
      "pipe": 8672,
      "quarterly": 8673,
      "linda": 8674,
      "bengali": 8675,
      "lucas": 8676,
      "percentage": 8677,
      "breeding": 8678,
      "attributed": 8679,
      "armored": 8680,
      "evangelical": 8681,
      "discrimination": 8682,
      "fundamental": 8683,
      "boulevard": 8684,
      "dere": 8685,
      "jaw": 8686,
      "mals": 8687,
      "rings": 8688,
      "sind": 8689,
      "sits": 8690,
      "tat": 8691,
      "uf": 8692,
      "allo": 8693,
      "lech": 8694,
      "ilo": 8695,
      "imprint": 8696,
      "connor": 8697,
      "neur": 8698,
      "apparent": 8699,
      "essays": 8700,
      "inder": 8701,
      "endors": 8702,
      "displays": 8703,
      "fernand": 8704,
      "intend": 8705,
      "consort": 8706,
      "someone": 8707,
      "oslav": 8708,
      "associations": 8709,
      "wald": 8710,
      "differs": 8711,
      "hollow": 8712,
      "horizon": 8713,
      "glenn": 8714,
      "cumberland": 8715,
      "sprinter": 8716,
      "similarly": 8717,
      "traditions": 8718,
      "manuel": 8719,
      "choose": 8720,
      "ruler": 8721,
      "logist": 8722,
      "tibet": 8723,
      "package": 8724,
      "eggs": 8725,
      "disciplines": 8726,
      "observatory": 8727,
      "mansion": 8728,
      "gentle": 8729,
      "compatible": 8730,
      "monastery": 8731,
      "gc": 8732,
      "kang": 8733,
      "chuck": 8734,
      "why": 8735,
      "posing": 8736,
      "serge": 8737,
      "perce": 8738,
      "crimes": 8739,
      "fired": 8740,
      "canberra": 8741,
      "para": 8742,
      "strain": 8743,
      "flank": 8744,
      "inception": 8745,
      "charitable": 8746,
      "relay": 8747,
      "retro": 8748,
      "extending": 8749,
      "georgian": 8750,
      "charting": 8751,
      "navigation": 8752,
      "slave": 8753,
      "slalom": 8754,
      "connections": 8755,
      "fluid": 8756,
      "cuis": 8757,
      "securities": 8758,
      "cherry": 8759,
      "eccles": 8760,
      "flagship": 8761,
      "arrangement": 8762,
      "buckingham": 8763,
      "rhodes": 8764,
      "gaining": 8765,
      "lunar": 8766,
      "alumni": 8767,
      "monitoring": 8768,
      "certificate": 8769,
      "eis": 8770,
      "jal": 8771,
      "pare": 8772,
      "preg": 8773,
      "pute": 8774,
      "puzz": 8775,
      "rik": 8776,
      "thames": 8777,
      "annex": 8778,
      "thetic": 8779,
      "ornam": 8780,
      "edonia": 8781,
      "enthus": 8782,
      "sted": 8783,
      "uncertain": 8784,
      "iling": 8785,
      "sees": 8786,
      "confederation": 8787,
      "ulus": 8788,
      "plains": 8789,
      "alli": 8790,
      "brass": 8791,
      "elliott": 8792,
      "fraser": 8793,
      "curtis": 8794,
      "ferr": 8795,
      "handle": 8796,
      "racial": 8797,
      "holdings": 8798,
      "battles": 8799,
      "selective": 8800,
      "everything": 8801,
      "citing": 8802,
      "mastered": 8803,
      "attacked": 8804,
      "goddess": 8805,
      "tunis": 8806,
      "violent": 8807,
      "thurs": 8808,
      "reduction": 8809,
      "cosmo": 8810,
      "affect": 8811,
      "archeology": 8812,
      "minimum": 8813,
      "wickets": 8814,
      "presidency": 8815,
      "enjoyed": 8816,
      "enrollment": 8817,
      "cure": 8818,
      "cater": 8819,
      "dental": 8820,
      "gav": 8821,
      "iations": 8822,
      "sag": 8823,
      "wu": 8824,
      "enable": 8825,
      "enos": 8826,
      "amor": 8827,
      "aming": 8828,
      "chenn": 8829,
      "entities": 8830,
      "admitted": 8831,
      "accompany": 8832,
      "beam": 8833,
      "trich": 8834,
      "peare": 8835,
      "ife": 8836,
      "marines": 8837,
      "ellis": 8838,
      "elled": 8839,
      "displayed": 8840,
      "spawn": 8841,
      "eps": 8842,
      "laura": 8843,
      "metall": 8844,
      "barbad": 8845,
      "hyder": 8846,
      "gameplay": 8847,
      "supers": 8848,
      "placement": 8849,
      "backed": 8850,
      "vibr": 8851,
      "palmer": 8852,
      "superfamily": 8853,
      "supervis": 8854,
      "victims": 8855,
      "bike": 8856,
      "characteristic": 8857,
      "moderate": 8858,
      "podcast": 8859,
      "samples": 8860,
      "cardinal": 8861,
      "recognize": 8862,
      "companion": 8863,
      "survive": 8864,
      "exhibitions": 8865,
      "andrews": 8866,
      "skiing": 8867,
      "competitor": 8868,
      "riaa": 8869,
      "behavioral": 8870,
      "shells": 8871,
      "immediate": 8872,
      "renew": 8873,
      "paralympic": 8874,
      "segments": 8875,
      "henderson": 8876,
      "ulous": 8877,
      "absence": 8878,
      "amalgam": 8879,
      "portrait": 8880,
      "brewery": 8881,
      "usalem": 8882,
      "dangerous": 8883,
      "emirates": 8884,
      "kazakhstan": 8885,
      "abraham": 8886,
      "gecko": 8887,
      "shakespeare": 8888,
      "barcelona": 8889,
      "gif": 8890,
      "hire": 8891,
      "jets": 8892,
      "pag": 8893,
      "rish": 8894,
      "uous": 8895,
      "vat": 8896,
      "zones": 8897,
      "thum": 8898,
      "inno": 8899,
      "rebuilt": 8900,
      "amus": 8901,
      "amine": 8902,
      "acceler": 8903,
      "deaf": 8904,
      "beating": 8905,
      "tradem": 8906,
      "soph": 8907,
      "hoo": 8908,
      "lomb": 8909,
      "iments": 8910,
      "pris": 8911,
      "apost": 8912,
      "shri": 8913,
      "manip": 8914,
      "excav": 8915,
      "marcus": 8916,
      "disput": 8917,
      "canyon": 8918,
      "lesbian": 8919,
      "jews": 8920,
      "lawn": 8921,
      "warm": 8922,
      "burial": 8923,
      "varied": 8924,
      "harm": 8925,
      "historians": 8926,
      "runners": 8927,
      "extend": 8928,
      "developments": 8929,
      "wilder": 8930,
      "bridg": 8931,
      "combines": 8932,
      "jerusalem": 8933,
      "committees": 8934,
      "graduates": 8935,
      "synag": 8936,
      "armstrong": 8937,
      "promotional": 8938,
      "powder": 8939,
      "accused": 8940,
      "exhibited": 8941,
      "regulatory": 8942,
      "kolkata": 8943,
      "rendered": 8944,
      "evaluation": 8945,
      "facilitate": 8946,
      "herself": 8947,
      "cousin": 8948,
      "magnetic": 8949,
      "normandy": 8950,
      "phenomenon": 8951,
      "chennai": 8952,
      "trademark": 8953,
      "dame": 8954,
      "hin": 8955,
      "hale": 8956,
      "nh": 8957,
      "rica": 8958,
      "sight": 8959,
      "welf": 8960,
      "witch": 8961,
      "yale": 8962,
      "theological": 8963,
      "thesis": 8964,
      "editors": 8965,
      "revised": 8966,
      "uru": 8967,
      "ayat": 8968,
      "hex": 8969,
      "aggreg": 8970,
      "pei": 8971,
      "neys": 8972,
      "moss": 8973,
      "aps": 8974,
      "shed": 8975,
      "manif": 8976,
      "crest": 8977,
      "ptic": 8978,
      "cauc": 8979,
      "subscr": 8980,
      "aha": 8981,
      "governed": 8982,
      "skier": 8983,
      "researcher": 8984,
      "munich": 8985,
      "holly": 8986,
      "icians": 8987,
      "referring": 8988,
      "winston": 8989,
      "grande": 8990,
      "squash": 8991,
      "missile": 8992,
      "executed": 8993,
      "females": 8994,
      "sharp": 8995,
      "automotive": 8996,
      "sentence": 8997,
      "teles": 8998,
      "lynn": 8999,
      "polymer": 9000,
      "tasks": 9001,
      "detect": 9002,
      "wednes": 9003,
      "maurit": 9004,
      "hodges": 9005,
      "jakarta": 9006,
      "audiences": 9007,
      "welfare": 9008,
      "mia": 9009,
      "mington": 9010,
      "multim": 9011,
      "pend": 9012,
      "rca": 9013,
      "tues": 9014,
      "ying": 9015,
      "edmund": 9016,
      "rehab": 9017,
      "stom": 9018,
      "stayed": 9019,
      "unced": 9020,
      "eless": 9021,
      "ctic": 9022,
      "preston": 9023,
      "moment": 9024,
      "unders": 9025,
      "manual": 9026,
      "geological": 9027,
      "jobs": 9028,
      "knox": 9029,
      "amps": 9030,
      "portable": 9031,
      "overlap": 9032,
      "organisms": 9033,
      "belfast": 9034,
      "hamburg": 9035,
      "strepto": 9036,
      "persian": 9037,
      "cutting": 9038,
      "specialty": 9039,
      "quartet": 9040,
      "teenage": 9041,
      "kara": 9042,
      "streaming": 9043,
      "emerged": 9044,
      "dunge": 9045,
      "conductor": 9046,
      "fastest": 9047,
      "juries": 9048,
      "cooking": 9049,
      "propag": 9050,
      "baronetcy": 9051,
      "messages": 9052,
      "dreams": 9053,
      "mammals": 9054,
      "territorial": 9055,
      "terrorism": 9056,
      "varying": 9057,
      "luxem": 9058,
      "hidden": 9059,
      "density": 9060,
      "dimensional": 9061,
      "exposure": 9062,
      "spanning": 9063,
      "prestigious": 9064,
      "remembered": 9065,
      "eclipse": 9066,
      "circumstances": 9067,
      "aub": 9068,
      "kw": 9069,
      "lid": 9070,
      "obe": 9071,
      "patt": 9072,
      "rak": 9073,
      "send": 9074,
      "wight": 9075,
      "tham": 9076,
      "atu": 9077,
      "chak": 9078,
      "elia": 9079,
      "uran": 9080,
      "aded": 9081,
      "olive": 9082,
      "tering": 9083,
      "deut": 9084,
      "lyca": 9085,
      "loo": 9086,
      "logan": 9087,
      "hebrew": 9088,
      "idium": 9089,
      "compos": 9090,
      "compositions": 9091,
      "agen": 9092,
      "prono": 9093,
      "plum": 9094,
      "plates": 9095,
      "suite": 9096,
      "avian": 9097,
      "brent": 9098,
      "bryan": 9099,
      "porno": 9100,
      "cort": 9101,
      "endor": 9102,
      "endra": 9103,
      "discover": 9104,
      "phon": 9105,
      "lowland": 9106,
      "fergus": 9107,
      "harper": 9108,
      "anime": 9109,
      "winged": 9110,
      "slam": 9111,
      "iveness": 9112,
      "karen": 9113,
      "execution": 9114,
      "fortune": 9115,
      "medalist": 9116,
      "laser": 9117,
      "vertical": 9118,
      "performers": 9119,
      "finds": 9120,
      "jacksonville": 9121,
      "prototype": 9122,
      "peerage": 9123,
      "ritual": 9124,
      "plateau": 9125,
      "nutr": 9126,
      "cooperative": 9127,
      "legendary": 9128,
      "inaugur": 9129,
      "correspondent": 9130,
      "franco": 9131,
      "encourage": 9132,
      "vegetation": 9133,
      "delegates": 9134,
      "sponsorship": 9135,
      "chicken": 9136,
      "rookie": 9137,
      "yugoslav": 9138,
      "hyderabad": 9139,
      "baf": 9140,
      "eon": 9141,
      "gift": 9142,
      "khar": 9143,
      "liv": 9144,
      "oir": 9145,
      "spart": 9146,
      "sample": 9147,
      "vio": 9148,
      "vista": 9149,
      "wand": 9150,
      "wend": 9151,
      "isy": 9152,
      "atari": 9153,
      "unic": 9154,
      "acles": 9155,
      "sod": 9156,
      "uments": 9157,
      "cey": 9158,
      "propr": 9159,
      "este": 9160,
      "brack": 9161,
      "exposed": 9162,
      "indicated": 9163,
      "mari": 9164,
      "phant": 9165,
      "cola": 9166,
      "raiders": 9167,
      "herald": 9168,
      "merit": 9169,
      "generate": 9170,
      "oscar": 9171,
      "governance": 9172,
      "divine": 9173,
      "placing": 9174,
      "patch": 9175,
      "casino": 9176,
      "farming": 9177,
      "refused": 9178,
      "kenyan": 9179,
      "circular": 9180,
      "variable": 9181,
      "varieties": 9182,
      "turning": 9183,
      "bolivia": 9184,
      "lancaster": 9185,
      "dolph": 9186,
      "molecule": 9187,
      "discussion": 9188,
      "sculptor": 9189,
      "berkshire": 9190,
      "supplied": 9191,
      "photographs": 9192,
      "feminist": 9193,
      "suspended": 9194,
      "krishna": 9195,
      "exercise": 9196,
      "dialect": 9197,
      "kitchen": 9198,
      "inspiration": 9199,
      "synonym": 9200,
      "automatically": 9201,
      "recovery": 9202,
      "cattle": 9203,
      "fet": 9204,
      "gig": 9205,
      "gie": 9206,
      "mig": 9207,
      "tens": 9208,
      "tort": 9209,
      "vip": 9210,
      "atum": 9211,
      "lean": 9212,
      "toler": 9213,
      "unified": 9214,
      "tried": 9215,
      "hound": 9216,
      "loud": 9217,
      "utt": 9218,
      "approv": 9219,
      "opsis": 9220,
      "shine": 9221,
      "bria": 9222,
      "poems": 9223,
      "gra": 9224,
      "graves": 9225,
      "dispute": 9226,
      "angana": 9227,
      "ughton": 9228,
      "lowest": 9229,
      "aires": 9230,
      "raz": 9231,
      "carri": 9232,
      "carneg": 9233,
      "notice": 9234,
      "wrong": 9235,
      "catherine": 9236,
      "blade": 9237,
      "intosh": 9238,
      "develops": 9239,
      "ahan": 9240,
      "namely": 9241,
      "associates": 9242,
      "surg": 9243,
      "skele": 9244,
      "obacter": 9245,
      "voices": 9246,
      "handling": 9247,
      "ordained": 9248,
      "melan": 9249,
      "traded": 9250,
      "politicians": 9251,
      "modeled": 9252,
      "damaged": 9253,
      "hiatus": 9254,
      "killer": 9255,
      "liberation": 9256,
      "hawks": 9257,
      "providers": 9258,
      "maintaining": 9259,
      "pike": 9260,
      "accounting": 9261,
      "options": 9262,
      "jointly": 9263,
      "sacram": 9264,
      "bearing": 9265,
      "egg": 9266,
      "pirates": 9267,
      "ngc": 9268,
      "snout": 9269,
      "lutheran": 9270,
      "tackle": 9271,
      "proposal": 9272,
      "hurricane": 9273,
      "shanghai": 9274,
      "bago": 9275,
      "hier": 9276,
      "kul": 9277,
      "lc": 9278,
      "mbo": 9279,
      "uin": 9280,
      "zom": 9281,
      "eni": 9282,
[...]
